#version: 0.2
Ġ Ð
Ð ¾
Ð µ
Ð °
Ñ Ĥ
Ð ¸
Ñ ģ
Ð ½
Ñ Ģ
Ð¾ Ð
Ð »
Ñ ĥ
Ð° Ð
Ðµ Ð
Ñ ı
Ñ ĭ
Ñ Į
ĠÐ ¿
Ð º
Ġ Ñģ
ĠÐ ²
ĠÐ ½
Ñ ĩ
Ð ²
Ð ´
Ñģ ÑĤ
Ð ¼
ĠÐ ¾
ĠÐ ¸
Ðµ Ð½
Ñ ħ
Ð¾Ð ²
Ð° Ð»
ĠÐ º
ÑĤ Ð¾
Ðµ ÑĢ
Ñ Ī
Ð¾Ð »
ĠÐ ´
Ð¾Ð ¼
Ðµ ÑĤ
ĠÐ ¼
Ðµ Ð»
Ñ İ
Ġ ÑĤ
³ Ð¾
ĠÐ¿ ÑĢ
Ð° Ð½
Ð ¿
ĠÐ ±
â Ģ
Ð½ Ð¾
Ð° ÑĤ
Ð¾Ð ´
Ð ±
Ð¸ Ð»
Ð ·
Ð¸ ÑĤ
Ġ ÑĢ
Ð°Ð º
Ġ Ñĩ
ĠÐ ·
Ð¾Ð ¹
ĠÐ½ Ð°
Ð½ Ñĭ
Ñ Ĩ
ÐµÐ ¼
Ñģ Ñı
Ġ Ñĥ
Ð¾ ÑĢ
Â ł
ĠÐ½ Ðµ
Ð ¹
Ñģ Ðº
Ð ³
Ð¸ Ð½
Ð ¶
Ð°Ð ¼
Ñ ī
Ð°Ð ·
ĠÐ¿ Ð¾
Ð°Ð ²
ÐµÐ ´
Ð½ Ð¸
Ð° ÑĢ
Ġ Ñ
ĠÐ µ
Ð» Ð¸
âĢ Ķ
Ñģ ÑĮ
ĠÐ ³
Ð¾ Ð½
ÐµÐ½ Ð¸
Ð¾ ÑĤ
Ð¾Ð ±
Ð¾Ð ³Ð¾
ÐµÐ ¹
Ð¾Ð ³
ĠÐ »
Ð¸ Ð¼
Ð°ÑĤ ÑĮ
ĠÐ¾ ÑĤ
Ð½ Ð°
ĠÐ± Ñĭ
ĠÑ į
Ð¸ Ð²
Ð°Ð ´
ĠÑĩ ÑĤÐ¾
ÑģÑĤ Ð²
Ð¾Ð ¶
Ð° Ñģ
ÑĢ Ñĥ
Ð¾Ð º
Ð¾ Ñģ
ÐµÐ ²
ĠÐ °
Ð¾Ð» ÑĮ
ĠÐ Ĵ
ĠÑģ ÑĤ
Ð½ Ñĥ
ÑĤÐ¾ ÑĢ
Ð¸ Ðº
ÐµÐ º
ĠÐ ¶
ĠÐ¾ Ð±
âĢ ĵ
Âł Ð
ĠÐ² Ñĭ
ĠÐ Ł
Ð¸ Ñħ
Ð´ Ð°
Ð» Ñı
ĠÐ ¡
Ð¾Ð ·
ĠÐ Ŀ
Ð° Ñı
Ð¾ ÑģÑĤ
Ġ Ñı
ÐµÐ» ÑĮ
Ð» Ð°
Ð¸ÑĤ ÑĮ
Ð¸ Ðµ
ÐµÐ ·
Ð¸ Ð¹
ĠÐ² Ñģ
Ġ -
Ð¸ Ñı
ĠÐ ļ
Ð°Ð» Ð¸
Ð ³Ð¾
ĠÐ¸ Ð·
Ð¸ Ñĩ
ĠÑģ Ð²
ĠÐº Ð°Ðº
Ð¸ ÑĢ
Ðµ Ñģ
ĠÐ¿ Ð¾Ð´
ĠÐ ŀ
Ð¸ Ð´
ÐµÐ ±
Ð°Ð» Ð°
Ðµ ÑģÑĤ
Ð°Ð ¶
Ð¾Ð ¿
Ñ Ħ
Ð¸ Ð¸
ĠÐ ľ
Ðº Ð°
Ñĥ Ð´
Â «
Â »
Ġ Ñħ
Ñĥ ÑĤ
ÐµÐ ³Ð¾
Ñı ÑĤ
ÑĢ Ð°
Ð» Ð¾
Ð½ Ð¾Ð¹
Ð°Ð ±
Ġ Â«
Ðµ Ñĩ
Ðº Ð¾
Ð°Ð» ÑĮ
ĠÑģ Ð»
ĠÑĢ Ð°Ð·
Ðº Ð¸
ĠÑĤ Ð°Ðº
ĠÐ Ĳ
Ð¸ Ð·
ĠÐ¾ Ð½
ĠÐ· Ð°
Ð°Ð ¿
Ð¾ Ñĩ
ĠÐ ¢
ĠÐ Ķ
Ð° ÐµÑĤ
ĠÐ¿ ÐµÑĢ
Ð½ Ð¾Ð³Ð¾
Ð¸ Ñģ
ĠÐ ĺ
Ð½ Ðµ
ÐµÐ ¿
Âł âĢĶ
ĠÐº Ð¾
Ð½Ñĭ Ð¹
Ð°Ð¼ Ð¸
ĠÑį ÑĤ
Ð° Ñİ
ÐµÐ½Ð¸ Ñı
ĠÐµ Ð³Ð¾
Ñĭ Ð²
Ð°Ð ¹
ĠÑį ÑĤÐ¾
Ð½Ñĭ Ñħ
Ð½Ñĭ Ðµ
ĠÑģ Ðº
ĠÐ¿ Ð¾Ð»
Ñĥ Ñĩ
Ð¿ ÑĢ
Ð½Ñĭ Ð¼
Ñī Ðµ
Ðµ ÑĪ
Ð½Ð¾ ÑģÑĤ
Ðº Ñĥ
ÐµÐ ¶
Ñģ Ð»
Ð¸Ð» Ð°
Ġ âĢĶ
Ð¸Ð» Ð¸
ÐµÐ ³
ÐµÐ½Ð¸ Ðµ
Ñĥ Ð¼
ĠÐ ł
ĠÐ²Ñģ Ðµ
ĠÐºÐ¾ ÑĤÐ¾ÑĢ
ĠÐ¿ÑĢ Ð¾
Ñĥ Ð¶
ĠÑ Ħ
Ñĥ Ñİ
Ð°Ð ³
ĠÐ ĳ
Ġ ÑĪ
Ġ ÑĤÐ¾
Ñĭ Ð¹
ĠÑģÐ² Ð¾
Ðµ ÑģÐº
ÑĢ Ð°Ð½
Ð¾Ð¼ Ñĥ
Ð¾Ð»ÑĮ ÐºÐ¾
Ñ ĳ
Ð¾Ð³ Ð´Ð°
Ð¸ ÑģÑĤ
âĢ ¦
Ġ 1
ÐµÐ½ ÑĮ
Ñĥ ÑĢ
ĠÐ¾ Ð´
ĠÐ½ Ð¾
Ð¸ ÑĨ
Ñħ Ð¾Ð´
Ð° Ñħ
ĠÐ ³Ð¾
ÐµÐ½ ÑĤ
Ð° ÑģÑĤ
ÑĢÑĥ Ð³
Ð½ Ñı
Ñĭ Ðµ
ĠÐº ÑĢ
ĠÐ ĵ
ĠÐ¿ÑĢ Ð¸
Ð¶ Ðµ
Ð¾ Ðµ
ÐµÐ½ Ð½Ð¾
Ġ (
ĠÑģ Ð¿
Ð´ Ðµ
Ð°Ð» Ð¾
ÑģÑĤ ÑĢ
ĠÐ´ Ð²
Ð¸ÑĤ ÐµÐ»ÑĮ
ÑĪ Ðµ
ĠÐ¿ÑĢ ÐµÐ´
Ñģ Ð¿
Ñĭ Ñħ
ĠÐ¶ Ðµ
ÑĢ ÐµÐ¼
ĠÑģ Ð°Ð¼
Ñĭ Ð¼
ĠÑģ Ð¾
ÑĤ ÑĮ
Ð½Ð¸ Ðº
Ñ į
ĠÑĢ Ñĥ
ĠÐ Ľ
ĠÑĢ Ð°Ñģ
ĠÐ±Ñĭ Ð»Ð¾
ĠÐ¸ Ð¼
ÑĢ Ð¸
Ð¾Ð² Ð¾ÑĢ
ĠÐ ¯
Ð ¡
Ð½Ð° Ñı
Âł âĢĵ
ĠÐ¾ Ð½Ð°
ĠÐ² Ð¾
ÐµÐ½ Ñı
Ñĥ Ð¿
Ð½Ð¾ Ðµ
ÑĨ Ð¸
ĠÑģ Ð¼
Ð½ Ð¾Ð²
ĠÐ± ÑĥÐ´
ÑģÑĤ Ð°Ð²
Ñĥ ÑĪ
ĠÐº Ð¾Ð½
Ð°Ð» ÑģÑı
Ġ ÑĨ
ĠÐ³ Ð»
Ð¸Ñĩ ÐµÑģÐº
ĠÐ² Ð¾Ð·
ĠÐ» Ñİ
ĠÐ´ Ð»Ñı
Ð¾Ð± Ñĭ
Ð½Ñĥ Ð»
Ñģ Ð»Ð¸
ĠÐ ķ
ĠÐ Ń
Ġ âĢĵ
Ð¸Ð» ÑģÑı
ĠÐ¿Ð¾ ÑĤ
ĠÐ¿ Ð¾Ðº
ĠÐ¼ Ñĭ
Ð» ÑĮ
ÑĤ Ð¸
ĠÐµ Ðµ
Ð Ĵ
Ð¾ ÑĪ
Ð» Ñİ
ĠÑĤ Ñĭ
Ñĥ Ð±
ÐµÐ» Ð¸
Ð¾Ð² Ð°Ð½
ĠÐ±Ñĭ Ð»
ĠÑĤ ÑĢ
ĠÐ³ Ð¾Ð´
ĠÐ¼ ÐµÐ½Ñı
Ð° ÑĪ
Ð ŀ
ĠÐ² Ð·
ÑĮ Ñİ
ĠÐ¾ Ðº
ÑĢ Ð°Ð·
Ð Ł
ĠÐ¼ Ð¾Ð¶
ĠÐ £
Ð¼ Ñĥ
ĠÐ Ĺ
Ð² ÐµÑĢ
Ðµ Ñħ
ĠÑģÐº Ð°Ð·
Ð°Ñİ ÑĤ
Ð¸Ð½ Ð°
ÐµÑĤ ÑģÑı
ĠÐ´ Ð¾
ĠÐº Ð¾Ð¼
Ġ 2
ĠÐ´ ÐµÐ»
Ð½ Ð¾Ð¼
ÐµÐ¼ Ñĥ
ÑĢ Ñı
Ð Ŀ
ĠÐ´ ÑĢÑĥÐ³
Ð½Ð¸ Ð¼
ĠÐ» Ð¸
. .
Ð¾ Ñı
Ðµ Ðµ
Ð°ÑĤÑĮ ÑģÑı
Ð Ĳ
ÐµÐ± Ñı
ĠÑĤ Ð¾Ð»ÑĮÐºÐ¾
ĠÐ² ÑĢÐµÐ¼
ĠÐ¾ Ñģ
ĠÐ± Ð¾Ð»ÑĮ
Ð´ Ñĥ
Ð½Ð¾ÑģÑĤ Ð¸
ĠÐ¿ Ð»
Ñĭ ÑĤ
Ð½Ñĥ Ñİ
ĠÐ¿Ð¾ ÑģÐ»
ĠÐ¸ Ñħ
ÑıÑĤ ÑĮ
ÑĢ Ð¾Ð´
ĠÐ¸ Ð½
Ðº Ðµ
ĠÑĩ ÑĤ
ĠÐ³ Ð¾Ð»
Ð² ÐµÑĤ
ÑĨ Ð¸Ð¸
Ðº Ð¾Ð²
Ð´ ÐµÐ»
Ð ļ
ĠÐ´ Ð¾Ð»
ĠÐ¼ Ð½Ðµ
ĠÐ¾ Ð¿
ĠÐ¾ Ð½Ð¸
ĠÑĥ Ð¶Ðµ
ĠÐ½ Ð°Ð´
ĠÐµ ÑīÐµ
ÑģÑĤÐ² ÐµÐ½
ÑĢ Ð°Ð²
ĠÑģ Ð¾Ð±
Ð» ÐµÐ½
ÐµÐ» Ð¾Ð²
ĠÐ½ Ð°Ð¿
ÑĢ Ð¾Ñģ
ÑģÑĤÐ² Ð¾
ĠÐ¼ Ð¾Ð³
ĠÐ² Ð¸Ð´
ĠÑĩÑĤ Ð¾Ð±Ñĭ
ĠÐĿ Ð¾
ĠÐ §
Ðµ ÑĨ
Ñ Ĭ
Ñĥ ÑģÑĤ
Ð¸Ð» ÑĮ
Ð°Ð± Ð¾ÑĤ
Ð°ÑĤ ÐµÐ»ÑĮ
ÑģÑĤÐ² Ð°
ĠÐº Ð¾Ð³Ð´Ð°
Ð¸Ð» Ð¾
Ġ Ċ
ĠÐŀ Ð½
ĠÐ¸ Ð»Ð¸
Ð¸Ð¼ Ð¸
ĠÐ¾ Ñĩ
Ð¸ Ð³
Ð°Ð½ Ð¸Ñı
ĠÑģ Ð¾Ð²
ÑĢ Ð¾Ð²
ĠÐ¿ Ð¾Ð²
ĠÐ¿ Ð¾Ð¼
ĠÐ² ÐµÑĢ
Ð°ÐµÑĤ ÑģÑı
Ġ "
ÐµÐ± Ðµ
ĠÐ· Ð°Ðº
Ð° Ñĩ
Ð½Ð° Ñĩ
ÐµÑĢ ÑĮ
Ñĭ ÑĪ
ÑĢ Ð¾
Ð¼ Ð¸
Â» .
ĠÐ± ÐµÐ·
ĠÐ½Ð° Ñĩ
ÐµÑĪ ÑĮ
ÑĢ Ð°ÑĤ
ÑĤ ÐµÑĢ
ĠÐ¿ÑĢ Ð°Ð²
ĠÑĥ Ð´
ÐµÑĢ Ð¶
ĠÐº Ð¾ÑĢ
Ñĥ Ñģ
ĠÐ ¥
ÑĤ Ð°
Ð ĺ
ÑĢ ÐµÐ´
ÑģÐº Ð¾Ð¹
Ð°Ð½ Ð¾Ð²
ÐµÐ» Ð°
Ð½Ð¾ÑģÑĤ ÑĮ
ÑĤ Ð¾Ð²
Ð°Ð»Ð¸ ÑģÑĮ
ĠÐ¿ Ð¾ÑĢ
ĠÐ ¤
ĠÑĩ ÐµÐ»Ð¾Ð²
Ñĥ Ñħ
Ð°Ð»Ð¾ ÑģÑĮ
Ð°Ð¶ Ðµ
Ð ł
ĠÑħ Ð¾ÑĤ
ÑģÑĤ ÑĮ
ĠÐ³ Ð¾Ð²Ð¾ÑĢ
ĠÐ½ Ð¸
Ð ľ
Ð°Ð½ Ð¸Ðµ
Ðº Ð¾Ð¹
ĠÐ¾ ÑģÑĤ
ĠÐ· Ð°Ð¼
Ð°Ð½ Ð´
Ð¸Ð½ Ñĥ
ĠÐ½ Ð¸Ðº
ÐµÑĤ ÑĮ
ÑģÐº Ð¾Ð³Ð¾
Ð½ÑĭÐ¼ Ð¸
ÑĤ Ðµ
Ð» Ð°Ð´
Ð¸ÑĤÑĮ ÑģÑı
ĠÑĩ ÐµÐ¼
ĠÑģÐ» Ð¾Ð²
Ð¸ÑĤ ÑģÑı
ĠÑĩ ÐµÑĢ
ÐµÑĢ Ð°
Ð°Ð»Ð° ÑģÑĮ
Â» ,
ÑĪ Ð¸
ĠÐ½Ð° Ñģ
Ð³ ÑĢ
Ð¾ÑĤ ÑĢ
ĠÐ¼ Ð¾
Ñİ ÑĤ
ÑĤ ÑĢ
Ð ¢
ĠÐ· Ð°Ð¿
ĠÐµ ÑģÐ»Ð¸
ĠÐµ Ð¼Ñĥ
ÑĪ ÑĮ
ĠÐ¿Ð¾ Ñģ
ĠÐ¿Ð¾ Ñĩ
Ð Ķ
ĠÐ²ÑĢÐµÐ¼ Ñı
ĠÐ¿ÑĢ Ð¾ÑģÑĤ
ĠÐ±Ñĭ Ð»Ð°
ĠÐ»Ñİ Ð±
Ð¸Ð· Ð½
ĠÐ¿ Ð¾Ð¿
Ð¾Ñģ Ñģ
ĠÐ¼ ÐµÑģÑĤ
Ð°Ñİ Ñī
Ġ1 9
ĠÐ¿ÑĢ Ð¸Ð½
ĠÑĥ Ñĩ
Ð¸Ð»Ð° ÑģÑĮ
Ð¼ Ð°
ĠÑĩÐµÐ»Ð¾Ð² ÐµÐº
ÑģÐº Ð¸Ð¹
ÑĨ Ð°
Ð°Ð¶ Ð´
Ð» Ðµ
ĠÐ±Ñĭ Ð»Ð¸
ĠÐ· Ð½
Ñı Ð·
Ð¾Ð¶ Ðµ
ĠÐ¿ Ð°ÑĢ
Ð¿ÑĢ Ð°Ð²
ÐµÐ½Ð¸ Ð¸
Ð¸ÑĤ Ðµ
ÑĢ Ñĭ
ĠÐ¿ Ð¾Ð·
Ð¸ÑĢ Ð¾Ð²
Ðµ Ñī
Ð³ Ð»Ñı
Ð½Ñĥ Ð»Ð°
ĠÐ´ Ð°Ð¶Ðµ
ĠÐ½ Ð°Ð·
Ð¸ Ñİ
Ðº Ð¾Ð¼
Ð¿ Ð¾Ð»
Ð» ÐµÐº
ĠÐ±ÑĥÐ´ ÐµÑĤ
Ñı Ð²
ĠÑĤ ÐµÐ¼
ĠÐ± Ð¾Ð»
Ñģ Ðµ
ÐµÐ» Ñı
ĠÑĢ Ð°Ð±Ð¾ÑĤ
ĠÐ¾ÑĤ Ðº
ĠÐ½Ð° ÑĪ
ĠÑģ ÐµÐ±Ñı
Ð»Ð¸ Ð²
Ð¸Ð»Ð¸ ÑģÑĮ
Ð½ ÐµÐ¹
ĠÐ¿ÑĢ Ð¾ÑĤ
ĠÐ¼Ð¾Ð¶ ÐµÑĤ
ĠÐ¿ÑĢ Ð¾Ð´
ÑĮ Ñı
ĠÐ´Ð¾Ð» Ð¶
ÂłÐ Ŀ
ĠÐ³Ð» Ð°Ð·
ÐµÐ½ Ð°
Ñĥ Ð²
ĠÑģÐºÐ°Ð· Ð°Ð»
Ð´ Ð¸
ĠÐ½ ÐµÐ³Ð¾
ĠÑĤ Ð¾Ð³Ð¾
ĠÑįÑĤ Ð¾Ð¼
ÐµÑģ Ñģ
Ñĥ Ð½
ĠÐŃ ÑĤÐ¾
ĠÑģÑĤ Ð°ÑĢ
ĠÐ¿ÐµÑĢ Ð²
ĠÐ´ Ð¾Ð¼
ĠÐ¿ÐµÑĢ ÐµÐ´
Ñı Ð´
Ð¸ Ð½Ñĭ
ĠÑģ ÑĤÐ¾
ĠÐº Ð¾Ð»
ĠÐ¸ ÑģÐ¿
ĠÐ· Ð°Ð²
ĠÑĥ Ð²
ĠÑĢ ÐµÑĪ
ÐµÐ» Ð¾
ĠÐ³ Ð´Ðµ
ĠÐ½ ÐµÐ¼
ĠÐ½ Ð¾Ð²
ĠÐ³Ð¾Ð» Ð¾Ð²
ĠÐ¼ Ð¾Ð»
ĠÐŁ ÑĢ
ĠÐµ ÑģÑĤÑĮ
ĠÑĥ Ð±
ĠÐ¾Ñĩ ÐµÐ½ÑĮ
ĠÐ³ ÑĢ
ĠÐ¿ÑĢ Ð¾Ð²
ĠÐ±Ñĭ ÑĤÑĮ
ĠÐ¿Ð¾ ÑģÑĤ
ĠÑįÑĤ Ð¾Ð³Ð¾
ĠÐ½ ÐµÐ¿
ĠÐ½ ÐµÑĤ
Ð¾ÑģÑĤ Ð¸
ĠÐĿ Ðµ
Ð¾Ð± ÑĢ
ĠÑĩ Ð°ÑģÑĤ
ĠÐ³Ð¾Ð´ Ð°
ĠÑģ Ñĩ
Ð¾ Ñħ
ÐµÐ¹ ÑģÑĤÐ²
) .
Ġ2 0
ĠÑģ Ð¾ÑģÑĤ
Ð¸ Ð±
Ð°Ð½ ÑĤ
Ð¼ ÐµÑĢ
Ñĩ Ð°Ñģ
ĠÐ· Ð½Ð°
ĠÐĿ Ð°
Ð°Ð½ Ð°
ĠÑģÐ» ÑĥÑĩ
Ñĥ Ñī
ĠÑģÐ» ÐµÐ´
ĠÐ· Ð°Ð´
Ñĥ Ð´Ð°
ĠÐ¿ÑĢ Ð¸Ð²
ĠÐ° Ð²
ĠÑĤ Ð¾Ð¼
Ð°Ð² ÑĪ
Ñĥ Ð»ÑĮ
ĠÐ¿Ð¾Ð» ÑĥÑĩ
ĠÑģ ÑĤÐ¾ÑĢ
Ð¼ Ð¾Ð¶
ĠÑģ Ð´ÐµÐ»
Ñĥ Ðº
Ð»Ñİ Ñĩ
ĠÐ± Ð»
ĠÐ° ÑĢ
Ð¾ÑĢ Ð¾ÑĪ
Ñı Ð»
ÐµÐ¿ ÐµÑĢÑĮ
ÑĨ Ðµ
Ð¿ ÐµÑĢ
ĠÐ¾ÑĤ Ð²ÐµÑĤ
Ð¸Ð»Ð¾ ÑģÑĮ
ĠÐ» ÐµÑĤ
ÑĢÑĥ Ð´
ÑģÐº Ð¸Ñħ
Ñĥ Ð»
ÑĢÑĥ Ð¶
Ð¸ÑĤÐµÐ»ÑĮ Ð½Ð¾
ÐµÐ½ Ñĭ
ĠÐº ÑĤÐ¾
ĠÐ´ Ð¾ÑģÑĤ
ÐµÑĤ Ðµ
ĠÐ½ ÐµÐ´
Ð ĵ
Ð ĳ
ĠÐ±Ð¾Ð»ÑĮ ÑĪ
ÐµÐ½Ð¸ ÐµÐ¼
ÑĨ Ñĭ
ĠÐ½ Ð¸Ñĩ
ÐµÐ´ ÑĮ
Ð² Ð°ÑĤ
ÐµÐ½Ð¸ Ð¹
ĠÑĤ Ð°Ð¼
ĠÐ ¨
ĠÐŁ Ð¾
ĠÐ½ Ð°Ð¼
ÑĢ Ðµ
ÐµÐ¹ ÑĩÐ°Ñģ
Ñĩ Ð½Ð¾
Ñĥ Ð·
ĠÐºÐ¾ÑĤÐ¾ÑĢ ÑĭÐµ
Ð½Ð¸ ÐºÐ°
ĠÑģÑĤ ÑĢÐ°Ð½
Ñĥ Ð³
Ð´Ðµ ÑģÑĮ
ĠÐļ Ð°Ðº
Ñĥ ÑīÐµ
ĠÐ» Ð¸ÑĨ
Ð¸ Ð¶
Ð¾ÑĢ Ð¼
ĠÐºÐ¾ÑĤÐ¾ÑĢ ÑĭÐ¹
Ñı Ñī
ÑģÑĤÑĢ Ð¾
Ð» Ð°Ñģ
Ð½Ðµ Ðµ
ÑĨ Ð¸Ñı
ĠÐ¿Ð¾ÑģÐ» Ðµ
ĠÐ½ Ð¸Ñħ
Ð¾Ð»ÑĮ Ð·
ĠÐ¾Ð± ÑĬ
ĠÐ¶ ÐµÐ½
ÑĢ ÑĭÐ²
ĠÐ¸ ÑģÑĤ
ÐµÐ½Ð¸ Ñİ
Ð½ÑĥÐ» ÑģÑı
Ñı Ð¼
ĠÐ¾Ð´ Ð¸Ð½
ĠÐ¼Ð¾Ð¶ Ð½Ð¾
Ð° ÐµÐ¼
ÐµÑĤ Ð°
Ð¸Ðº Ð°
ĠÑģ ÐµÐ±Ðµ
Ðµ ÑģÑı
ĠÐ· Ð°Ð±
ĠÐŀ Ð½Ð°
Ð°ÑĢ ÑĤ
ĠÐ¢ Ð°Ðº
Ð½ Ð°Ðº
Ñı Ñģ
Ð¾Ð½ Ð°
ĠÐ² Ð¾Ð»
Ð¸Ð½ Ðµ
ĠÐ½ ÑĥÐ¶
ĠÐ½Ðµ ÑģÐº
ÑĢÑĥ Ð¿
ÐµÑĢ ÑĤ
Ð¸Ðº Ð¸
ĠÑĤ ÐµÐ±Ñı
ÐµÑĢ Ð¸
ĠÑģ Ð¿ÑĢ
ÑģÑĤÐ² Ð¾Ð²
Ð ķ
ĠÐ¼ Ð¸Ð½
Ð» ÐµÐ½Ð¸Ñı
ĠÐ´ ÐµÐ²
Ñĭ Ð±
ÑĢ Ð°Ñģ
ĠÑĥ Ðº
ĠÐĶ Ð¶
ĠÐ¿Ð¾ÑģÐ» ÐµÐ´
.. .
ĠÐ±Ð¾Ð»ÑĮ ÑĪÐµ
ĠÐ½Ð° ÑģÑĤ
ĠÑĢÐ°Ð· Ð²
Âł Âł
ĠÑģ ÐµÑĢ
ĠÐł Ð¾ÑģÑģ
ĠÑįÑĤÐ¾ ÑĤ
ĠÐ³Ð¾ ÑĢÐ¾Ð´
ÑĥÑİ Ñī
ÑĭÐ¼ Ð¸
Ð°Ð· ÑĭÐ²
ĠÑģÑĤ Ð¾Ð»
ÐµÐ¶ Ð´Ñĥ
ÑĢÐ° Ñī
ĠÐ² Ð¾ÑĤ
ĠÐ±Ð¾Ð» ÐµÐµ
ĠÐ¿ÑĢÐ¾ÑĤ Ð¸Ð²
Ð½Ð¸Ðº Ð¾Ð²
ĠÐ¡ ÑĤ
ĠÑı Ð²
ĠÑį Ðº
ÐµÑĢ ÑĪ
Ð² ÐµÑģÑĤ
Ð Ľ
Ð¾Ð± Ñī
ÑĥÐ´ ÑĮ
ĠÐ¿ÑĢÐ¾ÑģÑĤ Ð¾
ĠÐ´ ÐµÐ¹ÑģÑĤÐ²
ĠÐ½ ÐµÐ²
ĠÐ´ ÑĥÐ¼
) ,
ĠÐ² Ð¾Ð´
ĠÐ¼ Ð¸ÑĢ
ĠÐ¾ ÑĢ
Ð½Ñĥ ÑĤÑĮ
ĠÐ½Ð¸Ñĩ ÐµÐ³Ð¾
Ð³Ð»Ñı Ð´
Ð¼ ÐµÑģÑĤ
Ð· Ð°
Ð» Ð°Ð²
ĠÐ²Ñĭ Ñģ
Ð¼ Ð¾ÑĤÑĢ
Ð¾ÑģÑĤ ÑĮ
ĠÐ¿ Ð¾Ð³
ĠÐ² Ð¾Ñģ
Ñİ Ñī
Ð² Ð¾
Ð»Ð¸ Ñĩ
Ð°Ñı ÑģÑĮ
ĠÐ¿ÑĢÐµÐ´ ÑģÑĤÐ°Ð²
ĠÐ¸ ÑģÐº
Ġ 3
Ð ¯
ĠÐ² Ð¾Ð¿
ĠÐ¶ Ð¸Ð²
ĠÐ´ ÐµÐ½ÑĮ
ĠÑĢ Ð¾Ð´
Ð°Ðº ÑĤ
Ð¾Ð¶ Ð´
Ð¸ ÑģÐº
ĠÐ¼ Ð½
ĠÐ¼ ÑĥÐ¶
ÑĪÐ¸ ÑģÑĮ
Ð¸ Ð¿
ÐµÑĤ Ñĭ
Ð½ Ð¾Ð¼Ñĥ
ÑĪ ÐµÐ»
Ñĥ ÐµÑĤ
ĠÐ· Ð²
ĠÐ¿ Ð¾Ð±
Ð´ Ð¸Ð½
ĠÑģÑĤ ÑĢ
ÂłÐ Ĵ
ĠÐµ Ð¹
Ðº Ð°Ð¼Ð¸
Ð¸ Ð¾Ð½
ĠÐĲ Ð½
Ð°Ð½ Ð¸Ð¸
ĠÑĥ Ð¼
ÐµÑģ Ð¿
ĠÐ· Ð°Ð½
ĠÑĤ ÑĥÑĤ
ĠÐ»Ñİ Ð´
ÑĨÐ¸ Ð¾Ð½
ĠÐ· Ð´ÐµÑģÑĮ
ĠÑģ Ð¾Ð·
Ð»Ð° ÑģÑĤ
ĠÑĥ Ð»
ĠÑĤ Ð¾Ð¶Ðµ
ÑĥÑĤ ÑĮ
ĠÑģ Ð¸Ð»
ÑģÐº Ð¸Ðµ
ÐµÐº ÑĤ
Ð¾Ð» Ð½
Ġ Ġ
Ð» Ð¸Ð½
ĠÐ¿ÑĢÐ¾ Ð¸Ð·
ĠÑģ ÐµÐ¹ÑĩÐ°Ñģ
Ð» ÐµÐ½Ð¸Ðµ
ĠÐ½ Ð°Ð²
ĠÐ² Ð¾Ð¹
ĠÑģÐ¿ÑĢ Ð¾Ñģ
Ð¾Ð» Ð¶
ÂłÐ Ł
Ð¾Ð¼ Ð½
Ð¸Ð² ÑĪ
ĠÐ² Ð°Ñģ
Ð² Ð¾ÑĢ
ĠÑĩÐµÑĢ ÐµÐ·
ĠÑħ Ð¾ÑĢÐ¾ÑĪ
ĠÑĤ ÐµÐ±Ðµ
ĠÑĥ Ð¶
ĠÐ²ÑģÐµ Ñħ
ĠÐ¼ Ð°ÑĤ
ĠÐ¾Ð± ÑĢÐ°Ð·
ĠÐ¿Ð¾ÑĤ Ð¾Ð¼
ĠÑĢ ÐµÐ·
ĠÐ²Ñģ ÐµÐ³Ð¾
Ð¸ Ñī
Ð¸ ÐµÐ¼
ĠÐ¶ ÐµÐ»
Ð £
Ñį ÑĤ
ĠÑģ ÑĢÐµÐ´
ĠÑĤ ÐµÑĢ
ĠÑģÐ¾ Ð¾Ð±Ñī
Ñģ Ð°
ĠÐ» ÑĥÑĩ
ÐµÐº Ð¾
0 0
ĠÐ· Ð°ÑĤ
ÐµÐ» ÐµÐ¹
ĠÐ³Ð¾ ÑĢ
ĉ ĉ
ĠÐ² ÑģÑĤÑĢ
ÐµÐ½ Ð½ÑĭÐ¹
ĠÐ½ÐµÑģÐº Ð¾Ð»ÑĮÐºÐ¾
ĠÐ½ Ð°Ðº
Ð½Ð¸ Ñĩ
Ñı Ð¶
ĠÑĤ ÐµÐ¿ÐµÑĢÑĮ
ÑĤÐµÑĢ ÐµÑģ
Ðº ÑĤ
Ð¸ ÑĪ
ÑĨ ÐµÐ²
ĠÑĥ ÑģÑĤ
ĠÐ½ ÐµÐ¹
Ð¾ Ð½Ñĭ
Ñı Ð½
ĠÑĢ Ð°Ð´
ĠÐ· ÐµÐ¼
ÑĢ Ð°Ð¶
ÂłÐ Ķ
ĠÐ² Ð´
Ð³ Ð°Ð½
Ð¾Ð² Ð°
ĠÐ¿Ð¾ Ð½
ĠÐ³Ð¾Ð´ Ñĥ
ĠÐ½ Ð¸Ð¼
ĠÐ¿ÑĢ Ð¾Ð±
ĠÐ¾ ÑģÑĤÐ°Ð²
Ð¸ÑĢ Ð¾Ð²Ð°Ð½
Ð»Ð¸ ÑģÑĮ
ĠÐ´ Ð°
ĠÐ¾ÑĤ Ð½Ð¾
Ð¾ÑĢ ÑĤ
Ð² Ð°
Ñĭ Ð»
ÐºÐ° Ñħ
Ð³ Ð¸
ĠÐ´ Ð¾ÑĢ
ÑĢ Ð¾Ð¼
ĠÐ²Ð¾Ð¿ ÑĢÐ¾Ñģ
ÐµÑĩ Ð½Ð¾
ĠÐĴ Ñĭ
Ð¾ Ñī
e r
Ñĥ ÑģÐº
Ð¼ ÐµÐ½
ĠÐ³Ð» Ð°Ð²
ĠÑĥ ÑģÐ¿
ĠÐºÐ¾Ð¼ Ð¿
Ð½Ð¸ ÐºÐ¸
ĠÐķ ÑģÐ»Ð¸
ĠÑĤÐ°Ðº Ð¶Ðµ
ĠÐ´ ÐµÑĤ
ĠÐ± ÑĢ
ĠÑĩ ÑĥÐ²
ĠÐŀ ÑĤ
ÐµÑģÑĤ Ð¸
ĠÐ ĸ
Ð» ÐµÑĤ
ĠÐ½Ð°Ð´ Ð¾
ÐµÐ½ Ð½ÑĭÑħ
ĠÑģÐ²Ð¾ ÐµÐ¹
Ð² Ð¾Ð»
ĠÑĢ Ð°Ð½
ÐµÐ½ Ð½ÑĭÐµ
ÑĢÐ° ÑĪ
Ð½Ð¾Ð² Ð°
ĠÐº Ð°Ð¶Ð´
ĠÐ´ ÑĢ
Ðº Ð¸Ð¹
ÂłÐ ¢
ĠÑĤ ÐµÑħ
Ð°Ð² Ð½Ð¾
ĠÐ¼ ÐµÐ¶Ð´Ñĥ
ĠÐ¼ Ð½Ð¾Ð³Ð¾
ĠÐ²Ð¾Ð· Ð¼Ð¾Ð¶
ĠÑĤÐ¾ ÑĤ
ĠÐº Ð°ÑĢ
ÑģÑĤÐ² Ðµ
ĠÐ² Ð°Ð¼
ĠÐ½Ð° ÑħÐ¾Ð´
ĠÐ° Ð½
Ð¸Ð¼ Ð¾
Ð°ÑİÑĤ ÑģÑı
Ð Ĺ
Ð° ÑģÐº
Ð½Ñı Ð»
ÑĥÐ»ÑĮ ÑĤ
Ð¾ ÑģÐº
ÐµÑĢ Ð³
ÐµÐ³ Ð´Ð°
ĠÐ¿Ð¾ Ð½Ð¸Ð¼
Ð± Ð¾ÑĢ
ĠÐ¸ Ñģ
Ð°Ð»ÑĮ Ð½Ð¾
Ð½Ð°Ðº Ð¾
Ð² Ð¾Ð´
ĠÑĥ Ñģ
ĠÐ»Ð¸ ÑĪÑĮ
Ð½Ð¸ Ðµ
ĠÐ¿ÑĢÐ¾ ÑĪ
ĠÑĥ ÑĤ
ĠÐĶ Ð°
ĠÐ¿ÑĢ Ð¸Ðº
ĠÐ¢ Ñĭ
ĠÐ² ÐµÐ»
ĠÑįÑĤ Ð¾Ð¹
ĠÐ¿Ð¾Ðº Ð°
ÑĨÐ¸ Ñİ
ĠÑĢÐ°Ñģ Ñģ
ĠÐ¼ Ð°Ð»
ĠÐ³Ð»Ð°Ð· Ð°
Ñĭ Ñĩ
ĠÑĥ Ð¿
ĠÐ³Ð¾Ð» Ð¾Ñģ
ĠÑĥ Ð·
ĠÑħ Ð¾Ñĩ
ĠÐ¿ÑĢ Ð¸Ð¼
ĠÑĢÐ°Ñģ ÑģÐº
ĠÐ¾Ðº Ð°Ð·
ĠÑģ ÐµÐ¼
ĠÑģÐ²Ð¾ Ñİ
Ð¸Ð· Ð½Ð¸
ĠÐ· Ð½Ð°Ñĩ
Ð¾Ð² Ð°ÑĤÑĮ
ĠÐ´ Ð¾Ð±
ĠÐºÑĢ Ð°Ñģ
ĠÐ¿ÑĢ Ð¸Ñģ
ĠÐ¼ Ð¾ÑĢ
ĠÐ¿ÑĢÐ¾Ð´ Ð¾Ð»Ð¶
ĠÑģÑĤÐ¾ÑĢ Ð¾Ð½
Ð¾Ð½ Ñĩ
ĠÑģÐ² ÑıÐ·
Ð» Ð¾Ð¶
ÂłÐ Ĳ
ĠÑĤ ÐµÐ»
ĠÑĥ Ð³
ĠÐ§ ÑĤÐ¾
Ð² Ð°ÑĢ
Ð¼ Ñĭ
ÐµÑĢ ÐµÐ²
ÑĢÐ° ÑĦ
ĠÐ¶ Ð¸Ð·Ð½Ð¸
ĠÐ¶ÐµÐ½ Ñī
ĠÐ½Ðµ Ðµ
ĠÑĥ ÑģÐ»
Ð¾Ð» Ð¾Ð³
ÐµÐ½ Ð¾
Ð½ Ñİ
Ð» ÐµÐ´
Ð» ÐµÐ¼
ĠÑĥÐ² Ð¸Ð´
ĠÐ¿ Ð¾Ð¶
ÑģÐº Ð°Ñı
ĠÐ½ ÐµÐ±
ÑĢ Ð°Ð¼
Ð¸ ÑĢÑĥ
Ð½Ð¸ Ð¹
ĠÐ¶ Ð¸Ð·Ð½
ÑģÑĤÐ² ÐµÐ½Ð½Ð¾
ĠÐ¿Ð¾ÑĤ Ð¾Ð¼Ñĥ
ĠÐ´ Ð¾Ðº
ĠÐ½ Ð¾Ð³
ÐµÐ½ Ð½Ð¾Ð¹
Ð¾Ñģ Ð¾Ð±
Ð¸Ñı ÑĤ
ĠÐ¾Ñģ Ð¾Ð±
ÑĪ Ð¸Ð¹
ĠÐ¸Ð¼ Ðµ
Ð¼ Ð°Ð½
ĠÐľ Ð°ÑĢ
ÑģÑĤ ÑĥÐ¿
Ð°Ð ³Ð¾
ĠÐŀ Ð´
ÑĤ Ð°Ðº
Ð³ Ð°
ĠÐľ Ñĭ
Ñģ ÐµÐ¼
ÑĢ ÑĭÑĤ
ĠÑĩ Ð°Ñģ
Ð½Ñĥ Ð²
Ð± Ñĭ
ĠÐ¾Ñģ Ð½Ð¾Ð²
ĠÐ½ Ð¾Ñĩ
Ð¿ÑĢ ÐµÐ´
ĠÑĢ Ðµ
ĠÑģÑĩ Ð¸ÑĤ
Ð½Ð¸ Ð±
ÑĥÐ´ Ð°ÑĢ
ĠÐ² Ð°ÑĪ
ÐµÑĢ Ð²
Ð½ Ð°ÑĢ
Ðµ ÑģÑĮ
Ð ¤
ĠÑģÐ¾Ð² ÐµÑĢÑĪ
ĠÐ» ÐµÐ³
ĠÐ¿ÑĢ Ð¸Ð´
Ð½Ð¾ÑģÑĤ ÑĮÑİ
ĠÑģÐº Ð¾ÑĢ
Ð½Ñĥ ÑĤ
ÐµÐ³ Ð¾Ð´
ĠÐ² Ð¼ÐµÑģÑĤ
Ð± Ð¾
ĠÐ½ Ð°Ð±
Ð´ ÐµÑĢÐ¶
Ð½Ð¸Ð± ÑĥÐ´ÑĮ
Ð°ÑĤÐµÐ»ÑĮ Ð½Ð¾
Ð»Ð° ÑģÑĮ
ĠÐ½Ðµ Ñģ
ĠÑįÑĤ Ð¸
ĠÑģÑĤ Ð°Ð»
ÑĦ Ð¾ÑĢ
Ð¸ ÑĪÑĮ
Ġ Ñİ
ĠÑģ Ñĭ
ĠÑĥÐ» ÑĭÐ±
Ð¾Ð² Ð¾Ð»ÑĮ
ĠÐŀ Ð½Ð¸
ĠÑģ Ð½Ð¾Ð²Ð°
ĠÐ²Ñģ ÐµÐ³Ð´Ð°
ĠÑģ Ð¾Ð³
Ð¼ Ðµ
ĠÐ¼ ÐµÐ´
Ð°Ñģ Ñģ
ĠÐ² ÐµÐ´ÑĮ
ĠÐ¿ÑĢ Ð¾Ñģ
ĠÐłÐ¾ÑģÑģ Ð¸Ð¸
ÑģÐº Ð¾Ð¼
ĠÑĤÐ°Ðº Ð¾Ð¹
ÂłÐ ¯
Ð°ÑĤ Ñĭ
Ð¾ÑĢ Ð°
ĠÐº Ð°Ð¼
ĠÑģÐ¾ÑģÑĤ Ð°Ð²
ĠÐ´Ð² Ð°
Ð¾Ð² Ð°ÑĢ
Ð¸Ð² Ð°ÑĤÑĮ
ĠÐ¿Ð¾ Ñħ
Ġ 4
Ð´ ÐµÑĤ
ĠÑĤ Ð¾Ð³Ð´Ð°
ĠÐ¼ ÐµÑĤ
ĠÑĤ Ðµ
ĠÐ¾ÑĤ Ð´
ĠÐ²Ñģ ÐµÐ¼
ĠÐ´Ð¾ÑĢ Ð¾Ð³
Ð°ÑĤ Ð°
ĠÑģÐ¼ Ð¾ÑĤÑĢ
Ġ20 1
ĠÑģ Ð¸Ð´
ĠÐ¿Ð¾ ÑıÐ²
Ð» Ð¾Ð½
ĠÐ¾Ð± Ñī
ĠÐ² ÑģÑı
ÐµÑĢ Ðµ
ĠÐĿ Ð¸Ðº
ÂłÐ ļ
Ð°Ð¹ ÑĤÐµ
Ð»Ð¸ Ð·
ĠÐ¿ÑĢ Ð¾Ð³
ÑĢÐ°Ð· Ñĥ
Ð¾Ðº Ð°
ÂłÐ ¡
Ð» Ð¾Ð²
ÑĤ Ð¾Ð¼
i n
Ð¾ ÑıÑĤ
ĠÑĩ ÐµÐ³Ð¾
ĠÐ ¦
Ð¸ ÑģÑĮ
ĠÐ² ÑĤÐ¾ÑĢ
ĠÐº Ð°Ð·
ĠÐ¿Ð¾Ñĩ ÑĤÐ¸
ĠÐ´ÐµÐ» Ð¾
ĠÐ»ÑİÐ´ ÐµÐ¹
ĠÐ·Ð°Ð¼ ÐµÑĤ
Ġ ÑĤÐ¾ÑĢ
Ð°Ð´ ÑĨ
ĠÐ²Ñĭ Ð¿
Ð §
Ð Ń
ÑĢÑĥ Ð·
ĠÐŀ Ð±
Ñħ Ð²Ð°ÑĤ
a n
ÑĤÐ¾ Ñĩ
Ð¸Ñģ Ñģ
ĠÐ¿ÑĢ Ð¸Ñĩ
Ð¾Ð¼ Ð¸Ð½
Ð¾Ðº Ð¾Ð¹
Ð² Ð°Ð½
ĠÑģ ÑĥÑīÐµ
ĠÐ½Ð¸Ðº Ð°Ðº
ĠÐ³Ð¾ Ñģ
ĠÐ³Ð¾ ÑĤÐ¾Ð²
Ð¾Ðº Ð¾
ĠÑģÐ²Ð¾ Ð¸Ñħ
Ð¾ Ð½Ð¸
Ð¾Ð´ Ð°
ĠÐ¿Ð¾Ðº Ð°Ð·
Ñĩ Ð¸Ðº
Ð°Ð» Ðµ
ĠÐ¾ÑĢ Ð³Ð°Ð½
ĠÐĴ ÑģÐµ
Ð»ÐµÐº Ñģ
ĠÐ¸ÑģÑĤ Ð¾ÑĢ
Ñı Ð±
ĠÐ¿ÑĢÐ¸ ÑĪ
Ð° ÐµÑĪÑĮ
Ð¸Ð½ Ð¾Ð¹
ĠÐ¿ ÑĥÑģÑĤ
Ġ 5
Ð¾ÑĢ Ð¾Ð²
Ð°Ñı Ð²
ÑĨ Ñĥ
ĠÑģ ÐµÐº
ÑıÑģ Ð½
ĠÑĢ ÑıÐ´
ĠÐ¾ÑĤ Ð²
ĠÐ· Ð°Ñģ
ÑĢÑĥÐ¿ Ð¿
Ð½ÑĥÐ»Ð° ÑģÑĮ
ĠÑģ Ð¸Ð»ÑĮ
ĠÑģÐ²Ð¾ Ð¸
Ð½ ÐµÐ¼
ĠÐ²Ð· Ð³Ð»ÑıÐ´
ĠÑģÐ²Ð¾ ÐµÐ³Ð¾
Ð¸Ð· Ð°
ÑĢ ÐµÑĤ
Ð´ Ñĭ
ĠÐ²Ñģ Ð¿
ĠÐ´ ÐµÑĢÐµÐ²
ĠÐ½Ð°Ð¿ ÑĢÐ°Ð²
ĠÐ´ Ð°Ð½
ĠÑģÐ² ÐµÑĤ
Ð¼ ÐµÑĤ
Ð°ÑĢ Ð°
ĠÐ¼ Ð°ÑĪ
ĠÐ¼Ð¸Ð½ ÑĥÑĤ
ÑĮ Ðµ
ÐµÐ³Ð¾Ð´ Ð½Ñı
ÑĢÑĥ ÑĪ
ĠÐ· Ð°Ð³
ÂłÐ ŀ
ĠÑħÐ¾ÑĤ Ñı
ÑĪ Ð¸Ñħ
ĠÐŁ Ð¾Ñģ
ĠÐ²ÑĢÐµÐ¼ ÐµÐ½Ð¸
" ,
ĠÐ¿Ð¾Ð» Ð¾Ð¶
ĠÐ· Ð°ÑĢ
ĠÐ¿Ð¾Ð² ÐµÑĢ
ÑĢ Ð¾Ð¿
Ð¸ÑĤ Ñĥ
ÐµÑĢ Ðº
ĠÐ· Ð°ÑıÐ²
ĠÐ¸Ð½ ÑĤÐµÑĢÐµÑģ
ÑģÐ» ÐµÐ´
ĠÐ¿Ð» Ð°Ð½
Ð¾Ð½ Ð¾Ð¼
ĠÑģÐ² Ð¾Ð¹
ĠÐĿ Ñĥ
ÐµÐ½ÑĤ Ð°
ĠÑģ ÑĥÐ´
Ñĭ Ðº
Ð¾Ð² Ð¾Ð¹
ĠÑĢÑĥ ÐºÐ¸
ĠÐ¿ Ð»Ð¾
ĠÑıÐ² Ð»Ñı
ÑģÑĤÐ² Ð¾Ð¼
ÐµÐºÐ¾ ÑĤÐ¾ÑĢ
Ð½ ÐµÐ²
ĠÐ· Ð´
ĠÐ² Ð½Ð¸Ð¼
ĠÐ¿ ÑĥÑĤ
Ð°ÑĤ Ð¸
ÑĢÐ° Ñħ
ĠÐºÑĢ Ð¾Ð²
Ð¾Ð²Ð°Ð½ Ð¸Ñı
ĠÐºÐ°Ðº Ð¾Ð¹
ĠÐ³Ð¾Ñģ ÑĥÐ´Ð°ÑĢ
ĠÐĴ Ð¾ÑĤ
o n
ĠÐ½Ð¸Ðº Ð¾Ð³Ð´Ð°
ĠÑĤ ÑĢÐ¸
Ð² Ð¸Ð½
ĠÑģÐ¿ Ð¾ÑģÐ¾Ð±
ĠÑģÐ¾Ð± Ð¾Ð¹
Ð¾Ð± ÑīÐµ
ĠÐºÐ¾ÑĤÐ¾ÑĢ Ð°Ñı
Ð ¨
ĠÐ¿Ð¾Ð¼ Ð¾Ñī
ĠÐ½ÑĥÐ¶ Ð½Ð¾
ĠÑģ ÑĢÐ°Ð·Ñĥ
Ð°ÑĤ ÑĢ
Ð»Ð¾ ÑģÑĮ
ĠÐĺ Ð·
ĠÐĲ ÑĢ
ÐµÐ½ Ð½Ð¾Ð³Ð¾
ÑģÑĤÐ² Ñĥ
Ñĳ Ð½
Ð¾Ð» Ð¾Ð´
Ñĩ Ð¸Ð²
Ð° Ñī
ÑĦ Ð¸ÑĨ
ĠÑħ Ð¾Ð´
ĠÐ¶Ð¸Ð·Ð½ ÑĮ
ĠÐ¼ Ð¾Ð¼
ĠÑģÐ» ÑĥÐ¶
ĠÑģÐ¾Ð² ÑģÐµÐ¼
ĠÐ¸Ð· Ð²ÐµÑģÑĤ
Ð¾Ð½ ÐµÑĨ
ĠÐ¾ Ð³
ÑįÑĤ Ð¾Ð¼Ñĥ
ĠÐ¿ ÑĭÑĤ
ĠÑĪ ÑĤ
ĠÑĢÐ°Ð· Ð³
ĠÑĩÐµÐ»Ð¾Ð²ÐµÐº Ð°
ĠÐ¼Ð¾Ð» Ð¾Ð´
ÂłÐ ľ
ĠÐ»Ñİ Ð´Ð¸
ĠÑĤ ÑĢÑĥÐ´
ĠÑĥÐ´ Ð¸Ð²
Ð°ÑĤ Ñĥ
ĠÐ² ÐµÑĩ
Ñħ ÑĢÐ°Ð½
ĠÐº Ð°Ð¿
Ð»Ð¸ ÑĪ
ĠÐºÐ¾ÑĤÐ¾ÑĢ Ð¾Ð¹
ĠÑģÐ¿ÑĢÐ¾Ñģ Ð¸Ð»
Ðº Ð¸Ñħ
ĠÐ± Ð¾
Ð¾Ð»ÑĮ ÑĪ
ĠÐ·Ð½Ð° Ñİ
Ð² ÐµÐ´
ĠÑĥÑĩ Ð°ÑģÑĤ
ĠÑĤ Ð¾Ð»
ĠÐ¾ÑĤÐ½Ð¾ ÑĪ
ĠÑģÐ¾Ð· Ð´
Ð° Ðµ
Ð¸Ð½ Ð¾Ð²
Ð¾Ð¶ ÐµÑĤ
Ð»Ð°ÑģÑĤ Ð¸
ĠÐ¿ÑĢ Ð¸Ñħ
ĠÑģÐºÐ°Ð· Ð°Ð»Ð°
ĠÑĢÑĥ Ñģ
ĠÐ´ Ð°Ð»ÑĮ
Ð¾ÑĢ Ð¾ÑĤ
ĠÐ¼Ð½ Ð¾Ð³
Ġ Ñī
ĠÐ± ÐµÑĢ
Ð°Ð»ÑĮ Ð½Ð¾Ð¹
ĠÐ¿ÑĢ ÑıÐ¼
ĠÐ¸Ð¼ ÐµÐ½Ð½Ð¾
ÑħÐ¾Ð´ Ð¸ÑĤ
ĠÐ¼ Ð¸Ð»
ĠÐ¿Ð¾Ñģ Ð¼Ð¾ÑĤÑĢ
ĠÐ½ ÐµÐ·
Ð½Ð¾ Ñģ
ĠÐ²ÑģÑĤÑĢ ÐµÑĩ
ÐµÑģÑĤ ÑĮ
ĠÐ½Ðµ Ð¾Ð±
ÑĤÐ¾ÑĢ Ð°
ĠÐ¼ Ð°Ð³
ĠÑĨ ÐµÐ»
" .
Ð¸ÑĤ ÐµÐ»Ñı
Ð» ÐµÐ½Ð½Ð¾
Ð¾Ð² Ð°Ð»
ÐµÐ´ Ð¸Ð½
ĠÑĢÐ°Ñģ Ð¿
Ð» ÐµÐ¹
ĠÐ¿Ð¾Ñĩ ÐµÐ¼Ñĥ
ĠÐ³ ÑĢÑĥÐ¿Ð¿
ĠÐºÐ¾ÑĤÐ¾ÑĢ ÑĭÑħ
ĠÐ¿ ÑıÑĤ
ĠÑģÐºÐ°Ð· Ð°ÑĤÑĮ
ĠÐºÐ¾Ð¼ Ð½
ĠÐ½Ð° ÑĢÐ¾Ð´
Ñı Ñħ
ĠÐ² Ð¿ÐµÑĢ
Ð°ÑĤ Ðµ
Ð¾Ð± Ð¾Ð´
ĠÐ´ Ð°Ð»
ĠÐ° Ðº
ĠÑħÐ¾ÑĢÐ¾ÑĪ Ð¾
ĠÐ¿ÑĢÐ¸ Ð±
Ð² Ñĭ
ĠÐ¸ Ð³ÑĢ
ÑģÐº Ð¸Ð¼
Ð¿ Ð¾Ð´
Ð°Ð½ Ñĭ
ĠÐºÐ¾Ð¼ Ð°Ð½Ð´
Ð° ÑĤÐ¾
ĠÐ¸ÑģÐ¿ Ð¾Ð»ÑĮÐ·
Ð½Ð¸ Ñħ
ĠÐº Ð½Ð¸
ÑĤÐ¾ ÑĢÑĥ
Ñ ĸ
ĠÐļ Ð¾Ð½
ÑĢÐ° ÑģÑĤ
Ñı Ð³
Ð½ ÐµÐ³Ð¾
e n
ÑĢ Ð¸ÑģÑĤ
ĠÐ²Ð¼ÐµÑģÑĤ Ðµ
ĠÑģÐ»Ð¾Ð² Ð½Ð¾
ĠÐ² ÐµÑģÑĮ
ĠÐ ®
Ñĳ ÑĤ
ĠÑĢ ÐµÐº
ĠÐ²Ñģ Ñĳ
ĠÑģÐ¾ÑģÑĤ Ð¾Ñı
ÑĢÐ° Ñĩ
ÐµÐ· Ð´
ÑĪ ÐµÐ³Ð¾
ĠÑģ Ð¾ÑĤ
ÐµÑĢ ÐµÐ´
ĠÐ± ÐµÐ»
Ð°Ðº Ð¾Ð¼
Ð¾Ð· Ñı
ĠÐļ Ð¾Ð³Ð´Ð°
ĠÐ´ Ð°Ð²
ĠÑģ ÑĥÐ¼
ĠÐ± ÐµÑģ
Ð» Ð°Ð³
Ð°Ð½ Ð¾
ĠÐ»ÑĥÑĩ ÑĪÐµ
ÑīÐµ Ðµ
Ñĥ Ð¹
Ġ1 8
Ð»Ð¸ÑĪ ÐºÐ¾Ð¼
Ð´ ÑĢ
ĠÐ±Ñĭ Ð²
Ð¾Ð½ Ðµ
ĠÐ¼ÐµÑģÑĤ Ð¾
Ðº Ð¸Ðµ
ĠÑģÐ¾Ð± ÑģÑĤÐ²ÐµÐ½
ĠÐ¿Ð¾Ð´ ÑĥÐ¼
Ð² Ðµ
ĠÐ¿ÐµÑĢ ÐµÐ²
ĠÐ£ Ðº
ÑĥÐ¶ Ð´
Ð°Ð½ Ñģ
ĠÐ³Ð¾Ð»Ð¾Ð² Ñĥ
Ð°ÑĢ Ð¸
ĠÑĢÑĥ Ð±
ĠÐ¾Ð± ÑĢÐ°ÑĤ
Ð» Ð¾Ð¼
Ð½Ð¸ Ð·
Ð¸Ð² Ð°ÐµÑĤ
ĠÐ´Ð¾Ð»Ð¶ ÐµÐ½
ÑģÑı Ñĩ
ĠÑĤ ÑıÐ¶
ĠÐ¿Ð» ÐµÑĩ
ĠÑı Ð·
ĠÐľ Ð¾ÑģÐº
ĠÐ´ Ðµ
ÐµÐ½ ÐµÑĢ
ÑĪ Ð¸Ðµ
Ðŀ Ð½
ĠÐ¾ Ð¶
ĠÐ²Ñĭ Ð·
Ð¸ÑĩÐµÑģÐº Ð¾Ð¹
ĠÑģÐ»Ð¾Ð² Ð°
ÑĭÐ² Ð°ÑĤÑĮ
ĠÐ´ÐµÐ² ÑĥÑĪ
ĠÐ¿ÑĢÐ¾ ÑĨ
ĠÑģÐ» ÑĭÑĪ
ÑĤ Ñĥ
ĠÐ¿ÑĢ Ð¾Ñĩ
e s
ĠÑģÐ¾Ð³ Ð»Ð°Ñģ
ĠÐ± Ð¾Ð³
Ð¾ÑĤ Ð¾Ð¼
Ñĩ Ðµ
ĠÐ¡ Ðº
ÑĪ ÐµÐ¹
ĠÐ´ ÐµÑģÑı
ĠÐ´ ÑĥÑĪ
ĠÐ± ÑĢÐ¾Ñģ
Ġ I
ĠÐ¾ÑĤ Ð¿ÑĢÐ°Ð²
Ð¸ÑĩÐµÑģÐº Ð¸
ĠÐ¼ Ð¾Ð¹
Ð¸Ðº Ð¾Ð²
ĠÑĢ Ð°ÑģÑĤ
Ð¸ÑĤ ÐµÐ»ÐµÐ¹
ĠÐ¿ÑĢÐ¾ Ð¸Ñģ
ĠÑģÑĤ Ð°Ð½
ĠÐ¼Ð¾Ð¼ ÐµÐ½ÑĤ
ĠÑĢÑĥ ÐºÑĥ
ÂłÐĶ Ð°
Ñı Ð¼Ð¸
ĠÐµ Ð´Ð¸Ð½
ĠÐ¾ Ð·
ĠÐķ Ð³Ð¾
ĠÐ²Ñĭ Ð±
ĠÐ¾ Ð¿ÑĢÐµÐ´
ĠÐ¿ÑĢ ÐµÐº
ĠÐĲ Ð»ÐµÐºÑģ
ÑĢ Ð¸Ð¼
ĠÐ½ ÐµÐºÐ¾ÑĤÐ¾ÑĢ
ĠÐ¿ÑĢ Ð¾Ð¿
ÑİÑĤ ÑģÑı
ĠÑģÐ¼ ÐµÑĢ
Ð¾ ÑĦ
ĠÐ¼ÑĥÐ¶ Ñĩ
Ġ 6
ĠÐŁ Ð¾Ð´
ĠÑįÑĤ Ð¸Ñħ
Ð ¥
ĠÑģÑĤÐ¾ÑĢ Ð¾Ð½Ñĭ
ÐµÐ² Ð°
Ð°Ð»ÑĮ Ð½ÑĭÐµ
ÐµÐ½ Ð½ÑĭÐ¼
ĠÐ´ÑĢÑĥÐ³ Ð¾Ð¹
ĠÐº ÑĥÑĢ
ĠÑģÐ»ÑĥÑĩ Ð°Ðµ
ĠÐ²Ð´ ÑĢÑĥÐ³
ĠÑģ Ð¾Ñģ
ĠÑĢ ÐµÐ±
ĠÑĥ Ð²ÐµÑĢ
ĠÐĺ Ð½
ĠÑįÑĤ Ñĥ
ĠÐ´ ÐµÑĢÐ¶
Ð°Ð»ÑĮ Ð½ÑĭÑħ
ĠÐ¿Ð¾Ð´ Ð¾Ð±
Ð¼ Ð¾
Ð¾ÑĢ Ð¾Ð¶
ĠÐ±Ð» Ð°Ð³
ĠÐ½ÐµÐ¾Ð± ÑħÐ¾Ð´
Ð² Ð°Ð»
Ð»Ð¸ Ðº
ĠÐŁ ÑĢÐ¸
ĠÐºÐ¾ÑĤÐ¾ÑĢ Ð¾Ð³Ð¾
ĠÐ¿Ð¾Ð» Ð¸ÑĤ
ĠÐ±ÑĥÐ´ ÑĤÐ¾
ĠÐ¿ Ð¾Ð¹
ĠÑģ ÐµÐ³Ð¾Ð´Ð½Ñı
ĠÑģÐ²Ð¾ Ðµ
ÑĢ Ð°Ð´
Ð¸Ð² Ð°Ð»
ĠÑģ Ð»Ð¸ÑĪÐºÐ¾Ð¼
ÑĥÑİ ÑĤ
ĠÑģÐ¾Ð± Ð¸ÑĢ
ĠÐº ÑĥÐ´Ð°
ĠÑģÐµÑĢ Ð´
ĠÐºÐ¾Ð½ ÐµÑĩÐ½Ð¾
ĠÐ½ Ð°Ð¹
ĠÐ¼ Ð°ÑĢ
ĠÐ£Ðº ÑĢÐ°
o r
ÐµÐ» ÐµÐ½
ĠÐ³Ð» ÑĥÐ±
1 9
ÑĤ Ñĭ
ĠÐ² ÐµÐ´
ÐµÑĢ Ñĭ
ĠÐ½Ð°Ð· Ð°Ð´
ÑĢ ÐµÐ·
Ð¾Ð» Ð¾
ĠÑģ Ð¸ÑģÑĤ
Ð¸Ð½ Ð³
ĠÑĤÑĭ ÑģÑıÑĩ
ĠÐ² Ð¿
Ñĥ Ð»Ñı
Ð¾Ð» ÐµÑĤ
Ð¾ÑĢ Ðµ
Ñİ Ð´Ð°
Ġ t
ĠÐ¸Ð· Ð±
Ðµ ÑĦ
ÑĦÐ¾ÑĢ Ð¼Ð°
ĠÑĩ Ð¸Ñģ
a r
ĠÐ¿ÑĢ Ð¸Ð·Ð½
ĠÑĤÐ°Ðº Ð¾Ðµ
Ð² Ð¸
Ð¸ÑĤ Ð°Ð½
Ð°Ð¶ ÐµÑĤÑģÑı
Ð¸Ð² Ð°Ñı
ĠÐµ Ñĳ
Ð¾ÑĤ Ð°
ĠÐ¾ Ð³ÑĢ
ĠÐ´Ð¾Ð¼ Ð°
Ð°Ð»Ð¸ ÑģÑĤ
ĠÑĤ Ð¾Ð¼Ñĥ
ĠÐ¾ÑģÑĤ Ð°Ð½Ð¾Ð²
ĠÐ½ Ð¾Ñģ
ĠÐ¿ÑĢÐ¸Ñħ Ð¾Ð´
ĠÐ» Ð¸Ñĩ
Ð°Ð»ÑĮ Ð½Ð¾Ð³Ð¾
ĠÑĢÐ°ÑģÑģÐº Ð°Ð·
ĠÐ¿Ð¾Ð· Ð²Ð¾Ð»
ĠÐ² Ð½Ñĥ
ĠÑģÐ²Ð¾ Ð¸Ð¼
ĠÐ²Ð¾ Ð¾Ð±ÑīÐµ
ĠÐ±Ñĭ ÑģÑĤÑĢÐ¾
Ð¸ÑĩÐµÑģÐº Ð¸Ñħ
ĠÐ´Ð² ÑĥÑħ
ĠÐ¿ÑĢ ÐµÐ²
Ñĳ Ð¼
Ð¸ÑĤ Ð°
Ð· Ñı
ĠÑĢÑıÐ´ Ð¾Ð¼
ÑģÐº Ð¾Ðµ
ĠÐ³ ÑĥÐ±
ĠÑįÑĤ Ð¸Ð¼
Ðµ ÑĨÐ¸
ÐµÑĢ Ñĥ
ĠÐ²Ñĭ ÑħÐ¾Ð´
ÐµÐ¶ Ð´
Ð°Ð»ÑĮ Ð½ÑĭÐ¹
Ñī Ñĳ
ĠÐ´ Ð¾Ð³
ÑĨ Ð¾Ð²
ÑĨ ÐµÐ½
ĠÐ¾Ð´ Ð½Ð¾Ð¹
ĠÐ² Ð°Ð¶
Ð»Ñİ Ð´
ĠÐ·Ð°Ð½ Ð¸Ð¼
Ð¸Ðº Ð°Ð½
ĠÐ¾ÑĤÐ²ÐµÑĤ Ð¸Ð»
ĠÐ±ÑĥÐ´ ÑĥÑĤ
ĠÐ½Ð°Ð· ÑĭÐ²
ĠÐŁ Ð¾Ð»
Ð½ ÐµÑĤ
ĠÐŁ ÐµÑĤ
ÑĢÑı Ð´
ĠÑĤ Ð²Ð¾
Ð¸Ð·Ð½ ÐµÑģ
Ðµ Ñı
Ð» ÑģÑı
Ð³Ð¾ ÑĤÐ¾Ð²
ĠÑĤÑĢ ÐµÐ±
ĠÐ½ÐµÐ¿ ÑĢ
ĠÑĢ Ð°Ð¹
Ð¼ Ð¸Ð½
Ð¾Ñı Ñī
ĠÐ² ÐµÑģ
Ð¾Ð· Ð¼Ð¾Ð¶
ĠÐ»Ð¸ÑĨ Ð¾
ĠÑĢÐ°Ð· Ð±
ĠÐ·Ð° Ñī
ÐµÑĩ ÑĮ
ÑĢ ÐµÐ±
h e
ĠÑĢÐµÐ· ÑĥÐ»ÑĮÑĤ
ĠÑĢÐ°Ð· Ð´
Ð¾Ð²Ð°Ð½ Ð¸Ðµ
ĠÑĤÐ¾ Ñĩ
Ð± Ð°
ĠÑĥÐ´ Ð°ÑĢ
ÐµÑĢ Ð¾Ð¼
Ð°Ð½ Ð¸Ð¹
Ñħ Ð¾ÑĤ
ĠÐ· Ð°Ð»
ĠÑĪ Ð°Ð³
Ð¸ÑĨ Ñĭ
ĠÑĥ Ð»Ð¸
ÑĤÐ¾ÑĢÑĥ Ñİ
ĠÐ¿ Ð°Ð»ÑĮ
ĠÑĨ Ð²ÐµÑĤ
ĠÐ± Ð¾ÑĢ
ĠÐ» ÐµÐ¶
ĠÐ¼Ð¾Ð³ Ñĥ
ĠÐ¿ÑĢÐµÐ´ Ð»Ð¾Ð¶
Ð¾Ð± ÑĢÐ°Ð·
ĠÐ¸ Ð´
ĠÑĨ ÐµÐ½ÑĤ
ĠÐ´ÑĢÑĥÐ³ Ð¸Ñħ
ĠÐ½Ð°Ñĩ Ð¸Ð½
ĠÐ´ Ð¾Ð¿
Ñı Ð»Ð¸
ĠÑĪ Ðº
ÂłÐ ĺ
ĠÑģ Ð½
ĠÐ²Ð¾Ð· Ð²
Ð»Ñı ÑĤÑĮ
ÂłÐ §
ĠÐ¾Ð± ÑīÐµ
ÐµÐ½ Ð´
Ð¸ Ð½Ð¾
ĠÑģÐ´ÐµÐ» Ð°ÑĤÑĮ
ĠÑĢ Ð°ÑģÐº
ÑıÐ± ÑĢÑı
Ġ S
ĠÐ² ÐµÑĤ
ÑĢ Ð°Ð»
ĠÐķ Ð²
Ð¸ÑĤ ÐµÐ»Ð¸
ÑĢ ÑĮ
ĠÐ¿ÑĢ ÐµÐ¶
Ð¸Ðº Ðµ
ĠÐ¾ÑĤ Ñĩ
ĠÐ¼Ð°ÑĤ ÐµÑĢÐ¸
ĠÑģÑĤÐ¾ÑĢÐ¾Ð½ Ñĥ
ĠÑģÐ¼ Ð¾Ð³
ĠÐŀÐ´ Ð½Ð°ÐºÐ¾
ĠÐ¼Ð°Ð» ÐµÐ½ÑĮ
ĠÑħ Ð¾Ð·Ñı
ĠÑģ Ð¾Ð¿
ÐµÐ½Ð½Ð¾ Ðµ
Ñı Ð»Ð°
ĠÐ½Ð¸Ðº ÑĤÐ¾
ĠÐļ Ð°ÑĢ
ÑıÑĤ ÑģÑı
Ð¼ Ð¾ÑĤ
ĠÐ¸Ð· Ð¼ÐµÐ½
ÑģÑĤÐ² Ð¸Ðµ
ĠÐĴ Ð¾
ĠÐ¼Ð¾Ð³ ÑĥÑĤ
ĠÐľ Ð½Ðµ
ĠÐ¾ÑĤ Ñģ
Ð¸ÑĢÐ¾Ð² Ð°ÑĤÑĮ
ĠÑģ Ð¾Ð»
ĠÐ¾Ð´ Ð½Ð¾Ð³Ð¾
ÐµÑĢ Ð¾Ð²
ĠÑĥÐ· Ð½
ĠÐł Ð°Ð·
Ġ20 0
Ð» ÐµÐ³
ĠÐ¾Ð¿ Ð°Ñģ
Ġ 7
ĠÐ´Ð² Ð¸Ð¶
ÑĨ Ð¸Ð¹
ĠÑĢ Ñĭ
ĠÑĢ Ð¾ÑģÑģ
ĠÑģÐ» Ð¾Ð¶
Ð¾Ð½ Ð¾Ð²
Ð¾Ð´ Ð°ÑĢ
Ġ âĢ
ĠÐº Ð°Ñĩ
ĠÐ¸ Ð³
ĠÐ¼ Ð¾Ð½
ĠÐĳ Ð¾Ð³
ĠÐ´ÐµÐ» Ð°ÑĤÑĮ
ĠÐ¿ÑĢ ÐµÐ·
ĠÐ¿ Ð¸Ñģ
ÐµÑĢ Ð±
ĠÐ¾Ð± ÑıÐ·
ĠÐ½Ð°Ð² ÐµÑĢ
ĠÐ¾Ð±ÑĢÐ°Ð· Ð¾Ð¼
ĠÐ¾ ÑĦÐ¸ÑĨ
ÑģÐº ÑĥÑİ
ĠÐĿ ÐµÑĤ
ĠÐ¿Ð¾Ð¿ ÑĭÑĤ
ĠÐ¼ ÐµÐ½
ĠÐ½ÐµÐ¼ Ð½Ð¾Ð³Ð¾
Ð°Ðº Ð¾Ð²
ĠÑįÑĤ Ð°
ĠÐ³ ÑĢÑĥ
Ð¾ÑĤ Ð¸Ð²
Ñį Ð½
ĠÐ´Ð¾Ð»Ð¶ Ð½Ñĭ
ÐµÐ½ Ð½Ð°Ñı
ÑĢ Ð¾Ð±
Ð± Ñĥ
a t
ĠÐ¾ÑĤÐº ÑĢÑĭ
Ð°Ð´ÑĨ Ð°ÑĤÑĮ
ĠÐµ ÑīÑĳ
ÑĥÑĢ Ñĭ
ĠÑģÐ°Ð¼ Ð¾Ð¼
ĠÑĤ ÑĢÑĥ
ĠÑģÐ¾Ð² ÐµÑĤ
ĠÐĽ Ñİ
ĠÑģÐ¸ÑģÑĤ ÐµÐ¼
Ð¾Ð² ÐµÑĢ
ĠÐ³Ð¾ ÑģÑĤ
ĠÐ¶ Ð´
Ðº Ð¾Ð³Ð¾
ÐµÐ»Ð¾ ÑģÑĮ
Ð¿Ð¾Ð» Ð¾Ð¶
Ð´ Ð¾
ĠÑģÐ¿ ÐµÑĨÐ¸
Ġ /
ĠÐ± ÐµÑģÐ¿
Ð°Ð´ Ð¸
ĠÐ² Ð¾Ðº
ĠÐ¿ÑĢÐ¸ Ð³
Ð°Ð¼ Ð°
ÑĢ ÐµÐ²
ĠÐ² ÑģÐº
ĠÐ² Ðº
Ð¾ Ñİ
ÑĢ Ð¾Ð½
ÑĢ Ð°Ð³
ĠÐºÐ¾ÑĢ Ð°Ð±
ĠÐ²ÑĭÑģ Ð¾Ðº
ĠÑģÑĤ Ð°Ð»Ð¾
. ,
ĠÐ·Ð½ Ð°Ð»
Ð¸ Ð´Ð°
ĠÐ´ ÑĥÑħ
ĠÑģ Ð±
Ð¸Ñĩ Ðµ
ĠÐ³Ð¾ ÑģÐ¿
ÐºÐ¾Ð² Ð¾Ð´
ĠÐ¿ÐµÑĢ Ðµ
ĠÐ¿ÑĢ Ð¸Ð·
Ð»Ñı ÐµÑĤ
ĠÐ± Ð°ÑĢ
ĠÐ²ÐµÐ» Ð¸Ðº
ĠÑĢ ÐµÐ³
ĠÐ¼Ð¾Ð» Ñĩ
Ñı ÑģÑĮ
ĠÐ° Ð´
ÐµÐ» Ñİ
Ð¸ ÐµÐ¹
Ð»Ð¸ Ð¶
Ð»Ñı Ð´
ĠÐ¿Ð¾ ÑģÑĤÐ°Ð²
ĠÐ¿ÑĢÐ¾Ð± Ð»ÐµÐ¼
ĠÐº Ð¾Ð³Ð¾
ĠÐº Ð»
ÑģÑĤÐ²Ð¾Ð² Ð°Ð»
ĠÑĩ ÐµÑĤÑĭ
ĠÐ³ ÐµÑĢ
Ð¸ÑĩÐµÑģÐº Ð¾Ð³Ð¾
ĠÐ´Ð² ÐµÑĢÑĮ
ĠÐº Ð²
Ðº Ð¸Ð¼
a l
ĠÑģÑĤ ÐµÐ½
ĠÐ¿Ð¾Ð´ Ð´ÐµÑĢÐ¶
ĠÐ¿ÑĢÑıÐ¼ Ð¾
Ð¾ÑĢ Ð¾Ð½
ÑıÑĤÑĮ ÑģÑı
ĠÑĨ Ð°ÑĢ
Ð°Ðº Ñģ
ĠÐ¾ Ñī
ÂłÐĿ Ðµ
ĠÐ» ÐµÑģ
ĠÑı ÑĢ
ĠÑĦ Ð¾ÑĢÐ¼
Ð´ Ð¶
ĠÐ¼ Ð½Ð¾Ð¹
ĠÐ¸Ð½ ÑĦÐ¾ÑĢÐ¼Ð°
ÑĭÐ² Ð°ÐµÑĤ
ĠÑĩ ÑĥÑĤÑĮ
ĠÑģÐ¾Ð²ÐµÑĢÑĪ ÐµÐ½Ð½Ð¾
ĠÐ³ Ð°Ð·
ĠÐ·Ð°ÑĤ ÐµÐ¼
ĠÑĥ Ð¿ÑĢÐ°Ð²
ĠÐĹ Ð°
ÑĤÐ¾ Ð½
Ð°Ð»Ð¸ Ð·
Ġ A
ĠÐļ ÑĢ
ĠÑĪ Ð¸ÑĢ
Ðº Ð°Ñı
Ð°ÑĤ Ð¸Ð²
ĠÐ³Ð¾Ð²Ð¾ÑĢ Ð¸ÑĤ
ÑĪ Ð»Ð°
ĠÐ½Ð°Ñĩ Ð°Ð»
ĠÐ¿ÑĢ Ð¾Ðº
Ð´ Ð¾Ñħ
ĠÐ³Ð¾Ð»Ð¾Ð² Ð¾Ð¹
ÐµÑĩ Ð°ÑĤ
Ġ 8
Ð² Ð¾Ð·
ĠÐ¿Ð°ÑĢ ÑĤ
Ñĩ Ð¸ÑĤ
Ð¾Ñĩ ÑĮ
ĠÐ¿Ð¾ÑĤ ÐµÑĢ
ÐĿ Ð°
ĠÐ¼ ÐµÑģÑı
ÐµÐ½ÑĤ Ð¾Ð²
ĠÑĢÐ°Ð· ÑĢ
ĠÐ¿ Ð°Ð»
ĠÐ¿Ð¾ÑĢ ÑıÐ´
Ð´Ñĥ Ñħ
ĠÐºÐ¾ ÑĤÐ¾ÑĢÑĥÑİ
ĠÐ´ Ð½Ñı
Ð¸ÑĩÐµÑģÐº Ð¸Ðµ
ĠÐ¾ ÑģÑĤÑĢ
Ð¾Ð³ ÑĢÐ°ÑĦ
ĠÑģÐ² Ð¾Ð±Ð¾Ð´
Ñĳ Ð»
Ð» Ð¾ÑĤ
Ð½Ð¸Ðº Ð¾Ð¼
Ð½Ð°ÑĢ ÑĥÐ¶
Ð²ÐµÑĢ Ð¶
ÐµÐ² ÐµÑĢ
ĠÐ¾Ð´ Ð½Ð¾
ĠÐ¾Ð³ÑĢ Ð¾Ð¼
ÑıÐ» ÑģÑı
ĠÐ¾Ð¿ÑĢÐµÐ´ ÐµÐ»
ĠÑħÐ¾ÑĤ ÐµÐ»
ÑĭÐ² Ð°Ð»
Ð¸Ðº Ñĥ
Ð» Ñĥ
ĠÐº Ð°ÑĤ
ĠÐ² ÐµÐº
ĠÐ¼ ÐµÑĩ
ĠÐ² ÐµÑī
Ð³ Ð¾Ð²
ĠÐ·Ð° ÑģÑĤÐ°Ð²
Ð°ÑĢ Ð°Ðº
ĠÐ¡ Ð¿
ĠÐ¸ Ð´Ðµ
ÂłÐ Ń
ĠÐ²Ñģ Ñİ
ÐĿ Ð¾
Ð¾Ð» Ñİ
ĠÐµ Ð´
ÐµÐ»ÑĮ Ð·Ñı
Ð¾Ð» Ð¾Ð²
ÑĪ Ð»Ð¸
Ñģ Ð¾Ð½
ĠÐ¾ Ð½Ð¾
ĠÐ²Ð¾Ñģ Ð¿
ĠÐºÐ¾Ð½ ÑĤÑĢ
ÑĤÐ°Ðº Ð¸
ÐµÑĢÑĤ Ð²
Ð½ ÑĮ
ĠÐ¾Ð´ Ð½Ð°
Ð» Ð°Ð½
Ð°ÑĤÐ¾ ÑĩÐ½Ð¾
ĠÐ¾ÑĤ Ð»Ð¸Ñĩ
ÑĭÐ² Ð°Ñı
ĠÑģÐ»ÐµÐ´ ÑĥÑİÑī
Ð» ÑĥÑĪ
ĠÐ± ÑĢÐ°ÑĤ
ĠÑģÑĩ Ð°ÑģÑĤ
ĠÐ¢ Ð¾Ð»ÑĮÐºÐ¾
Ð¾Ð±ÑĢ Ð°Ð¶
Ð¸ÑĤÑĥ Ð°
ĠÐ·Ð½ Ð°ÐºÐ¾Ð¼
Ġ1 0
ĠÑıÐ²Ð»Ñı ÐµÑĤÑģÑı
Ð»Ð¸Ð² Ð¾
ĠÐ´ÐµÐ» Ðµ
Ð°Ðº Ð°
ÑģÑĤÐ² Ð¸Ñı
ĠÑģÑĤ Ð°ÑĤÑĮ
ĠÐ± Ð°Ð½
Ð½Ðµ ÑĪ
Ð¾ÑĤ Ð²ÐµÑĤ
ĠÑħ Ð²Ð°ÑĤ
ĠÑħÐ¾ÑĤ ÑĮ
ĠÐ¼Ñĭ ÑģÐ»
ĠÐ°Ð² ÑĤÐ¾Ð¼
ĠÑįÐº ÑģÐ¿
ĠÐ³ ÑĢÐ°Ð½
ÑĢÐ¸Ð¼ ÐµÑĢ
Ð°ÐµÑĤ Ðµ
Ñį ÑĢ
i t
ĠÐ½ Ð¸Ð¼Ð¸
ĠÑģÐ¿ Ð°Ñģ
ĠÐº ÑĥÐ¿
ĠÐºÐ¾ÑĤÐ¾ÑĢ Ð¾Ðµ
ĠÐº Ð¾Ñģ
ĠÑĩ ÐµÑĤ
ĠÑĢ Ð°Ð±
ÐµÐ´ Ð¸
ĠÑĤÐ¾ ÑĩÐ½Ð¾
ĠÑĩÐ°ÑģÑĤ ÑĮ
Ð½Ð¸ Ð¸
ĠÑģÑĥÑīÐµ ÑģÑĤÐ²
ĠÐ´Ð¾Ð» Ð³Ð¾
ĠÐº Ð¸Ð²
Ð°ÑĢ Ð¾Ð²
ĠÐ¼ÐµÑģÑĤ Ðµ
ĠÐ´ Ð¾Ð±ÑĢ
ĠÑĤÐ°Ðº Ð¸Ðµ
i s
Ñħ Ð¾
ĠÐ°ÑĢ Ð¼
Ð¾Ð» Ñı
Ñĭ ÑģÐ»
ÑĦ ÑĦ
ÑĢ ÐµÐ½
ĠÑģÑĤ Ð°Ð»Ð¸
2 0
Ð¸ÑĨ Ð¸Ð¸
ÐµÐ² Ð¸Ñĩ
Ð°Ñİ ÑģÑĮ
ĠÐ¿ÑĢÐ¾ ÑĦ
ĠÑĢÐ¾ÑģÑģ Ð¸Ð¹
ĠÑģÑĢÐµÐ´ Ð¸
ĠÐ½ Ð°Ð³
ĠÐļ Ð¾ÑĢ
ĠÑģÐº Ð°Ð¶
ÑĢ Ð¾Ðº
ĠÑĩ Ð¸ÑĤ
ĠÑĢÐ°Ð·Ð³ Ð¾Ð²Ð¾ÑĢ
ĠÐŁÐ¾Ñģ Ð»Ðµ
ÐµÑĩ ÐµÑģÐº
ĠÐ¸ Ñİ
ĠÐ° ÐºÑĤ
ĠÐ²Ð¾Ðº ÑĢÑĥÐ³
ĠÑģÐ¿ Ð¾ÐºÐ¾Ð¹
ĠÑģ Ð¾Ð´
ĠÑĥÑģÐ» Ð¾Ð²
ĠÑį Ð½
ĠÐ¼Ð¾Ð³ Ð»Ð°
ĠÐ¿Ð¾Ð¶ Ð°Ð»
ĠÐ¿ ÑıÑĤÑĮ
ĠÐºÐ¾Ð½ ÑĨÐµ
Âł Ð³
Ð¾Ð·Ð¼Ð¾Ð¶ Ð½Ð¾
ĠÐ½ Ð°Ð»
ĠÑĤ Ð¸Ñħ
ĠÐºÑĢ Ð°Ð¹
ĠÐ¿ Ð¾Ð»ÑĮÐ·
Ð¨ ÐĲ
ĠÑĤ Ð¾Ð²Ð°ÑĢ
ĠÐ¿Ð¾Ð± ÐµÐ´
ĠÐ²Ð¸Ð´ ÐµÐ»
ÐµÑĢÑĮ ÐµÐ·
ĠÐ²Ð¾Ð· Ð´ÑĥÑħ
Ð°ÑĤ ÐµÐ»Ñı
ĠÐ¿Ð¾Ð¼ Ð¾Ð³
ÑĥÐ± Ð»Ð¸
ĠÐ´ Ð¾Ð²Ð¾Ð»ÑĮ
ĠÑĢÑĥ ÐºÐ¾Ð²Ð¾Ð´
ĠÐ³Ð¾Ð²Ð¾ÑĢ Ð¸Ð»
Ð¸Ð² ÑĪÐ¸ÑģÑĮ
Ð¾Ð» ÐµÐ²
ĠÐº Ð°Ð±
ĠÐĵ ÐµÑĢ
ĠÑģÑĤ Ð°Ð½Ð¾Ð²
ĠÐĿ Ð°Ð´
ĠÐĲÐ»ÐµÐºÑģ Ð°Ð½Ð´
Ð¸ÑĩÐµÑģÐº Ð¸Ð¹
ÐµÐ½ÑĤ Ñĭ
ĠÐ´Ð² Ðµ
ĠÐ²Ñĭ ÑģÑĤÑĥÐ¿
ĠÐ» Ð°Ð´
Ġ T
ĠÑħ Ð¾Ð»Ð¾Ð´
ĠÐºÐ°Ñĩ Ðµ
ĠÑģ Ð¸ÑĤÑĥÐ°
ĠÑģÑĤÐ¾ Ð¸ÑĤ
ĠÐ¡ Ð¾Ð²
ĠÑĤÐ°Ðº Ð¸Ð¼
ĠÐ¿ÑĢ Ð¾Ð¼
ÂłÐĿ Ñĥ
ĠÐ´Ð¾Ð± Ð°Ð²
ĠÐ²Ñĭ Ð¿Ð¾Ð»
ĠÑģÑĤ ÑĢÐ¾
ĠÑħ Ð»
ĠÐ¾Ð± ÑĢÐ°Ñī
Ñĳ ÑĢ
Ð½Ð¸ ÑĨÐ°
ĠÐ½Ð°Ðº Ð¾Ð½ÐµÑĨ
ĠÐº Ð°ÑĢÑĤ
ĠÐ¿ÑĢ Ð¸ÑģÑĤ
Ð°ÑĢ Ð´
ĠÐ½ ÐµÐ¼Ñĥ
Ġ 9
ĠÐĴ Ð»Ð°Ð´
ĠÐĵ Ð¾Ñģ
ĠÐ¿Ð¾ Ð½ÑıÐ»
ÑĮ ÑĪÐµ
Ð¾Ð» Ð°
ĠÐ²Ð½Ñĥ ÑĤÑĢ
ĠÐºÑĢ ÐµÐ¿
ĠÑĢÐ°Ð´ Ð¸
Ð¸ Ð°Ð½
ĠÐ¿ÑĢ Ðµ
ĠÐ± Ð»Ð¸Ð·
Ð¾Ñĩ ÐµÐ¼Ñĥ
ĠÑĥÐ¶ Ð°Ñģ
Ð¾Ñı Ð½
Ð¼ÐµÑĢ Ð¸ÐºÐ°Ð½
Ðµ Ñİ
ĠÐ´ÑĢÑĥÐ³ Ð¸Ðµ
ĠÐ¾ ÑĢÑĥÐ¶
? !
ÐµÐºÑĤ Ð¸Ð²
ÑĪÐµ Ðµ
Ð¸Ñı Ñħ
Ð¾Ð» Ð¾ÑĤ
ĠÐ¼Ð¾Ð³ Ð»Ð¸
Ð°ÑĢÐ°Ðº ÑĤÐµÑĢ
ĠÐ¿ÑĢÐ¾Ð² Ð¾Ð´
ĠÐĴ ÐµÑĢ
ĠÐ½Ðµ Ñĩ
ĠÐ¿Ð¾ÑģÑĤ ÑĥÐ¿
ĠÑģÐ°Ð¼ Ð¾Ð³Ð¾
ÑĢ ÐµÐ¿
ĠÑģ Ð¾ÑĢ
Ð³ Ð»Ð¸
Ñĥ Ð»Ð¸
ĠÐ± ÐµÐ´
Ð½ ÐµÑģ
ĠÐ¾Ð´ Ð½Ð°ÐºÐ¾
Ñĭ Ñģ
ĠÐ´ÐµÐ¹ÑģÑĤÐ² Ð¸ÑĤÐµÐ»ÑĮÐ½Ð¾
Ð¾ÑģÑĤ ÑĮÑİ
ÑĢÐ¸ ÑĤÐ¾ÑĢ
ÂłÐ¢ Ñĭ
Ð»Ð° ÑĪ
Ð¸ ÑĦ
ĠÐ½Ð°Ð¿ Ð¸Ñģ
ĠÐ¿ Ñģ
Ð°ÑİÑī Ð¸Ñħ
ÑĪÐ¸ Ð±
Ð» ÐµÐ¶
ÑģÐº Ð¸
ĠÐ§ ÐµÑĢ
ĠÑĤÐ¾ Ð½
Ð¼ Ð°ÑĤÑĢ
ĠÐ·Ð°Ðº Ð»ÑİÑĩ
ĠÐ¡ Ð¨ÐĲ
ĠÐ´Ð°Ð»ÑĮ ÑĪÐµ
ĠÑĢ ÐµÐ´
ĠÐ¿Ð¾ ÑįÑĤÐ¾Ð¼Ñĥ
Ð¸ÑĢ Ð°
Ġ1 5
ĠÐ¾Ñģ Ð²
Ð¾Ð¼ Ðµ
Ð¸ÑĨ Ð°
Ð°Ð¶Ð´ Ð°Ð½
ĠÑģÑĤ Ð°Ð»Ð°
Ñĭ Ð¿
Ð°Ð½ Ð¸ÐµÐ¼
ĠÐ½ÐµÐ¾Ð±ÑħÐ¾Ð´ Ð¸Ð¼
ĠÐ´Ð² Ð¾ÑĢ
ĠÐ¿ Ð¸ÑģÑĮ
ĠÐºÐ°Ðº Ð¸Ðµ
Ð°ÑİÑī Ð¸Ð¹
ĠÐ±ÐµÑĢ ÐµÐ³
ĠÐ¿ÑĢÐ¾Ð¸Ð· Ð²Ð¾Ð´
ĠÐ¾Ðº Ð¾Ð»Ð¾
ĠÐ¸Ð· Ð´
ĠÐ¿ÑĢÐµÐº ÑĢÐ°Ñģ
Ð¿Ð¾Ð» Ð½Ðµ
Ġ P
Ð³ Ñĥ
ĠÐ²Ñĭ Ð´
ÂłÐ Ĺ
Ð°ÑĢ ÑĮ
Ð¾Ð½ Ð´
ĠÐ³Ð¾ÑĢÐ¾Ð´ Ð°
ĠÑĥÑģÑĤ Ð°Ð½Ð¾Ð²
ÐµÐ» ÐµÐ¼
ĠÐ³ÑĢ Ð¾Ð¼
ĠÐ¢ ÐµÐ¿ÐµÑĢÑĮ
Ġ C
ĠÐ¾Ð±ÑĬ ÑıÑģÐ½
Ð¾Ñĩ ÐºÐ°
ĠÐ¼Ð¸ÑĢ Ð°
ĠÐ¾Ð± Ð½Ð°ÑĢÑĥÐ¶
ĠÑĤ Ð²
ĠÐ¼ ÑĥÐ·
ĠÑħÐ¾Ñĩ Ñĥ
ĠÐº ÑĢÑĥÐ³
ÐµÐ½ ÐºÐ¾
ĠÐ¡ Ð°Ð¼
ĠÑģ Ð¿ÑĢÐ°Ð²
Ð¾Ð´ Ñĭ
Ðº Ð°Ð¼
ĠÐ¿ÑĢÐ¸Ðº Ð°Ð·
ĠÐ²Ð¾Ð» Ð¾Ñģ
Ð°Ð½ Ð½Ð¾
ĠÐ·Ð½Ð°Ñĩ Ð¸ÑĤ
ĠÐ¿ÐµÑĢÐ² ÑĭÐ¹
ĠÐº Ð°Ð¶ÐµÑĤÑģÑı
ĠÐ¿ÑĢ Ð°ÐºÑĤ
ĠÑĤ Ñĥ
ĠÐºÐ°Ð¶Ð´ ÑĭÐ¹
ĠÐĿ Ð¾Ð²
ĠÐ»Ð¸ ÑĪ
_ _
ĠÐ¼Ð¾ ÐµÐ¹
ĠÑģ Ð¾Ð»Ð½
ĠÑĢÐ°Ð· Ð¼
Ð¡ Ð¡
ĠÐ· ÑĢ
ĠÐ¶ ÐµÑģÑĤ
ĠÑģÑĤ ÑĢÐ°ÑĪ
ĠÐ¸Ð½ ÑģÑĤ
Ġ M
Ð½ÑĥÑĤÑĮ ÑģÑı
I I
Ð³ Ðµ
ĠÐ¿ÑĢÐ¾Ð¸Ð· Ð¾ÑĪ
ĠÐº ÑĢÑĥÐ¿
ĠÐµ Ð²
ÑģÑı ÑĤ
ĠÐ¥ Ð¾ÑĤ
ĠÑĤÐµÑĢ ÑĢÐ¸ÑĤÐ¾ÑĢ
ĠÑĩ Ð¸ÑģÑĤ
Ð¸Ð² Ð°Ð»Ð¸
ÑģÑĤÐ²ÐµÐ½ Ð½Ð¾Ð¹
ĠÑĥ ÑĢÐ¾Ð²
ĠÐ¾ÑĢÐ³Ð°Ð½ Ð¸Ð·Ð°
ĠÐ¸Ñģ Ñĩ
ĠÐ¿ÑĢ ÐµÑģÑĤ
ĠÑĢ Ð°Ð²Ð½Ð¾
ĠÐ´ Ð°Ð²Ð½Ð¾
ĠÐ·Ð°Ðº Ð¾Ð½
ĠÑģ Ð¾Ð¼Ð½
ĠÐ½ ÐµÐ»ÑĮÐ·Ñı
ĠÐ½Ð°Ñĩ Ð°Ð»Ð°
Ð² Ð¸Ð´
ÐµÑĩ ÐµÐ½Ð¸Ðµ
ĠÑıÐ· Ñĭ
ĠÐ¼ ÐµÐ½ÑĮ
ĠÑģÐ»ÑĥÑĩ Ð°Ð¹
Ð¾Ð¶ Ð¸Ð´
ĠÑĢÐ°Ð±Ð¾ÑĤ Ñĭ
ĠÐ¼ Ð°Ð»ÑĮ
ÑĨÐ¸ Ð¿
Ð°Ð½ Ð¸Ñİ
ÑĨ Ð°Ð¼Ð¸
Ð¾Ð· Ð½
Ð¾Ð»ÑĮ ÐºÑĥ
ĠÐ¾ÑĤ Ð¿
ÂłÂł ÂłÂł
ÑĪ Ð¸Ð¼
Ð¾Ð² Ð°Ð»Ð¸
ĠÑįÑĤ Ð¾Ð¼Ñĥ
ĠÐ¾Ð¿ ÑıÑĤÑĮ
ĠÐ¿ÑĢ Ð¸Ð»
Ġ s
ĠÐ½ ÐµÐº
ĠĠ ĠĠ
ĠÐ½ ÑĢÐ°Ð²
ĠÐ² ÑģÑĤ
Ð° ÑĦ
ĠÐº Ð½Ñı
ĠÐ·Ð° Ñĩ
Ð¸Ð· Ð¼
ĠÐĴ Ñģ
ĠÐĶ Ð»Ñı
ĠÐ²ÑģÑĤÑĢ ÐµÑĤ
ĠÑģÐ¾ Ð¾ÑĤÐ²ÐµÑĤ
ĠÑĤÐ°Ðº Ð¸Ñħ
ĠÐ¾Ð± Ð»Ð°ÑģÑĤÐ¸
ĠÐ¿Ð¾Ð´ ÑĤ
ĠÐ¾ÑĤ Ð´ÐµÐ»
Ð½Ñĥ Ð»Ð¸
ĠÑħ Ð°ÑĢÐ°ÐºÑĤÐµÑĢ
ĠÑĤÐ°Ðº Ð¾Ð³Ð¾
ĠÑĥÑģÐ» ÑĭÑĪ
ĠÐ¿ÑĢÐµÐ· Ð¸Ð´
Ġ *
ĠÐ¼ÐµÐ½ ÐµÐµ
Ð¾ÑģÑĤ Ð¾
ĠÐ¿ Ð°Ð¼
ĠÐĺ Ð¼
ĠÐ¿Ð¾Ð² ÑĤÐ¾ÑĢ
Ð¾ÑĢ ÑĥÐ¶
Ð½Ñı Ñı
Ð¾Ð±Ñĭ ÑĤ
ÂłÐ§ ÑĤÐ¾
Ġ d
ĠÐ½Ð°ÑģÑĤ Ð¾ÑıÑī
ĠÐ²Ð¾Ð·Ð² ÑĢÐ°Ñī
ĠÐ¿ÑĢÐ¸Ð½ Ð¸Ð¼
ĠÑĢ ÐµÐ²
Ð°Ð²ÑĪ Ð¸Ð¹
1 8
ĠÐ² Ð¾Ð²
ĠÐ³Ð¾Ð²Ð¾ÑĢ Ð¸ÑĤÑĮ
ĠÐºÐ¾ÑĤÐ¾ÑĢ Ð¾Ð¼
ĠÐ½ÐµÐ± Ð¾Ð»ÑĮÑĪ
r e
ĠÐ´ÐµÐ» Ð°
ĠÑģÐ¾ ÑħÑĢÐ°Ð½
ĠÐ¿Ð¾ ÑģÐº
ĠÐ¾ÑĤÐº ÑĢÑĭÑĤ
ĠÐľ Ð¾Ð¶ÐµÑĤ
ĠÑĦ Ð¸Ð½
ĠÐ¢ Ð°Ð¼
ĠÐ²Ð· Ð³Ð»Ñı
Ð» ÐµÐ½Ð¸Ð¸
ĠÑģÑĤ ÑĢÐ°Ñħ
ĠÐ¿Ð¾ÑģÑĤ Ð¾ÑıÐ½
ĠÐ´ ÐµÐ¼
ÑıÑĤ ÐµÐ»ÑĮ
ĠÐ° Ð¿
Ð» Ð°ÑĤ
ĠÑĩ ÑĥÐ´
ĠÐ¶ Ð°Ð»
ĠÑĤ Ð°Ð½
ÑĥÑĢ Ð½
ĠÑģÐ°Ð¼ Ð°
ĠÐ¼ÐµÑģÑĤ Ð°
ĠÐ½ ÐµÐ½
ĠÐ½Ð°Ð· Ð²
ĠÐ²Ð¾Ð¹ Ð½Ñĭ
ÑĥÑĪ ÐºÐ°
ĠÐ´ Ð»Ð¸Ð½
ĠÑģÐ´ÐµÐ» Ð°Ð»
ĠÐ²Ð¸Ð´ Ðµ
ĠÑįÐº Ð¾Ð½Ð¾Ð¼
Ð¾Ð½ ÑĤ
Ð²ÐµÑĢ Ð´
ĠÐ¿ÑĢÐ¾ Ð¸Ð·Ð½ÐµÑģ
Ð°ÑİÑī Ð¸Ðµ
ĠÑĢÐ°Ð·Ð² Ð¸ÑĤ
Ð°Ðº Ð¸
ĠÐ° Ð¼ÐµÑĢÐ¸ÐºÐ°Ð½
Ðŀ Ð½Ð°
Ð¾Ð² ÑĭÑħ
Ð½Ð°Ðº Ð¾Ð¼
Ġ1 7
ĠÐ± Ð¾Ñı
ĠÐ¿ÑĢÐµÐ¶ Ð´Ðµ
ĠÐº Ð°Ð½
Ð» Ð°Ð¼
ĠÐ»ÑİÐ± Ð¾Ð²
ĠÑĢÐ°Ð· Ð»Ð¸Ñĩ
Ð½Ñı Ð»Ð°
Ġ X
ĠÑĩÐ°ÑģÑĤ Ð¸
Ġ19 9
ĠÑģÐ² ÐµÑĢ
Ð°Ð»ÑĮ Ð½Ð¾Ðµ
ĠÑĥÐº Ð°Ð·
l e
ÐºÐ¾ Ðµ
Ð¸ÑģÑĤ ÐµÑĢ
ĠÐ² Ð¿Ð¾Ð»Ð½Ðµ
ĠÐ½Ð¾Ð³ Ð¸
ÑĢ Ð¸Ðº
Ð¾ÑıÑĤ ÐµÐ»ÑĮ
ĠÑĤ Ð°
ĠÐĿ Ð°Ð¿
ÑĢÐ¾Ð´ Ðµ
ĠÑĨ ÐµÐ½
ÐµÐ» Ð¸Ðº
! Â»
Ð¸Ð» Ð»
ĠÐ¿ÐµÑĢ ÐµÐ¿
Ð¾Ð± Ð¾Ð¹
Ð¸ÑĤ ÐµÑĢ
ĠÐ¿Ð¾Ð´ Ð¾ÑĪ
ĠÑĤ Ð¾Ð¹
ĠÐ½Ð° ÑĥÑĩ
ĠÐ´ÐµÐ½ÑĮ Ð³Ð¸
ÐºÑĥ Ð´Ð°
ĠÑĤ ÑĥÑĢ
ĠÑĤ ÑĥÐ´Ð°
ĠÐ´Ð¾Ð»Ð¶ Ð½Ð°
ĠÐ¿Ð¾Ð½ ÑıÑĤ
ĠÐ¤ ÑĢÐ°Ð½
ĠÐ·Ð½Ð° ÐµÑĤ
ÑĨÐ¸ ÐµÐ¹
Ð°Ð½ Ð½ÑĭÐµ
Ñģ Ð¸
Ñĥ ÑĢÐ°
i c
ĠÐ´Ð¾ÑģÑĤ Ð°ÑĤÐ¾ÑĩÐ½Ð¾
Ð°ÑĤ Ð¾Ð²
ĠÐº Ð¾ÑģÑĤ
ĠÑħ ÑĥÐ´
Ð¾Ð´ Ñĥ
Ð°Ð´ Ð°
ĠÐ¸Ð¼Ðµ ÐµÑĤ
ĠÐ¿ÑĢÐ°Ð² Ð¸ÑĤÐµÐ»ÑĮ
ÑĨ ÐµÐ¼
ĠÐ¿Ð¾Ð´ Ñĩ
ĠÐ· Ð»
ĠÐ¾Ðº ÑĢÑĥÐ¶
Ð¾Ñĩ ÐµÐ¼
ĠÑģ ÑİÐ´Ð°
Ð¾Ð· Ð²
ÐµÐ· Ð¶
ĠÐ¼ Ð¾Ñı
Ñģ Ñĥ
Ð½ Ð¾Ðº
ÑĦ Ð¾ÑĢÐ¼
ĠÐ¸ÑģÐ¿ ÑĭÑĤ
ĠÐ²Ðº Ð»ÑİÑĩ
ĠÑĢÐ°Ð½ ÑĮÑĪÐµ
Ð¾ÑĤ Ñĭ
ĠÐ±Ð¾ ÐµÐ²
ĠÑģÐ¼ÐµÑĢ ÑĤÐ¸
Ñģ Ð¾Ð²
Ð¾Ð¿ Ð°Ñģ
ÐĿ Ðµ
ĠÑĪÐº Ð¾Ð»
ĠÐ³ÑĢ Ð°Ð¶Ð´Ð°Ð½
Ñĩ ÐµÑģÐº
ĠÐ²Ñĭ ÑĢÐ°Ð¶
Ð½Ð¾Ð² ÑĮ
ĠÐ²Ð¾ ÑģÐº
ĠÐ¼ ÐµÐ»
ĠÐ¿ÐµÑĢ ÐµÑģÑĤ
ĠÐ¿Ð¾Ð· Ð´
ÑĤ ÐµÐ½
Ð¾Ð» Ñĩ
ĠÐŀ Ñģ
ĠÑģ ÐµÑĢÑĮÐµÐ·
âĢ Ŀ
ĠÐ·Ð´ Ð¾ÑĢÐ¾Ð²
ĠÐ² ÑħÐ¾Ð´
ĠÑģÐ» ÑĥÑĪ
o u
ĠÐ¼Ð¸Ð» Ð»Ð¸
ĠÐ¿ ÐµÑģ
Ð¾ÑģÑĤ Ð°Ð²
ĠÑģÐº Ð¾Ð»ÑĮÐºÐ¾
ĠÐµÐ´ Ð²Ð°
ĠÐ¾Ð± ÑĭÑĩ
ĠÑĩÐ°ÑģÑĤ Ð¾
Ð¾ÑĢ Ð´
Ð ĸ
ĠÐ·Ð°Ðº Ð¾Ð½Ñĩ
ÑĢ Ð°ÑĤÑĮ
ĠÐ¸ÑģÑĩ ÐµÐ·
ÑĢÐ°Ð½ Ð¸Ñĩ
ĠÑģÐ²Ð¾ ÐµÐ¼
ĠÑĥ Ð¼ÐµÑĢ
ÂłÐĿ ÐµÑĤ
Ð°Ð½ Ðµ
ĠÑĤ ÐµÐ¿
ĠÑĢÐµÑĪ Ð¸Ð»
ĠÐ·Ð°Ð´ ÑĥÐ¼
ĠÑĦ Ð¾ÑĢ
ĠÐŁ Ð¾ÑĤÐ¾Ð¼
ÑĪ Ð°Ñı
ĠÐº Ð»Ð°Ñģ
ĠÐ¼ Ð³
ÑģÐº Ð°
Ð¸Ð¼ ÑģÑı
Ð¿ Ð¸Ñģ
ĠÑĤ Ð°Ð¹
o m
Ñĩ Ð°ÑģÑĤ
Ð¸ÑĤ Ñĭ
ĠÐ¾ÑĤÐ² ÐµÑĩ
ĠÐ¾ÑĤÐº Ð°Ð·
ĠÑĩ Ð»ÐµÐ½
ÑģÑĤ Ð°Ð½Ð¾Ð²
ĠÑĢÐµÐ± ÐµÐ½
ĠÐºÑĢ Ð¾Ð¼Ðµ
ĠÐ² Ð¾ÑģÑĤ
ĠÐ³ ÐµÐ½ÐµÑĢ
ĠÐ¿Ð¾Ð´ Ð½ÑıÐ»
ĠÐ½Ð°Ð± Ð»ÑİÐ´
ĠÑĥÐ´ Ð°Ð»Ð¾ÑģÑĮ
ĠÐ¸ÑģÐº Ð»ÑİÑĩ
ĠÐĺ Ð»Ð¸
Ð½Ð°Ñĩ Ð°Ð»Ð°
ĠÑĢÑĥ Ðº
Ðº Ð¸Ð½
ĠÐ±Ð» Ð°Ð³Ð¾
ĠÐ²Ð· Ð´Ð¾Ñħ
ĠÐ´ÑĢÑĥÐ³ Ð°
ÑģÑĤÐ²ÐµÐ½ Ð½ÑĭÐ¹
ĠÐ¾ÑĤ Ð¼
ĠÐ¼Ð¾ Ð¸
ĠÐ¾Ðº Ð¾Ð½Ñĩ
ĠÑĢ Ð°Ð²
Ġ B
ĠÐ²Ñĭ Ð±Ð¾ÑĢ
ÑĢÐ¸ Ð¿
ĠÑģÐ¾ÑĤ ÑĢÑĥÐ´
ÑĮ Ð¸
ĠÐ´ Ð¸Ð²
ÐµÐ½ Ð½ÑĥÑİ
ĠÑĤ ÐµÐº
Ð» Ñĭ
Ð°ÑĤ ÐµÐ»ÐµÐ¹
ÑģÐº Ð¾Ð¼Ñĥ
ĠÐ¾ÑĤÐ½Ð¾ Ñģ
ĠÐ° Ð±
ĠÐ¿ÑĢÐ¾Ð² ÐµÑĢ
ĠÐ¾ ÑĪÐ¸Ð±
ĠÐ¿ÑĢÐ¾ÑĦ ÐµÑģÑģ
ĠÐ² Ð½Ð¸Ð·
ĠÑı Ñģ
Ð³Ð¾ ÑĢ
Ð½Ð¸ Ñı
ĠÐŁ ÑĢÐ°Ð²
Ġ/ /
ĠÐ²ÑĤÐ¾ÑĢ Ð¾Ð¹
ĠÐ²Ñģ ÐµÐ¹
Ġ1 2
Ð± Ðµ
Ð¾Ð¹ Ð´
ĠÐĵ ÑĢ
ĠÐ¿Ð¾Ñħ Ð¾Ð¶
Ð°Ð½ Ð½ÑĭÐ¹
ĠÐ·Ð°Ð¼ÐµÑĤ Ð¸Ð»
Ð½Ð¾ÑģÑĤ ÐµÐ¹
ĠÑģ Ð°Ð¼Ð¸
ĠÑĤ ÐµÐ»Ð¾
Ð»Ð°Ð² Ð°
ĠÐ¾Ð± Ñĭ
ĠÐºÐ°Ð· Ð°Ð»Ð¾ÑģÑĮ
ĠÑģÐ¾Ð´ ÐµÑĢÐ¶
ĠÐĲ Ð»
ĠÐ·Ð°ÑıÐ² Ð¸Ð»
ĠÐ¿ ÐµÑĩ
Ð¸ÑĨ Ðµ
ĠÐ² Ð½Ð¾Ð²ÑĮ
Ð¿ÑĢ Ð¾ÑĩÐµÐ¼
Ð¾Ð¿ Ð¾Ð»
Ð¾Ð¶ Ð°Ð»
ĠÑĥÐ²Ð¸Ð´ ÐµÐ»
ĠÐ¼ Ð°Ð»Ð¾
Ð°Ð» Ñĭ
ĠÑĤ ÑĢÐ°Ð½
ĠÐ°ÐºÑĤ Ð¸Ð²
ĠÑģÐ² Ð¸Ð´
Ġ19 4
ĠÐ´Ð¾Ð²Ð¾Ð»ÑĮ Ð½Ð¾
ĠÑĢÐ°Ð· ÑĥÐ¼
ĠÐ±ÑĥÐ´ Ñĥ
ĠÐ½Ðµ Ð¸Ð·
ĠÐ¿Ð¾ÑĤ ÑĢÐµÐ±
ĠÐ¿Ð¾Ð» Ð¾Ð²
ĠÑĥÐ± Ð¸Ð¹
ÂłÐŃ ÑĤÐ¾
Ð°Ð»ÑĮ Ð½ÑĭÐ¼
ĠÐ¿ÑĢ Ð¸ÑıÑĤ
Ð°ÑĪ Ð°
ĠÐ¾ÑĤ ÐµÑĨ
ĠÐ¿Ð¾Ð³ Ð¸Ð±
ĠÐ¿ÑĢÐµÐ´ÑģÑĤÐ°Ð² Ð»Ñı
ĠÑģ Ð¾Ð±ÑĭÑĤ
ĠÑģÐ» Ð°Ð±
ĠÐ¡ ÐµÑĢÐ³
ĠÑģ Ð¾Ñĩ
ĠÑģÐ¾Ð· Ð½
ĠÐ·Ð° ÑģÑĤ
ĠÐ¿Ñģ Ð¸Ñħ
Ð¾Ñĩ ÐºÐ¸
ĠÐ° Ð»
ĠÑĢÑĥ ÐºÐ¾Ð¹
Ġ N
Ð¿ Ð¸Ð¾Ð½
Ð¸Ðº Ð¾Ð¼
ÐµÐº ÑĤÐ¾ÑĢ
ĠÐ¿ÑĢÐ¸ÑĪ Ð»Ð¾ÑģÑĮ
ĠÐ¾Ð¿ ÐµÑĢÐ°
Ð°ÑĤ ÑĥÑĢ
ĠÐ¼Ð³ Ð½Ð¾Ð²
ĠÐ¶Ð¸Ð² Ð¾ÑĤ
ĠÑģÐ¸Ð» Ñĭ
ĠÐ¿ÐµÑĢ ÐµÑģ
ĠÑĦ Ð°ÐºÑĤ
ĠÑĤÑıÐ¶ ÐµÐ»
ĠÐĴ Ð°Ñģ
ĠÐ¼ ÐµÑĢ
ĠÑģÐ°Ð¼ Ð¾Ðµ
ĠÐ³Ð»Ð°Ð· Ð°Ð¼Ð¸
ĠÑģÑĤÑĢÐ°Ð½ Ñĭ
Ð½Ð¸ ÑĨÑĭ
ÐŁ ÑĢ
. ]
ĠÑħÐ¾ÑĤ ÐµÐ»Ð¾ÑģÑĮ
ĠÐ¼Ñĭ ÑģÐ»Ð¸
Ñį Ð¹
ĠÐ½ Ð¾ÑĢÐ¼
ĠÐ» Ð¸Ð½
ĠÐ´ ÐµÐ½
Ð°Ð½ Ñĥ
Ñĩ ÐµÑĤ
ĠÐ¿Ð»Ð¾ Ñī
ÂłÐ £
ĠÐ±Ð»Ð°Ð³ Ð¾Ð´Ð°ÑĢ
ĠÑĢÐ°ÑģÑģÐº Ð°Ð·ÑĭÐ²
ĠÐ±Ð¾Ð»ÑĮÑĪ Ð¾Ð¹
ĠÐ½Ð°ÑĪ ÐµÐ¹
Ð¸ÑĤ ÑĢ
ÑĥÐ½ Ðº
Ð¾Ð² ÑĭÐµ
Ð¼Ð¾ÑĤ ÑĢÑı
ÑĢÐµÐ¼ ÐµÐ½Ð½Ð¾
ĠÑģÐ¾ ÑĨÐ¸
ĠÐ¶ ÑĥÑĢÐ½
ĠÐ¾Ð¶ Ð¸Ð´
ĠÐºÐ¾Ð» Ð¸ÑĩÐµ
Ð¼ ÐµÐ½ÑĤ
ĠÐº Ð¾Ð¿
ÑģÑĤÐ² ÑĥÑİÑī
Ð¿Ð¾Ð» Ð°Ð³
ÐµÐ² Ð¸Ð´
ÑĢÑĥ ÑĤ
Ð½Ñĥ Ð»Ð¸ÑģÑĮ
ĠÐ¾ÑĤ Ð¼ÐµÑĤ
ĠÐ± ÑĥÐ¼
ĠÐ¾Ð± Ð¾ÑĢ
ĠÐ¿ÑĢÐ¾ ÑħÐ¾Ð´
ÑĢÐ¾Ð¼ Ðµ
ĠÐ¿Ð¾Ñĩ ÑĥÐ²
ĠÐ² Ð»Ð°Ð´
ĠÐ¿Ð» Ð°ÑĤ
ĠÐ¾Ñī ÑĥÑī
Ð³ ÑĥÑģÑĤ
ÑģÑĤ Ð°
ĠÑģÐ¼ ÑĭÑģÐ»
ĠÐ¾ÑģÐ¾Ð± ÐµÐ½Ð½Ð¾
ĠÐŁ ÐµÑĢÐ²
ĠÐ¼ Ð°ÑģÑģ
ĠÐ·Ð°Ð¼ ÐµÑĩ
ĠÐ´ ÐµÐº
ĠÐ´ Ð½ÐµÐ¹
Ð¾Ð· Ð´
ÑģÑĤÐ²Ð¾Ð² Ð°ÑĤÑĮ
ĠÐ¿Ð¾Ð´ Ð¾Ð·
ĠÐ¾Ð¿ ÑĭÑĤ
Ð¸ÑĢÐ¾Ð² Ð°Ð»
ÑģÑĤ Ðµ
ĠÐ´ ÑĢÑĥÐ·
ĠÑĢÐ°Ð±Ð¾ÑĤ Ñĥ
ĠÐ¡ Ð²
ĠÐ¶ÐµÐ½Ñī Ð¸Ð½Ð°
Ð¿ÑĢ Ð¸Ð½
ĠÐ² Ð»Ð°ÑģÑĤÐ¸
ĠÐºÐ¾ÑĤÐ¾ÑĢ ÑĭÐ¼
Ð°Ð»ÑĮ Ð½Ð°Ñı
ĠÑĥÑģ Ð¸Ð»
ĠÐ²Ð½ÑĥÑĤÑĢ ÐµÐ½
ĠÐ´Ðµ ÑıÑĤÐµÐ»ÑĮ
ĠÐºÑĢ ÐµÑģÑĤ
ĠÑģÑĤ ÑĢÐµÐ¼
ĠÑĩÐµÑĤ Ð²ÐµÑĢ
ĠÑĤ Ð¸Ð¿
ĠÐ¸Ð¼ Ñı
ĠÑĥ Ð³ÑĢ
Ð¸Ñħ ÑģÑı
ĠÑģ Ð¾Ðº
ĠÐ¿Ð¾Ð» Ñĥ
ĠÐ½Ð¾Ñĩ ÑĮ
ĠÐ½Ðµ Ð¾Ð¶Ð¸Ð´
ĠÐ¾Ð´ Ð½Ñĥ
ĠÐ´ÐµÑģÑı ÑĤ
Ðļ Ð°Ðº
ĠÑģÐ¿ÑĢÐ¾Ñģ Ð¸Ð»Ð°
Ð½ ÐµÐ·
1 0
ĠÑĤ Ð¾Ð±Ð¾Ð¹
ĠÐ´ÐµÑĤ ÐµÐ¹
ĠÑģÐ²ÑıÐ· Ð¸
ĠÐ³Ð¾ÑģÐ¿ Ð¾Ð´
ĠÐ¿ÑĥÑĤ Ð¸
Ġ p
ĠÐ½Ð°Ñĩ Ð°Ð»ÑĮ
ĠÐ²Ð¿ÐµÑĢ ÐµÐ´
Ð¾Ð¹ ÑĤÐ¸
Ñı ÐµÑĤ
ĠÐ¿ Ð°Ð´
ÐµÐ» Ðµ
ĠÐ¸ ÑĤ
ĠÐ´Ð¾Ðº ÑĥÐ¼
Ð¾Ð» ÐµÐµ
Ð¸Ð² Ð°ÑİÑĤ
ÐµÑĢ Ð½Ð¾
ĠÑĩÐ°Ñģ Ð¾Ð²
ĠÑģÐ°Ð¼ Ð¾Ð¹
ÐµÐ¼ ÑĮ
ÂłÐ ĳ
ĠÐ²Ð¾Ð·Ð¼Ð¾Ð¶ Ð½Ð¾
ĠÐĳ ÐµÐ»
Ð°Ð¶Ð´ Ñĭ
ĠÐ¼ Ð°Ñģ
ĠÑģÐ»Ð¾Ð² Ð¾
ĠÑį Ð»ÐµÐº
ĠÐ¿ÑĢÐ¾Ð³ ÑĢÐ°Ð¼
ĠÐ¼ ÐµÑĢÐµ
ĠÐ¿ÑĢÐ°Ð² Ð´Ð°
ÑĤ Ð¾Ð¶
ĠÑģ Ð¸Ð½
ĠÑģÐ¾Ð» Ð´
ĠÑģÐµÐº ÑĥÐ½
Ð² Ð¸Ð³
ĠÐ»Ð¸ÑĨ Ð°
ĠÐ¿ÐµÑĢ Ð¸
ÑĢÐ°Ð½ ÑĨ
ĠÐ´Ð² Ð¸Ð³
ĠÐķÐ² ÑĢÐ¾Ð¿
ĠÐ² ÑĢÐ°Ð³
ĠÐºÐ² Ð°ÑĢÑĤ
Ðº Ð½ÑĥÐ»
ÑģÐ» ÑĥÐ¶
ĠÐ¸ÑģÐº ÑĥÑģ
ĠÑģÐ²Ð¾ Ð¸Ð¼Ð¸
Ð°Ð¼ ÐµÐ½
Ð² Ð¸Ð¶
ĠÐºÐ¾ÑĢ Ð¾ÑĤ
ĠÑĤÐ°Ðº Ð°Ñı
Ñĥ ÐºÐ°
Ñħ Ð°
ĠÐ¾Ð± ÐµÑģÐ¿
ĠÐ½Ð°Ð¹ ÑĤÐ¸
ĠÑģÐ»ÐµÐ´ ÑĥÐµÑĤ
ĠÑįÐ½ ÐµÑĢÐ³
ĠÐ²ÑģÐ¿ Ð¾Ð¼Ð½
ÑĥÑģ Ð°
Ð½Ð¸ ÑĨ
Ñĥ ÐºÐ¸
ÑģÑĤÐ² ÑĥÐµÑĤ
ĠÐľ Ð¸Ð½
Ñħ Ñĥ
ĠÐ¿ÑĢ Ð¸ÑĢ
! ..
ÐµÐ¿ ÑĤ
ĠÐ¾ ÑħÑĢÐ°Ð½
ĠÐ²Ð½Ð¸Ð¼ Ð°Ð½Ð¸Ðµ
ĠÐ¸Ñģ ÑģÐ»ÐµÐ´
ĠÐĴ ÐµÐ´ÑĮ
Ð¸Ð² Ð°ÐµÑĤÑģÑı
ĠÐ¼Ð¸ÑĢ Ðµ
ÐµÐ½Ð¸Ñı Ñħ
ĠÐ·Ð½ Ð°ÑĤÑĮ
ĠÐ¿Ð¾Ð´ Ð½Ð¸Ð¼
ĠÐ¢ Ð¾
ÂłÐļ Ð°Ðº
Âł Ñģ
ĠÐļ ÑĤÐ¾
Ð½Ð°Ñĩ Ðµ
Ð¸ÑĨ ÐµÐ¹
ĠÐ¾Ð±ÑĬ ÑıÐ²
Ð½Ð¸Ñĩ ÐµÑģÐº
ÐµÐ½ Ð½ÑĭÐ¼Ð¸
ĠÐŁÐ¾ ÑįÑĤÐ¾Ð¼Ñĥ
ĠÐ± Ð¾Ðº
ĠÐ¼ÐµÐ´ Ð»ÐµÐ½Ð½Ð¾
ĠÐ½Ð° ÑĪÐ¸
Âł Ð²
ĠÑĦ Ð¸Ð·
ĠÐ½Ð° ÑĢÑĥÑĪ
Ð°Ð» Ð¾Ð²
Ð°Ð· Ð´
ÑĢ Ð°Ðº
ĠÐ´ÑĢ ÐµÐ²
a s
1 5
Ð¸Ñģ Ð°
ĠÐĶ Ð°Ð¶Ðµ
Ñĭ ÑĢ
ĠÐ¤ ÐµÐ´
ĠÐ¿Ð¾Ð½ ÑıÑĤÑĮ
Ð°Ð´ ÑĮ
ĠÐ¾Ð¿ ÑĥÑģÑĤ
ĠÑĤÑĢ Ð°Ð²
ÑģÑĤÐ²ÐµÐ½ Ð½Ð¾Ð³Ð¾
ĠÐ¿Ð¾ÑģÐ¼Ð¾ÑĤÑĢ ÐµÐ»
ĠÐ´Ð¾Ð³ Ð¾Ð²Ð¾ÑĢ
ĠÐ½Ð°Ñģ ÐµÐ»
ĠÐ¢ Ð¾Ð³Ð´Ð°
ĠÑģ Ð¸Ð¼
Ð¼ ÐµÑĪ
Ð°Ð½ Ð¸
Ġ1 6
ĠÐ¿ÐµÑĢ ÐµÐ¼
ĠÐ¿ÑĢ Ð¾ÑĢ
ĠÐ´Ð² ÐµÑĢÐ¸
ĠÑģÑĤ Ð°Ð²
ÑģÑĤÐ² Ð¸Ð¸
ĠÑģ ÐµÑģÑĤ
ĠÐ²Ð¾Ð· Ð½Ð¸Ðº
Ð¸Ð»ÑĮ Ð½Ð¾
ĠÑģÐµÑĢÐ´ ÑĨÐµ
ÑģÑĤÑĢ Ð¾Ð¹
ĠÐ±ÐµÐ· Ð¾Ð¿Ð°Ñģ
ĠÐ½ ÐµÐ¶
ĠÐ¼ ÐµÑĪ
ĠÑģÐ¸Ð»ÑĮ Ð½Ð¾
ĠÐ´Ð¾Ð»Ð¶ Ð½Ð¾
Ð°Ð´ Ð»ÐµÐ¶
ĠÐ¾Ð´ Ð½Ð¸Ð¼
Ð°Ð½ ÑĮ
ĠÐ¾Ñĩ ÐµÑĢÐµÐ´
ÑĢ Ð¾ÑĤÐ¸Ð²
ĠÐ¼ Ð¾Ð´
ĠÑĤÐµÐ» ÐµÑĦ
ĠÐ²Ð¾Ð´ Ñĭ
ĠÑģÐ°Ð¼ Ð¾
ĠÐĲ Ð²
ĠÐ¿ Ð°
ÐµÐ¹ Ð½
ÑĮÑı Ð½
ĠÐ¸ÑģÐ¿ Ð¾Ð»Ð½
ĠÐ½Ð° ÑĢ
ĠÐ´Ð¾Ð¼ Ð¾Ð¹
Ð¼Ð¸Ð½ Ð¸ÑģÑĤ
ĠÑģÑĤÐ¾ ÑıÐ»
Ġ .
ĠÐ¼ Ð¸ÑģÑģ
ĠÐ´ÑĥÐ¼ Ð°Ñİ
Ð¸Ð¼ Ð°
ĠÐŁ Ð°ÑĢ
ĠÐ£ÐºÑĢÐ° Ð¸Ð½Ñĭ
ĠÐ½Ð°Ð¿ ÑĢÑı
ĠÐ¿Ð¾ÑģÐº Ð¾Ð»ÑĮÐºÑĥ
Ð¾Ð½ Ñĥ
Ġ R
ĠÑģ ÑĥÐ´ÑĮ
ĠÐ¿ÑĢÐ¾ÑĨ ÐµÑģÑģ
ĠÐ²Ñĭ ÑģÐº
Ð½ ÐµÐ¼Ñĥ
Ð½ÑĥÑĤ ÑĢÐ¸
ĠÐ½ Ñĥ
ĠÐ²ÑĭÐ¿Ð¾Ð» Ð½
ĠÑģ Ð°Ð´
Ñĭ Ð»ÑĮ
ĠÐº ÑĥÐ»ÑĮÑĤ
ĠÐ¿ÑĢÐµÑģÑĤ ÑĥÐ¿
ĠÐ¿Ð¾Ð´ÑĥÐ¼ Ð°Ð»
ÑĤ ÑĢÐ°
ĠÐ¶ Ð¸ÑĤÑĮ
ĠÐ± ÐµÐ³
ĠÐ·Ð° Ñħ
ĠÐ¶ÐµÐ» ÐµÐ·
ĠÐ¿ÐµÑĢ ÐµÐº
Ñģ Ñģ
Ð¾Ð² Ð°Ð»ÑģÑı
ĠÐº Ð¾Ð¶
ĠÐ± Ð°Ð±
ĠÐ¿ Ð°Ð¿
Ð²Ð¾Ð· ÑĮ
ĠÑģÑĤ Ð¾Ð»ÑĮ
ÐµÐ» Ð¸Ñĩ
ĠÐ¾ÑĤ ÑĤ
ÑĥÑĢ Ð³
Ð» ÐµÐ½Ð¸ÐµÐ¼
Ð¾ÑĢÐ¾ÑĪ Ð¾
Ð½ÑĥÐ² ÑĪÐ¸ÑģÑĮ
ĠÐŁ ÑĢÐ¾
ÑĢÐ° Ð¸Ð½
ĠÐ» Ð¸ÑģÑĤ
ĠÐĹ Ð°Ð¿
Ð¸Ð± Ð¾
ĠÐ³Ð¾Ð´ Ñĭ
ĠÐŁ Ð¾ÑĤ
ĠÐĵ Ð¾ÑĢ
ĠÑģ Ð±Ð¾ÑĢ
Ð¡ ÑĤ
ĠÐ· ÑĥÐ±
ĠÑģÐ°Ð¼ ÑĭÐ¹
Ġ F
ĠÐ½Ð°ÑģÑĤ ÑĥÐ¿
ĠÐ¿ÑĢÐ¸Ð½ Ð°Ð´Ð»ÐµÐ¶
ĠÑĦ Ð¸Ð³
ÐºÑĥ Ñİ
ĠÐĳ ÑĢ
ĠÐ½ Ð¾Ð¼
ĠÐ¸ Ð´ÐµÑĤ
Ð½ Ð¾Ð³
ĠÐ´Ð² ÐµÑĢ
ĠÐºÐ°Ðº Ð¾Ðµ
ĠÐ¸ÑģÑĤÐ¾ÑĢ Ð¸Ð¸
ĠÐºÐ» ÑĥÐ±
ĠÑĢÑĥ ÐºÐ°Ñħ
ĠÐ´ ÑĢÑĥÐ¶
ĠÐ± Ð¾Ð¹
ĠÐ¼Ð¾ ÐµÐ³Ð¾
Ð¾Ð¼ ÐµÑĤ
Ð³Ð»Ñı Ð´ÐµÐ»
ÐŃ ÑĤÐ¾
Ð¾ÑĤ Ñĥ
Ð¾Ñĩ Ð½Ð¾
ĠÑģ ÐµÐ½ÑĤ
ÑĢÐ¸ Ð³
ĠÐ½Ð°Ð· Ð½Ð°Ñĩ
ĠÐ¿ÑĢÐ¸Ñģ ÑĥÑĤ
ĠÐ²Ð¾Ð·Ð¼Ð¾Ð¶ Ð½Ð¾ÑģÑĤÑĮ
ĠÑĥÐ²ÐµÑĢ ÐµÐ½
ĠÐ¼ Ð»
ÐµÑĤ Ñĥ
ĠÑĩÐµÐ»Ð¾Ð² ÐµÑĩÐµÑģÐº
ĠÑĢÐ°Ñģ Ð¿Ð¾Ð»Ð¾Ð¶
ĠÐºÐ¾Ð½ ÑĦ
ĠÐ°Ð² ÑĤÐ¾ÑĢ
ĠâĢ ľ
ĠÑĤ Ð²Ð¾ÑĢ
ĠÐ±Ñĭ ÑģÑĤÑĢ
Ð¸Ðµ ÑģÑı
ÑĢÐ°Ð½ÑĨ ÑĥÐ·
Ð¿ÑĢ Ð¾ÑģÑĤ
ÐµÐ½ Ñģ
ĠÐ± ÑĥÐº
ĠÑĢ ÐµÐ¶
ĠÐ¼ Ð°Ð½
Ðº Ð¸Ð¼Ð¸
ĠÑģÐ¿ ÑĥÑģÑĤ
ĠÑħ Ð¾Ð»
ĠÑģ Ð´
ĠÐ¾ÑģÑĤ Ð°Ð½
ĠÐľ Ð¸Ñħ
Ð» Ð°Ð·
ĠÑģ ÑĬ
Ðŀ ÑĤ
ÑģÐº Ð¸Ð¼Ð¸
Ð± Ð¸
Ð¿ Ð°ÑĢ
ĠÐ² Ð½ÐµÑĪ
ĠÑģÐºÐ¾ÑĢ ÐµÐµ
ĠÑģÑĤ ÐµÐ¿
ĠÐº Ð°Ñģ
ĠÐ³ Ð°ÑĢ
ĠÐ¼ÐµÐ½ÑĮ ÑĪÐµ
ĠÑĢÑĥ ÐºÐ°Ð¼Ð¸
ĠÑĥ Ð´Ð°
ĠÐ² ÑĢÐ¾Ð´Ðµ
ĠÑĥ ÑĤÑĢ
ĠÐ° Ð³
ĠÑĦ Ð¸Ð»ÑĮ
ĠÐ± ÑĥÑĢ
ĠÑģÐ¾Ñģ ÐµÐ´
ĠÑĥ Ð½Ð¸
e t
ĠÐ¸Ð·Ð²ÐµÑģÑĤ Ð½Ð¾
ĠÐ²ÐµÑĢ Ñħ
ĠÐ¢ ÐµÐ¼
ÑĭÐ² Ð°Ð»Ð¸
ĠÑģ Ð¶
Ġ â
Ġ c
Ð» ÐµÑĩ
Ð¸Ð½ ÑĤÐµÑĢÐµÑģ
ĠÐ³ ÑĢÐ°ÑĦ
ÑģÐ» Ð¾Ð²
ĠÐ·Ð½Ð° ÐµÑĪÑĮ
Ð¸ÑĩÐµÑģÐº Ð°Ñı
ĠÐ²Ñĭ ÑĪÐµÐ»
ĠÑĢÐ°Ñģ ÑģÑĤ
Ð² ÑĭÐµ
Ñİ ÑĢ
ĠÐ³Ð¾ ÑĢÑı
ĠÐ¡ ÐµÐ¹ÑĩÐ°Ñģ
Ġ1 4
ĠÐ¿ÐµÑĢ ÐµÐ³
ĠÐŁ ÐµÑĢ
ÑĨ ÐµÐ¿
Ð°ÑĤ ÐµÐ»Ð¸
ĠÑĥ ÑħÐ¾Ð´
ĠÐļ Ð¾Ð¼
ĠÐ¿ÑĢÐ¾ ÑıÐ²
Ð½Ñİ Ñİ
ÑĢÑĥ Ðº
ĠÐ´Ð¾Ð» Ð³
ĠÐ½Ð°Ð¿ ÑĢÐ¸Ð¼ÐµÑĢ
ĠÐ¿ÑĢÐ¾Ð² ÐµÐ´
Ð°ÑĤ ÐµÐ¼
ĠÐ²Ð· ÑıÐ»
Ð¾Ð¶Ð´ ÐµÐ½Ð¸Ñı
ĠÐĳ Ñĭ
ĠÐ²ÑĢÐµÐ¼ ÐµÐ½
Ð°Ð² Ð°ÑĤÑĮ
1 2
ĠÑĥÑĤ Ð²ÐµÑĢÐ¶
Ñı Ð½ÑĥÐ»
1 7
ĠÐ¿ ÑĥÑĤÑĮ
Ð½Ð¸Ñĩ ÑĤÐ¾Ð¶
ĠÐ²ÐµÑģÑĮ Ð¼Ð°
Ð´ ÐµÐ½
Ð½Ð¸ ÐºÑĥ
ĠÐºÐ¸Ð² Ð½ÑĥÐ»
ĠÐ¿Ð¾Ð» Ð½Ð¾ÑģÑĤÑĮÑİ
ĠÐ¥Ð¾ÑĤ Ñı
ÑĢÑĥ ÐºÑĤ
ĠÑĤÐ¸Ñħ Ð¾
ĠÐºÐ¾Ð½ ÑĤ
ĠÐ´ Ð¸
ĠÐĴÐ»Ð°Ð´ Ð¸Ð¼
ĠÐ± Ð°Ð»
ĠÐ´Ð°Ð» ÐµÐºÐ¾
ĠÑĩÐµÑĤÑĭ ÑĢÐµ
ĠÐ¸Ð¼ Ð¿
ÑģÑĤÐ²Ð¾Ð² Ð°Ð»Ð°
ĠÐ± Ð°Ð·
Ð½Ð¸ ÑĨÑĥ
Ð¸Ð¶ Ñĥ
ĠÐ² Ð¾ÑĢÐ¾ÑĤ
ĠÐ¼ Ð°ÑĤÑĮ
ĠÐ·Ð°Ð´ ÐµÑĢÐ¶
ĠÐ¿Ð¾Ð´ ÑħÐ¾Ð´
ĠÐ²ÐµÑĩ ÐµÑĢ
ĠÐ½ Ð¾Ð¶
ĠÑĢÐµÑĪ ÐµÐ½Ð¸Ðµ
ĠÐŁ ÑĢÐµÐ´
ĠÐºÐ¾Ð¼Ð¿ Ð°Ð½Ð¸Ð¸
ĠÐ¾Ð± Ñģ
ĠÑĤÑĢ ÐµÑħ
Ð½Ð¸ Ð²
ĠÐ¿Ð¾Ð´ Ð³Ð¾ÑĤÐ¾Ð²
ĠÐ´ÑĥÐ¼ Ð°Ð»
ÂłÐĴ Ñĭ
Ð»ÐµÐ½ Ð°
ĠÐ²Ñĭ Ðº
ĠÐ¾ÐºÐ°Ð· Ð°Ð»ÑģÑı
ÑģÑĤÐ²ÐµÐ½Ð½Ð¾ Ðµ
ĠÑĩ ÑĥÐ¶
Ð¸ÑĤÐµÐ»ÑĮ Ð½ÑĭÐ¹
ĠÐ´ÐµÐ²ÑĥÑĪ ÐºÐ°
r u
ĠÐ¸Ð½ ÑĤÐµÑĢ
Ñĥ ÐµÑĤÑģÑı
ĠÑģÐ»Ð¾Ð² Ð°Ð¼
ĠÐ½ Ð°Ð¼Ð¸
ĠÐ¿ÐµÑĢ ÐµÐ±
ĠÐ·Ð°Ð´ Ð°Ñĩ
ĠÐĳ ÐµÑĢ
Ð»ÐµÐ½ Ñĭ
ĠÐºÐ°Ðº Ð¸Ð¼
. )
Ð½Ð¸Ðº Ð°Ð¼Ð¸
ĠÐ»Ð¸ Ð±Ð¾
Ð¸ÑĨ Ñĥ
ĠÐ±Ð¾ÑĢ ÑĮ
ÑĪ ÑĤ
ĠÐºÐ°Ðº Ð°Ñı
ĠÐ¾ÑĦÐ¸ÑĨ Ð¸
ĠÐŁ Ð¾ÑĩÐµÐ¼Ñĥ
ĠÐ½ Ð¸Ð·
ĠÐ±ÑĥÐ´ ÑĥÑī
ĠÑĦ ÑĥÑĤ
Ð°Ð½ Ð½ÑĭÑħ
Ð¾Ð² Ð¾
ĠÐļ ÑĢÐ¾Ð¼Ðµ
Ð»Ð¸ Ñı
ĠÑĢÐ°Ð± Ð¾Ñĩ
ÐµÐ² Ð¾Ð¹
Ð½Ð°ÑĢ Ð¾Ð´
ĠÐ¾Ð¿ Ð¸Ñģ
ĠÐ³ Ð»ÑıÐ´
e l
Ð¾Ð² Ð¾Ð³Ð¾
ĠÐĺ Ð²
ĠÐ¿ÑĢ ÐµÐ¿
Ġ D
Ġ G
Ñı Ñĩ
Ð¸Ñĩ Ð½Ð¾
ĠÑģ ÑĢÐ°Ð²
ĠÐ± ÐµÐ¶
ĠÐ¿Ð¾Ð»ÑĥÑĩ Ð¸Ð»
ĠÐ½Ð°ÑĪ Ð¸Ñħ
ĠÐ¼ Ð°ÑģÑĤ
ĠÑģ Ð¸Ð³
ÂłÐ ĵ
Ð½ÐµÐ· Ð°Ð¿
o t
ÂłÐ ķ
ĠÑĤÐ¾ÑĢ Ð³Ð¾Ð²
ĠÑģÐ²Ð¸Ð´ ÐµÑĤ
ĠÐ¿ÑĢÐ¸Ð´ ÐµÑĤÑģÑı
Ġ1 3
Ð½Ð¾ ÑĪ
Ñĭ ÑģÐº
ĠÐ¿ÑĢ Ð¸ÑĤ
? Â»
Ð¿ Ð°
ĠÐ»ÐµÐ³ ÐºÐ¾
Ð¸Ð²ÑĪ Ð¸Ð¹
ĠÑı Ð½
ĠÑģÐ¾Ð² ÑĢÐµÐ¼
ĠÐ¼Ð¾ Ñī
ĠÐ·Ð°Ð½ ÑıÑĤ
ĠÐ½Ð° ÑĨÐ¸Ð¾Ð½
Ð¸ÑĤÐµÐ»ÑĮ Ð½Ð¾Ð¹
ÑģÑĤÑĢ ÐµÐ»
Ðļ Ð¾Ð³Ð´Ð°
ĠÑģÐ»ÐµÐ´ Ð¾Ð²
ÐµÑĢ Ð¿
Ð¸Ð² Ð¾
ĠÐ¾Ð± Ð¾
ĠÐ¿Ð» Ð¾ÑĤ
ĠÐ°ÑĢ Ñħ
Ð»Ð° ÑģÑĤÑĮ
ĠÐł Ð¤
Ġ L
ĠÐ¿Ð°Ð¼ ÑıÑĤ
ĠÐ³ ÑĢÑı
ĠÐ» Ð¾Ð¶
ĠÐ¾ ÑħÐ¾ÑĤ
ĠÑħÐ¾Ñĩ ÐµÑĤ
ĠÑģÐ¿ ÑĢÐ°ÑĪ
ĠÐ½ Ñĭ
ÑģÑĤ Ð°ÑĤÐ¸
ĠÑĤ Ð¾Ð¿
ĠÑĥ Ð½Ð¸ÑĩÑĤÐ¾Ð¶
ĠÑģ ÑħÐ²Ð°ÑĤ
ĠÑĤÐµÐ¼ Ð½Ð¾
Ð¹ ÑĤÐ¸
ĠÐ²Ñĭ ÑĤ
Ð°Ð¶ Ð¸
Ðľ Ñĭ
Ð°Ð² Ð»Ð¸Ð²
ĠÐ¸Ð· ÑĥÑĩ
Ñģ Ð¾Ð»
ÐµÑĩ Ðµ
ÑĢÑĥ Ñĩ
ÑģÑĤÐ²ÐµÐ½ Ð½ÑĭÑħ
ĠÐ°Ð²ÑĤÐ¾Ð¼ Ð¾Ð±
ĠÑĩÐ¸Ñģ Ð»Ðµ
ĠÑĥ ÑģÑĤÑĢÐ¾
ĠÐº ÑĢÐ°
ĠÑĨ ÐµÐ»ÑĮ
ĠÐ½Ð°ÑħÐ¾Ð´ Ð¸ÑĤÑģÑı
Ð°Ð½ Ð½Ð¾Ð¹
ĠÐ¾Ð± Ð²Ð¸Ð½
Ð¸Ð² Ð°ÑĤÑĮÑģÑı
Ð¸Ñı Ð¼Ð¸
Ð¸Ð½Ñĥ Ð»
ĠÐ¾Ð± ÐµÑī
Ð¸Ð½ Ð°Ð¼
Ð°Ð´ Ð½Ð¾
ĠÐ¾ÑĤ ÑĢ
Ð»Ð¸ Ð±Ð¾
Ð°Ð² ÑĪÐ¸ÑģÑĮ
Ð¾Ð¿ ÑĭÑĤ
ĠÐ¿ÑĢÐ°Ð² Ð¾
i l
ĠÑģÐ» Ð°Ð²
ĠÐ¼ Ð¾Ð·
ĠÑĦ ÑĢÐ°Ð½ÑĨÑĥÐ·
Ð¼ ÑĥÑĢ
ĠÐ¾ÑĤ ÑĨÐ°
Ð¾Ð½ ÑıÑĤ
ĠÐ²Ð¸Ð´ Ñĥ
Ġ [
Ð¸ÑĤ ÐµÑĤ
ĠÐ²Ñĭ ÑĪÐµ
ĠÐĴ ÐµÐ»Ð¸Ðº
Ð¾Ð³ Ð°
Ð¸Ð² Ð°Ð»Ð°
ĠÑĤÑĢ ÐµÑĤÑĮ
ÐµÐ½Ð¸Ñı Ð¼Ð¸
Ð»ÐµÐ½ Ð½ÑĭÐµ
ĠÑģÐ¾Ð¾Ð±Ñī Ð°ÐµÑĤ
Ð°ÑİÑī ÐµÐ¹
Ð²ÐµÑĢ Ñģ
Ð¾Ñĩ ÐºÑĥ
ĠÐ´Ð¾ÑģÑĤ Ð¸Ð³
ÐµÐº Ð°
ĠÐŁ Ð°Ð²
ĠÐºÐ¾Ð½ ÑĨÐ°
u s
ÑĥÑīÐµ ÑģÑĤÐ²
ĠÑį Ð¿
ĠÐ¾ÑģÑĤ Ð¾ÑĢÐ¾Ð¶
Ñģ Ñĭ
ĠÐķ ÑīÐµ
ĠÐ¸ÑģÑĤ Ð¾Ñĩ
ĠÑĢ ÑĭÐ±
ĠÐ¾ÑĤÐ´ ÐµÐ»ÑĮ
Ð»Ð° Ñĩ
ĠÐ³Ð»Ð°Ð· Ð°Ñħ
ĠÐ¾Ð´ Ð½Ð¾Ð¼
o l
Ð² Ñĥ
an d
ĠÐ½Ð°Ð´ ÐµÐ¶
ĠÐ·Ð² Ð¾Ð½
ĠÐºÐ°ÑĩÐµ ÑģÑĤÐ²Ðµ
Ð¸Ðµ Ñħ
ĠÐ¿Ð¾Ð¿ ÑĢÐ¾Ñģ
Ġt he
ĠÐ¿ÑĥÑģÑĤ ÑĮ
ĠÐ¾ Ð³Ð¾
ĠÐ±ÑĥÐ´ ÐµÐ¼
Ð¾Ð» Ð³Ð¾
ĠÐ¾Ñĩ ÐµÑĢ
ĠÐ²Ð¾Ð· ÑĢÐ°ÑģÑĤ
Ð³ Ð°ÑĢ
Ð¸ÑĤÐµÐ»ÑĮ Ð½ÑĭÐµ
ĠÐ·Ð°Ð² Ð¸Ñģ
ĠÐ¾Ð±Ñĭ ÑĩÐ½Ð¾
ĠÐ´ ÐµÐ¿
ĠÐ·ÐµÐ¼ Ð»Ñİ
Ġ3 0
ĠÑĢ Ð¾Ð¼
ĠÐ± Ð»Ð¸Ð¶
Âł Ð¿
ĠÐ·Ð°Ñĩ ÐµÐ¼
ĠÑģÑĤ Ð¸Ñħ
ĠÐŀ ÑĢ
ĠÐ¸Ð½ Ð¾Ð³Ð´Ð°
ĠÐ½ÐµÑģÐº Ð¾Ð»ÑĮ
ĠÑĢÐ°Ð·ÑĢ ÐµÑĪ
ĠÑĤ ÐµÑĩÐµÐ½Ð¸Ðµ
Ð»Ñı ÐµÑĤÑģÑı
ĠÑĥÐº ÑĢÐ°Ð¸Ð½
Ð°Ð½ ÐµÐµ
Ð¾Ð²Ð¾ÑĢ Ð¸Ð»
Ð¸ÑĩÐµÑģÐº Ð¾Ðµ
ĠÐº Ð¾Ð¼Ñĥ
ĠÑħÐ¾Ð·Ñı Ð¹
ĠÐ¼Ð½Ð¾Ð³ Ð¸Ðµ
ĠÐ¾Ð±ÐµÑģÐ¿ ÐµÑĩ
Ð´Ð° ÐµÑĤ
ĠÐ´ Ð¾Ð¶Ð´
ĠÐ²Ð¾Ð² ÑģÐµ
ÑĥÐ»Ñı ÑĢ
ĠÐ» Ð¾ÑĪ
ĠÐľ Ð°Ðº
ĠÐ¼ Ð¸ÑĢÐ¾Ð²
ĠÑĪ ÐµÐ»
Ð°ÑģÑĤ ÑĮ
ĠÐļ ÑĢÐ°Ñģ
Ð¸Ð¼ Ð¾ÑģÑĤÐ¸
Ð± ÐµÑĢ
ĠÑģÐ°Ð¼ ÑĭÐ¼
ĠÐºÐ°Ð± Ð¸Ð½
ĠÐ°Ð² Ð³ÑĥÑģÑĤ
ÑĪ ÑĥÑİ
1 4
Ġ H
Ñĭ Ð³
ĠÐ³Ð» ÑĥÐ¿
ĠÐºÑĢ Ð¸Ðº
ÑĢ Ð¸Ñĩ
Ġ f
ĠÐ¼ ÑıÐ³
ĠÐ¡ÑĤ Ð°ÑĢ
ĠÑĢÐµÐ·ÑĥÐ»ÑĮÑĤ Ð°ÑĤÐµ
ĠÑĪ ÑĥÐ¼
ĠÑģ ÑĥÐ¿
Ñĩ Ð°ÑĤ
ĠÑĢÐ°Ð· Ð´ÐµÐ»
ĠÑįÐ»ÐµÐº ÑĤÑĢ
ĠÐ²Ð¾Ð· Ð´
ÐµÐ³Ð¾ ÑģÑı
Ħ ĸ
Ð Ļ
ĠÐ¿Ð¾Ð½Ð¸Ð¼ Ð°Ñİ
Ð¾Ð´ Ð½Ð¾
Ð¾ÑĢ Ñĭ
ĠÑıÐ² Ð½Ð¾
ÑĮ Ð¼Ð¸
ĠÐ´ Ð¾Ð²ÐµÑĢ
ĠÐ² Ð°Ð»
ĠÐĴ Ð°Ð»
ĠÐ¿Ð¾ Ð¸ÑģÐº
ĠÐ¼ Ð¾Ðµ
Ð¾Ð» Ð¾Ñģ
ĠÑģÑĩ ÐµÑĤ
ĠÐ½ Ð°Ð½
ĠÐĹ Ð´ÐµÑģÑĮ
ĠÐ¶ÐµÐ½Ñī Ð¸Ð½Ñĭ
Ð½Ð¸ ÑĨÐµ
ĠÐ·ÐµÐ¼ Ð»Ð¸
ĠÑĥ Ñħ
Ð½Ð°Ñĩ Ð¸ÑĤ
ĠÐ´Ð¾Ð¼ Ðµ
ĠÐ¿ÑĢÐ¾Ð¸Ð·Ð¾ÑĪ Ð»Ð¾
ĠÑģÐµÐº ÑĢÐµÑĤ
ĠÐºÑĢ ÐµÑģ
ĠÐĶ Ð¾
ĠÐ½Ð°ÑĪ ÐµÐ³Ð¾
Ð°Ð´ Ñĭ
Ð°Ð»Ð¸ Ð·Ð°
ĠÐ¿ÑĢÐ¾ÑĪ Ð»
ĠÐ¸ Ð½Ð°ÑĩÐµ
ĠÐ½ÐµÐ¼ ÐµÑĨ
ĠÐ² Ð°Ð¼Ð¸
ĠÑĢ Ð¾ÑģÑĤ
ĠÐ°ÑĢÐ¼ Ð¸Ð¸
ĠÐ¿ÐµÑĢÐ¸ Ð¾Ð´
ĠÑģÐ¼Ð¾ÑĤÑĢ ÐµÐ»
ÑİÑī Ð¸Ð¹
ÑģÐº Ð¾Ð»ÑĮÐºÐ¾
ĠÑģÐ¸Ð» Ñĥ
ĠÑĥ Ð¿ÑĢ
ĠÐ´ Ð¸ÑĢ
a c
Ġ19 3
ĠÑģÑĤÑĢ ÐµÐ»
ĠÐ´ÐµÑģÑı ÑĤÑĮ
ĠÐĹ ÐµÐ¼
ĠÐ²Ð¾ Ð¾ÑĢÑĥÐ¶
Ð² Ð¾Ð½
ĠÐ¾Ðº ÑĤ
ĠÐĵ Ð°ÑĢ
ÑģÐº Ð¾ÑĢ
ĠÑĥÐ± ÐµÐ´
Ð¾ÑĢ Ð²
Ġ o
Ð ¦
ĠÐ¿ÑĢÐ°Ð² Ð°
Ñİ Ð·
ĠÐ¿ÑĢÐ¾Ð¸Ñģ ÑħÐ¾Ð´
ĠÑģÐ» ÐµÐ·
Ġ m
ĠÐ½Ð°Ð¿ Ð¾Ð¼Ð¸Ð½
ĠÐ¿ÑĢÐ¾Ð´ ÑĥÐº
ĠÐ½Ð¸ÐºÐ°Ðº Ð¸Ñħ
ÐµÐ½ Ð½Ð¾Ð¼
ĠÐ¾ÑĤ Ð±
ĠÑģÑĤ Ð¾Ð»ÑĮÐºÐ¾
ĠÐ´ Ð¾Ð²
Ð°Ð² Ð°Ð»
ĠÑĤÐ¾Ð²Ð°ÑĢ Ð¸Ñī
1 6
ĠÑģ Ñĥ
ÐµÐ¼ ÑģÑı
ĠÐ²Ð·Ð³Ð»ÑıÐ´ Ð¾Ð¼
ĠÐ¸Ð½ Ð´
ÐµÐº Ð¸
ÑĢÐ¾ ÑĦ
ĠÑģÐ¿Ð¾ÐºÐ¾Ð¹ Ð½Ð¾
Ð¾Ð² Ð°ÑĤÑĮÑģÑı
Ð¸Ñĩ ÐµÐ³Ð¾
ĠÐ· Ð¾Ð»Ð¾ÑĤ
ĠÐ¾ÑĤ ÐºÑĥÐ´Ð°
ĠÐļ Ð¾Ð»
ĠÑĩÑĥÐ² ÑģÑĤÐ²
Ð°Ð²ÑĪ Ð¸Ñħ
ĠÑĤÐµÑĢÑĢÐ¸ÑĤÐ¾ÑĢ Ð¸Ð¸
ĠÐ¿Ð¾Ð² ÐµÐ´
ĠÐ± ÐµÑģÑģ
ĠÑģÐ¼ÐµÑĢ ÑĤÑĮ
ĠÑģÐºÐ¾ÑĢ Ð¾
ĠÑģÐ°Ð¼ ÑĭÑħ
Ð¾ÑıÑĤ Ð½Ð¾
Ð» ÑĥÐ¶
ĠÐ¸Ð½ ÑĤ
! !
ÑĢÐµÐ¼ Ñı
ÐµÑĢ Ð´
ÐµÑĪ Ðµ
ĠÐ¿ÑĢÐ¸Ð½ ÑĨÐ¸Ð¿
ĠÐ¿ÑĢÐ¾Ð¸Ñģ ÑħÐ¾Ð´Ð¸ÑĤ
Ðµ ÐµÑĤÑģÑı
ÑĭÐ² Ð°ÑİÑĤ
ÑĢ ÐµÐ¹
ĠÑģÐ»ÑĥÑĩ Ð¸Ð»Ð¾ÑģÑĮ
ĠÐ´Ð¾Ð» Ð»
Ð» ÐµÐ²
ĠÐ²Ð¼ÐµÑģÑĤ Ð¾
ĠÐ¿ Ð¸ÑĪ
Ð°ÑĢ Ñĭ
ĠÐ²Ð¸Ð´ ÐµÑĤÑĮ
Ð´ ÐµÑĢ
Ðº Ð¾Ð½
ĠÐ¡ Ð¾
ÑĢ Ð¾Ð¹
ĠÑıÐ½ Ð²Ð°ÑĢ
ĠÐ¡ Ð¼
ĠÐ¾ÑĤÐº ÑĢÑĭÐ²
ÑĥÐ¶ Ðµ
ĠÐ½ Ð°ÑĤ
ĠÐ½ÐµÐ´ Ð¾ÑģÑĤ
ĠÐ¾ÑĤÑģ ÑĥÑĤ
ÐºÑĥ Ñģ
ĠÑĩÐµÐ¼ Ð¿Ð¸Ð¾Ð½
ĠÑĨ ÐµÑĢ
ÑĥÑĪ ÐºÐ¸
Ñī Ð¸Ðº
ĠÐ¸Ð´ ÑĤÐ¸
ĠÐºÐ¾Ð¼Ð½ Ð°ÑĤÑĥ
ÑĢÑĥ Ð³Ð¾
Ð»Ñı Ð»
ĠÐĳ Ð¾ÑĢ
Ð» ÐµÑĢ
ĠÐ·Ð½ Ð°Ð»Ð°
Ð¸Ð» ÐµÑĤ
Ð¾Ð² Ð°Ð»Ð°
ÑĢ Ð¸Ð´
ĠÑĢÐ°Ð·Ð² ÐµÐ´
Ð² Ð¾ÑģÑĤ
Ð°Ð»ÑĮ Ð½Ð¾Ð¼
ĠÐ¼ÑĭÑģÐ» ÑĮ
ĠÑģÐ²Ð¾ ÐµÐ¼Ñĥ
ĠÐ¿Ð°ÑĢ Ñĥ
ĠÑģÐ¾Ð¾Ð±Ñī Ð¸Ð»
Ð¿ÑĢÐ¾ÑģÑĤ ÑĢÐ°Ð½
Ð¡Ð¡ Ðł
ĠÐ±ÑĥÐ¼ Ð°Ð³
Ð¸ÑģÑĤ Ð¾Ð²
ĠÐ¿Ð¾Ðº Ð°Ð·ÑĭÐ²
Ñģ ÐµÐ´
ĠÑģÑĤ ÐµÐº
ĠÐĴ Ð¸Ð´
Ñĩ Ð¸
ĠÐ¿ÐµÑĢ ÐµÐ¶
Ġ w
ĠÐ´ÑĢÑĥÐ³ Ð¾Ð¼
ĠÐ²Ð¾Ð¹ ÑģÐº
Ð°Ð² ÐµÑĢ
ĠÐ¿ÑĢÐ¸Ð½ ÐµÑģ
ĠÐĳ Ð°ÑĢ
ĠÐ¿Ð¾Ð¼ ÐµÑī
ĠÐ¾ÑĤÐ²ÐµÑĤ Ð¸Ð»Ð°
ĠÑĩ ÐµÑģÑĤ
ĠÐļÐ¾Ð½ ÐµÑĩÐ½Ð¾
ÂłÐ ł
ĠÑĥÐ»ÑĭÐ± Ð½ÑĥÐ»ÑģÑı
ĠÐ¾ÑĢÐ³Ð°Ð½ Ð¸Ð·
ÂłÐ ¥
Ð¾Ð¿ ÑĢ
in g
ĠÐ´Ð¾ÑģÑĤ Ð°Ð²
ĠÑģÐº Ð²Ð¾Ð·ÑĮ
ĠÑĦÐ¸Ð½ Ð°Ð½Ñģ
ĠÐºÐ¾ Ðµ
ĠÐ³Ð¾ÑĢÐ¾Ð´ Ðµ
ĠÐ³ÑĢÑĥÐ¿Ð¿ Ñĭ
Ð°ÑĤ Ð¾Ð¼
ĠÐ²Ð¸Ð´ Ð½Ð¾
ĠÐ¿ÑĢÐ¾ÑģÑĤ ÑĢÐ°Ð½
ĠÐ½ÐµÐ¿ÑĢ Ð¸ÑıÑĤ
e d
ĠÑģ Ð¸Ñħ
Â Ń
ĠÐ¿ÑĢ Ð¸ÐµÑħ
ĠÑĢ Ð¾Ð·
ĠÑģ Ñģ
ĠÑģ ÑĥÑĤ
Ð°ÐºÑģ Ð¸Ð¼
Ð¾ÑĢ Ð¾Ð¼
Ð¾Ð¶ Ð½Ð¾
ĠÑģÑĤÐ°Ð½ ÐµÑĤ
Ð¸ÑĩÐµÑģÐº Ð¸Ð¼
ĠÐ¿ÑĢÐ¸ ÑĪÐµÐ»
ĠÐŀ Ñĩ
ĠÐ¿Ð¾ ÑģÑĤÑĢÐ¾
ÑĪ ÐµÐ¼
ĠÑĪÐ¸ÑĢ Ð¾Ðº
ĠÑĨÐµÐ½ÑĤ ÑĢ
ĠÐ´ Ð¸Ðº
ĠÐ¾Ð± ÑģÑĤ
ĠÐ¾Ð± Ð»Ð°Ð´
ĠÑĢÐ°Ð· Ð¼ÐµÑĢ
ĠÐ³Ð¾Ð»Ð¾Ð² Ðµ
ÐŁ Ð¾
ĠÐ» Ð¾Ð²
ĠÑĥÐ² ÐµÐ»Ð¸Ñĩ
ĠÐ¿Ð¾Ð» Ð°Ð³
ÐµÐ· Ð´Ð°
ĠÐ¾ÑĩÐµÑĢ ÐµÐ´ÑĮ
ĠÑħÐ¾Ñĩ ÐµÑĪÑĮ
ÑĢÑı Ñģ
ĠÐ·Ð°Ð¿ Ð¸Ñģ
ĠÐ±Ð¾Ð»ÑĮÑĪ Ð¸Ð½
ÑĤ Ð¾Ð±Ñĭ
Ð°Ð¹ Ð½
ĠÐ¿Ð¾Ð¼Ð¾Ñī ÑĮÑİ
ĠÑĥÐ´ Ð¾Ð²Ð¾Ð»ÑĮ
ÑģÑĤÐ²ÐµÐ½ Ð½ÑĭÐ¼
ĠÑĢ ÐµÑĩ
ĠÐ´ ÑĥÑĢ
Ġ2 5
ĠÑĢÑĥÐ± Ð»ÐµÐ¹
ĠÐ³Ð¾Ð²Ð¾ÑĢ Ñı
ĠÐ±Ð¾Ð» ÐµÐ·
ĠÐ¸Ð· Ð¾Ð±ÑĢÐ°Ð¶
Ġ h
Ð»ÐµÐ½ Ð½ÑĭÑħ
Ð¾Ð»ÑĮ ÑĪÐµ
Ð¸ ÐµÐ²
ĠÐķ Ðµ
ĠÐ¿ÑĢÐµÐ´ ÑģÑĤ
ĠÐ¿Ð¾Ð¶Ð°Ð» ÑĥÐ¹
Ð¾Ðº ÑĢÐ°ÑĤ
Ñĩ Ð°
ĠÐºÐ¾Ð¼ Ð°Ð½
ĠÑģÐº Ð»Ð¾Ð½
ĠÑģ ÐµÐ»
ĠÐ² Ð¸Ð·
ĠÐºÐ¾ÑĢ Ð¿
Ñĩ Ð¸Ñģ
ÐŁ Ð¾Ñģ
ĠÑĦ Ð°Ðº
Ð¾Ð³ Ð¸
ĠÐļ Ð°Ð·
ĠÐ²Ñĭ ÑĢ
ĠÐ¿Ð¾Ð²ÐµÑĢ Ñħ
ĠÑĤ ÐµÐ»Ð°
Ð¸ÑģÑĤ ÑĢ
ĠÐ¿Ð¾ÑģÑĤÐ¾ÑıÐ½ Ð½Ð¾
ĠÐ¿ÑĢ ÐµÑģ
ĠÐ¿Ð¾Ðº Ð°Ñĩ
Ð»Ð¸ Ð¶Ðµ
ĠÑĦ Ð¾Ð½
ĠÑĦ ÐµÐ²
ĠÐº ÑĥÑħ
ĠÐ¾Ð³ ÑĢÐ°Ð½Ð¸Ñĩ
Ð¢ Ð°Ðº
? ..
Ġâ Ħĸ
ĠÐ¼ ÐµÑħ
ĠÐ²Ð½Ð¸Ð¼ Ð°Ð½Ð¸Ñı
ĠÐ² Ð¸Ð½
ĠÐĿÐ¸Ðº Ð¾Ð»
ĠÐ´ Ñĥ
ĠÐºÐ¾ÑĢ Ð¸Ð´
ĠÐ¾Ðº Ð°Ð·ÑĭÐ²
ÂłÐ Ľ
ĠÐĴ Ð¸Ðº
ĠÑģÑĤ Ð°ÑĤ
Ð°Ð»ÑĮ Ð½ÑĥÑİ
ĠÐ½Ð°ÑģÑĤ Ð¾Ð»ÑĮÐºÐ¾
ĠÐ¿Ð¾ ÑĪ
Ð»Ñı Ð½
ĠÐ´ÑĢÑĥÐ³ Ð¸Ð¼
ÑĢ ÐµÑģÑĤ
ĠÑį ÑĦÑĦ
ĠÐ»ÑİÐ± Ð¸Ð¼
ĠÐ¿Ð¾ÑģÐ»ÐµÐ´ Ð½Ð¸Ð¹
ĠÐºÑĢÐ°Ñģ Ð¸Ð²
ĠÑģ ÐµÐ²ÐµÑĢ
a m
Ð¾Ð³ Ðµ
ĠÐ·Ð°Ðº ÑĢÑĭ
ÐµÑĪ Ð½Ð¾
ĠÐ¼ Ð°Ñı
ÑĤÐ¾ÑĢ Ð¾Ð²
Ñĥ ÑģÑĮ
ĠÑĢÐµÐ· ÐºÐ¾
ÑĢÑĥÐ³Ð¾ Ðµ
Ð¼ Ð°ÑĢ
Ð°Ð» Ñĥ
ĠÐ» ÐµÑģÑĤ
ĠÐº Ð»Ð¸
Ð± Ð¾Ð»
ĠÐ½Ð¾Ð² ÑĭÐµ
ĠÐŀ Ðº
ĠÑĢ Ð¸ÑģÐº
ĠÐ³ ÑĢÑĥÐ·
Ð³Ð»Ð¸ Ð¹
Ñĩ ÑĤÐ¾
ĠÐ²Ð¿ ÐµÑĩÐ°ÑĤ
ĠÐ²Ð¾Ð»Ð¾Ñģ Ñĭ
ĠÐ¼Ð¾ Ñİ
ĠÐĹ Ð°ÑĤÐµÐ¼
ĠÑĢÐ°Ð±Ð¾ÑĤ Ð°ÑĤÑĮ
Ð»Ñİ Ð±
ÑĥÑĤ ÑģÑı
i on
ĠÐľ Ð¾ÑĢ
ĠÐ° Ð¿ÑĢ
ĠÑĥÑģÐ¿ ÐµÑħ
Ñİ ÑģÑĮ
ĠÐĲ Ð»ÑĮ
ÐµÐ½ Ð½Ð¾ÑģÑĤÐ¸
ĠÐ¾ÑĤÐ½Ð¾ÑĪ ÐµÐ½Ð¸Ñı
Ð¸ÑĤÐµ ÑģÑĮ
ĠÐ¿ÑĢ Ð°Ð·Ð´
ĠÐ¿ÐµÑĢÐ² Ð¾Ð¹
ĠÑħÐ¾ÑĤ ÐµÐ»Ð°
ĠÐ¾ ÑĨÐµÐ½
1 3
ĠÐ²ÐµÑĢ Ð½ÑĥÐ»ÑģÑı
Ð¾Ð½ ÑĮ
Ð»ÐµÐ½ Ð½ÑĭÐ¹
ĠÐ¿ÑĢ Ð¾Ð¶
ĠÐ² ÑĢÐ°Ñĩ
ÑģÐ¾Ð» ÑİÑĤ
ĠÐ½ ÐµÑĢÐ²
ĠÐ¼ Ð¸Ð¼Ð¾
ĠÐ¼ ÐµÑĢÑĤÐ²
Ð½Ð¾Ð² ÑĢÐµÐ¼ÐµÐ½Ð½Ð¾
Ñı ÑĤÐ¾
Ñı Ð»Ð°ÑģÑĮ
Ð°Ð½ Ðº
ĠÐľ Ð°Ð¹
ÂłÐĿ Ð¾
ĠÐ¿Ð¾Ðº ÑĥÐ¿
Ð¸ÑĤÐµÐ»ÑĮ Ð½ÑĭÑħ
Ð¾ÑĤ Ð¾Ð³ÑĢÐ°ÑĦ
Ð°Ð» Ð¸Ð½
Ñİ ÑĪ
ĠÐ½ÐµÐºÐ¾ÑĤÐ¾ÑĢ ÑĭÐµ
ĠÑģÑĤ ÑĥÐ¿
ĠÐ· Ð°Ð¶
ĠÐ¿ÑĢÐµÐ´ Ñĥ
ĠÐ² Ð²ÐµÑĢ
ĠÐºÐ¾Ñģ Ð¼
ĠÐ½Ð¾Ð² ÑĭÐ¹
ĠÐ¿Ð¾ÑģÐ»ÐµÐ´ Ð½Ð¸Ðµ
Ð´Ð° Ñı
ĠÐ¿Ð¾ ÑħÐ¾Ð´
ĠÐ² ÑģÑĤÑĥÐ¿
Ð½ Ð°Ð¶Ð´Ñĭ
Ð°Ð´ Ðµ
ĠÐ´ÐµÐ½ ÐµÐ³
Ð» ÐµÐ½Ð¸Ñİ
Ġ19 8
ĠÐ´ÐµÐ¹ÑģÑĤÐ² Ð¸Ñı
ÑĮ ÐµÐ²
ĠÐ´ÐµÐº Ð°Ð±
ĠÐ¿ Ð°ÑĤ
ÑĪ Ð¸ÑĢ
Ġ 0
ĠÐ¿ÑĢÐµÐ·Ð¸Ð´ ÐµÐ½ÑĤ
ĠÐ½Ð°Ð²ÐµÑĢ Ð½Ð¾Ðµ
ĠÐ¿Ð¾ ÑģÐ¿
ĠÑĤÐµÑĢ Ð¿
ĠÐ¿Ð¾Ð¼Ð¾Ñī ÑĮ
ĠÐķ Ð¼Ñĥ
ĠÑĤÑĢÑĥ Ð±
Ð¾Ð´ Ðµ
ĠÑĢ ÐµÑĩÑĮ
ĠÐ²Ñĭ Ð²Ð¾Ð´
Ð¸Ð² Ð°ÑıÑģÑĮ
Ð´ Ð¾Ð²
ĠÐ· ÐµÐ»ÐµÐ½
ĠÐ½ÐµÐ¾Ð±ÑħÐ¾Ð´ Ð¸Ð¼Ð¾
ĠÐ²Ñģ ÐµÐ¼Ñĥ
Ð°Ñĩ ÐµÐ¼
Ð¸Ð» Ð¾Ñģ
ĠÐº ÐµÐ¼
ĠÑĥÑģÐ¿ ÐµÐ»
ĠÐ¿ÑĢÐµÐ² ÑĢÐ°ÑĤ
ĠÐ³Ð¾Ð²Ð¾ÑĢ ÑıÑĤ
ĠÐºÐ°Ð¿ Ð¸ÑĤÐ°Ð½
ĠÐ² Ð½ÑĥÑĤÑĢÐ¸
ĠÐ¡ Ð¡Ð¡Ðł
ÑĨ ÐµÐ»
ĠÐ³Ð»ÑıÐ´ Ñı
ĠÐ´ÑĢÑĥÐ³ Ð¾Ð³Ð¾
Ð¾Ð» Ðº
ĠÐ´Ð² Ð°Ð´ÑĨÐ°ÑĤÑĮ
ĠÑĤ Ñİ
ĠÐ³Ð¾ ÑĢÐ°Ð·
ÐµÐ» ÑģÑı
ĠÐ¸Ð¼ ÐµÐ½Ð¸
ĠÐ¿ÑĢÐ¸ Ð¶
ĠÐ²ÐµÐº Ð°
ÐµÐ¹ Ñģ
ĠÐ¸ Ð±Ð¾
ĠÐ¿Ð¾Ð´ Ð½
Ð¿ Ð¾Ñĩ
ĠÐ³ÑĢÑı Ð·
ĠÐ¾Ð± ÐµÑĢ
Ġ E
ĠÑĦ ÑĢÐ¾Ð½
Ð» Ð°Ð½Ð´
ĠÐ¿Ð¾ÑĢ ÑĤ
ĠÐ½ÐµÐ² Ð¾Ð·Ð¼Ð¾Ð¶Ð½Ð¾
ĠÐ¼Ð°Ð»ÑĮ Ñĩ
ĠÑģÐ¿ Ð¾ÑĢ
ĠÐ¼ÑĥÐ¶Ñĩ Ð¸Ð½Ð°
ĠÐ¿ÑĢ ÐµÑģÑģ
Ð¼ ÐµÑħ
ĠÑĩÐµÑĢ ÑĤ
ĠÐ³ ÑĢÑĥÐ´
Ġ W
ĠÐ¿Ð»Ð¾ ÑħÐ¾
ĠÑĢ Ð¾ÑĤ
ĠÐ½ÐµÐ½ Ð°Ð²
ĠÐ´ Ð¾Ñģ
ĠÐ² Ð°ÑĢÐ¸
ĠÐ° Ð»ÑĮ
ÑĤÐ¾ÑĢ Ñĭ
Ð¸ÑĤÐµÐ»ÑĮ Ð½ÑĭÐ¼
ĠÐĵÐ¾Ñģ Ð¿Ð¾Ð´
ĠÐ¶ÐµÐ½Ñī Ð¸Ð½
ĠÐ´ÑĥÑħ Ð¾Ð²
ĠÐ²Ð¾Ð·Ð¼Ð¾Ð¶ Ð½Ð¾ÑģÑĤÐ¸
t er
ĠÑĢÐ°Ñģ Ð¿ÑĢÐ¾ÑģÑĤÑĢÐ°Ð½
ÑģÑĤÐ²ÐµÐ½ Ð½ÑĭÐµ
Ð°Ðº Ñĥ
ĠÐ¿Ð¾Ð¼ Ð¾ÑĩÑĮ
ÐµÑĢ ÐµÐ½
ĠÐµ ÑģÑĤÐµ
ĠÑĤÑĢ ÐµÐ²
ĠÑģ Ð½Ð°ÑĩÐ°Ð»Ð°
ĠÐ±Ð¾Ð³ Ð°ÑĤ
ĠÐ½Ð°Ð¹ Ð´
Ð¸ÑĤÐµÐ»ÑĮ Ð½Ð¾Ð³Ð¾
ĠÐ·ÐµÐ¼ Ð»Ðµ
ÑĩÐ¸Ð² Ð¾
Ð¿ÑĢ ÐµÐ¶
ĠÑģ ÑĥÐ±
ĠÐ¿ÐµÑĢÐ² Ð¾Ð³Ð¾
Ð° ÑĪÐµ
Ñį Ð»
ĠÐ³Ð¾ÑĢÐ°Ð· Ð´Ð¾
ĠÐ¾Ð±ÑĢÐ°ÑĤ Ð½Ð¾
Ġ V
ĠÐ¢ Ð¾Ð¼
Ġ1 1
Ð¿ÑĢ Ð¸ÑıÑĤ
ĠÐ¼Ð¾ Ð¸Ñħ
ĠÐ¿ÑĢÐµÐ´ Ð»Ð°Ð³
ĠÐŃÑĤÐ¾ ÑĤ
ĠÐºÐ¾ÑĢ Ð¾Ð»ÐµÐ²
ÑĥÐ´ ÑĢ
Ð½Ñı ÐºÐ°
ĠÐ¾ÑĤÐ¼ ÐµÑĩ
ĠÐ¿Ð¾Ð¼Ð¾Ñī Ð¸
ĠÐĶ Ð°Ð²
ĠÐ²Ð¿ÐµÑĢ Ð²ÑĭÐµ
Ð¸ÑĨ Ð¸Ñı
ÑĥÑģÑĤ ÑĮ
ĠÑģÑĢÐ°Ð² Ð½
ĠÐ¼Ð½ Ð¾Ð¶Ðµ
ĠÑĥÐ´ ÐµÑĢÐ¶
Ð»Ñı ÑĤ
ĠÐ¸Ð³ ÑĢÐ°
ĠÐ¿ÑĢÐ¾Ð´Ð¾Ð»Ð¶ Ð°Ð»
ĠÐ¼Ð½Ð¾Ð³ Ð¸Ñħ
ĠÐ·Ð° ÑħÐ²Ð°ÑĤ
Ð¾Ð² ÑĭÐ¼
Âł Ð´
ĠÐĽ ÐµÐ½
Ð°ÑĢ Ñı
Ð°Ð¼ ÐµÑĤ
ĠÐ²ÐµÑī Ð¸
ĠÑģÑĭ Ð½
ĠÐ·Ð°Ñī Ð¸ÑĤ
ĠÐ²Ð¾Ð· Ð»Ðµ
ĠÐ²Ð· ÑıÑĤÑĮ
ĠÐ´ Ð¶
Ð¸Ñĩ Ð°
ĠÑģ Ð½Ð¸Ð¼
ĠÐ¾Ñģ ÑĥÑīÐµÑģÑĤÐ²
ĠÐ²Ñĭ Ð³Ð»ÑıÐ´
ĠÐŁ ÑĥÑĤ
ĠÑģÐ² ÑıÑĤ
ÑĥÐ¶ ÐµÐ»Ð¸
ĠÐĲ Ð´
ĠÑģÐ¾Ð»Ð´ Ð°ÑĤ
Ð» ÐµÐ½Ð¸Ð¹
ĠÐ¾Ð· Ð½Ð°Ñĩ
ĠÐ´ Ð°ÑĤÑĮ
ĠÐ¿Ð¾Ð¿ Ð°Ð´
ÑĭÐ² Ð°Ð»Ð°
ĠÐ·Ð°Ð² ÐµÑĢÑĪ
ÑĦ Ðµ
ĠÐ¡ Ð°Ð½
ÐµÑģ Ð°
ĠÐ»ÑİÐ± Ð¾Ð¹
ĠÐ¾ÑĤ Ð²ÐµÑĢ
Ñĩ ÐµÑĢÐ°
ĠÑĢ Ð¾Ð»ÑĮ
ÑĢÐµÐ´ Ð¸
ĠÐºÐ¾Ð½ ÑĨÐ¾Ð²
ĠÑģÐ¸Ð´ ÐµÐ»
ĠÐ¿ ÑĤ
ĠÑģÐµÐ½ÑĤ ÑıÐ±ÑĢÑı
ĠÐ½ÐµÐ¿ Ð¾Ð´
Ð°Ð¼ Ð¿
ĠÐ³Ð¾ÑĢÑı Ñĩ
Ð§ ÑĤÐ¾
Ð¸ÑĤ ÑĥÑĤ
ĠÑģÑĩÐ°ÑģÑĤ Ð»Ð¸Ð²
ĠÐºÐ¾Ð½ ÑģÑĤ
Ð½Ñı Ð»Ð¸
ĠÑĥÐ½Ð¸ Ð²ÐµÑĢÑģ
ĠÑĥÐ² Ð°Ð¶
Ġ201 5
ĠÐ½ ÐµÐ³
Ð½ÐµÐ·Ð°Ð¿ Ð½Ð¾
Ð½ Ð°Ð»
Ð¾ ÑĤÐ¾
ĠÐĴ Ð¿ÑĢÐ¾ÑĩÐµÐ¼
Ð´Ñĥ Ñī
ĠÐ±Ð»Ð¸Ð¶ Ð°Ð¹
ĠÐ´Ð¾Ðº Ð°Ð·
Ð¸ÑĤÐµÐ»ÑĮ Ð½Ð¾Ðµ
ĠÐºÐ¾Ð½ Ñĩ
ĠÐ± ÑĥÑĤ
ĠÑĢ ÑĥÑĩ
Ð¸Ð» Ñı
ĠÐ´Ð¾Ð³ Ð°Ð´
ĠÐ¼Ð°ÑĪ Ð¸Ð½Ñĭ
ĠÐ½ÐµÐ¸Ð· Ð²ÐµÑģÑĤ
Ð¼ Ð°ÑĤ
ĠÐ´ÑĥÐ¼ Ð°ÑĤÑĮ
ĠÐĺ Ñħ
ĠÐ½Ð° ÑģÑĤÑĢÐ¾
ĠÐ¸ÑģÐ¿ ÑĥÐ³
c h
ĠÐ±ÑĢ Ð°ÑĤÑĮ
ĠÐ» Ð¸ÑĤÐµÑĢ
Ð¾Ð»Ð¾Ð³ Ð¸Ð¸
ĠÑģ ÑĥÑħ
ĠÑģÑĤ ÑĥÐ´
u n
ĠÑħ ÑĢÐ°Ð½
ĠÐ´Ð² ÑĥÐ¼
ĠÐ²Ð¾Ð¿ÑĢÐ¾Ñģ Ñĭ
ĠÐ¶ Ð¸Ð»
ĠÑıÑģ Ð½Ð¾
ĠÐĲÐ»ÐµÐºÑģÐ°Ð½Ð´ ÑĢ
Ñĥ Ñı
ĠÐºÐ¾Ð¼Ð½ Ð°ÑĤÐµ
Ð¸Ð¼ Ð¾ÑģÑĤÑĮ
ĠÐ¿Ð¾ ÑĪÐµÐ»
ÑĨ Ð°Ð¼
ĠÑģÑĤÑĢ Ð°Ð´
ĠÑĪ ÑĥÑĤ
ÑĢÐ¸ÑģÑĤ Ð¸Ð°Ð½
ĠÐ¿Ð¾Ð³ Ð¾Ð²Ð¾ÑĢ
ĠÐ¿ÑĢÐ¸ ÐµÐ¼
ĠÐ°Ð² Ð¸
ĠÐ¼Ð°Ð³ Ð°Ð·
ĠÐ½Ð°Ñĩ Ð°Ð»Ðµ
ĠÐ½Ð°Ð¿ Ð°Ð´
ĠÐ± Ð°ÑĤ
ÐµÑĢ ÐµÐ¶
Ð½ Ð°Ð´ÑĨÐ°ÑĤÑĮ
ĠÑģÐ¾ÑģÑĤÐ¾Ñı Ð½Ð¸Ð¸
ĠÑĢ ÐµÐ¿
ĠÐ¾ ÑģÐ»
ĠÐ±ÐµÐ·Ð¾Ð¿Ð°Ñģ Ð½Ð¾ÑģÑĤÐ¸
Ñĭ Ð»Ð°
ĠÐº Ð»ÑİÑĩ
ĠÐ½ ÐµÑĢ
ĠÐºÐ½Ñı Ð·
i d
Ðº Ð°Ðº
Ð¾Ð· Ð°
ĠÐºÐ°Ðº ÑĥÑİ
ĠÐ²Ñĭ Ð³
ĠÐ²ÐµÑĤ ÐµÑĢ
ĠÐ½ÐµÑģ Ð¼Ð¾ÑĤÑĢÑı
ĠÑģ Ð¸Ð»Ð°
ĠÐ¼Ð¸Ð½ÑĥÑĤ Ñĥ
ĠÐºÐ°Ð¿ Ð¸ÑĤ
ÐĶ Ð¶
ĠÐ¿Ð¾ÑĢ Ð°Ð¶
ĠÑĢ ÐµÐ¼
Ð¸ÑĢÑĥ ÐµÑĤ
ĠÐ¿Ð¾Ð´ Ð°ÑĢ
ÐºÑĥ ÑĢ
ÐµÐ´ Ð°
ĠÐ¿ Ð°Ð½
ĠÐ´ ÑĢÑĥÐ³Ð¾Ðµ
ĠÐ° ÑĤ
ĠÐ°Ð½ Ð³
Ñĥ ÐµÐ¼
ĠÑĢÐµÐ² Ð¾Ð»Ñİ
ĠÐ¿ Ð¸ÑĢ
ĠÐ²Ñĭ Ð½Ñĥ
ĠÑĤÑĢ Ð°Ð´
ĠÐĳ Ð¾Ð»ÑĮÑĪ
Ð°Ð²ÑĪ Ð¸Ðµ
Ġ a
Ðº Ð¾ÑĢ
Ð¾Ð² ÑĭÐ¹
ĠÐ¾Ð± ÑĢ
Âł Ð¼
Ð¾Ð» Ð¸
ĠÐ¾ÐºÐ°Ð· Ð°Ð»Ð¾ÑģÑĮ
ĠÐ´ÑĢÑĥÐ· ÑĮÑı
ÐµÐ½Ð¸ Ð²
ĠÐĲÐ½ Ð´
ĠÐ» ÑĮ
ĠÐ¾Ñĩ ÐµÐ²Ð¸Ð´
âĢ¦ Â»
ĠÐ½Ð°Ñĩ Ð°Ð»Ð¸
ĠÑĥ ÑģÑĤÐ°Ð²
ĠÑģ ÑĢ
ĠÐł Ð°Ñģ
ĠÑģÐ¸ÑģÑĤÐµÐ¼ Ñĭ
Ð¸Ð»Ð¾Ñģ Ð¾ÑĦ
o s
ĠÐºÐ²Ð°ÑĢÑĤ Ð¸ÑĢ
ĠÐ½ÐµÑģÐºÐ¾Ð»ÑĮ ÐºÐ¸Ñħ
Ð¸Ð± Ð¾Ð»ÐµÐµ
ĠÑĩÐ°Ñģ Ð°
ĠÑģÐ» ÐµÐ³
Ð¸ÑĤ Ð°Ð¹
ĠÐ¿Ð¾Ð¼ Ð½
ÑĥÐ¼ Ð°Ð½
ĠÐ¼ Ð¸Ð³
Ð° ÑĨÐ¸Ð¸
ĠÐ¿Ð»ÐµÑĩ Ð°Ð¼Ð¸
ĠÐ¿Ð¾Ñģ ÐµÐ»
ĠÑĪ ÐµÑģÑĤÑĮ
ĠÑģ ÐµÑĤ
ĠÐľ Ð°Ð»
ĠÑĤÐ°Ðº Ð¾Ð¼
ĠÐ³ÑĢÑĥ Ð´Ð¸
ĠÐ¿Ð¾Ð´ Ñģ
ĠÐºÑĢÐ¾Ð² Ð¸
ĠÐł Ð¾Ð´
ĠÐľÐ¾ÑģÐº Ð²Ðµ
ĠÐ·Ð°Ð¿ Ð°Ñħ
ÑĨ ÐµÐ½ÑĤ
ĠÐ¿ÐµÑĢ ÐµÐ½
Ġ b
ĠÐ³Ð¾Ð»Ð¾Ð² Ñĭ
ĠÐĿÐ°Ð´ Ð¾
ĠÑĤ Ð°Ð±
ĠÐ´ ÑĭÐ¼
ĠÐ¡Ð¾Ð² ÐµÑĤ
Ð¸Ð½ Ð¾Ð¼
ĠÐ¼Ð¾Ð³ Ð»Ð¾
ÐµÐº Ñģ
ĠÑĢÐµÐ± ÑıÑĤ
ĠÐ¾Ð±ÑģÑĤ Ð¾ÑıÑĤÐµÐ»ÑĮ
ÐµÐ¹ ÑģÑı
ĠÐ¿ÑĢÐ°ÐºÑĤ Ð¸ÑĩÐµÑģÐºÐ¸
Ð¸ÑĩÐµÑģÐº ÑĥÑİ
ĠÐ¼ÐµÑĤ Ð°Ð»
Ðĺ Ð·
ĠÐ¾ÑģÑĤ Ð°Ð»Ð¾ÑģÑĮ
ĠÐ¸Ð¼ ÐµÐ»
ĠÐ¿ÐµÑĢÐµ ÑħÐ¾Ð´
ĠÑĥÐ»Ð¸ ÑĨÐµ
ĠÐ·Ð°Ð¿ Ð°Ð´
ÐµÑħ Ð°Ð»
u r
ĠÑģÑĤ ÐµÐ½Ñĭ
Ð½Ñĥ Ð»Ð¾
ĠÐ½Ð¾Ñĩ ÑĮÑİ
ĠÐµ Ñħ
Ð¾Ðº Ð¸
ĠÐ¾ÑģÑĤÑĢ Ð¾Ð²
Ð½Ð¸Ðº Ð°Ð¼
ĠÐ½Ð° Ñħ
ĠÐ¿Ð¾Ð» Ñı
Ð¸Ð² Ð°Ð»ÑģÑı
Ð¸Ð» Ð»Ð¸
Ð¸ÑĤ ÐµÐ»ÐµÐ¼
ĠÐº Ð¸Ð»
ĠÐ¿Ð¾Ð»ÑĥÑĩ Ð¸ÑĤÑĮ
ĠÑģÐ»ÐµÐ³ ÐºÐ°
ĠÐĳ ÑĥÐ´
Ð¼ Ð¸ÑĢ
ĠÐ¸Ð¼ Ð¿ÐµÑĢ
ĠÑĤÑĢÑĥÐ´ Ð½Ð¾
Ð°ÑĤ ÐµÑĢ
Ð¸ÑĤ ÐµÑĤÐ°
ĠÐ½ÐµÑģ ÑĩÐ°ÑģÑĤ
ĠÐ²Ñĭ Ð´ÐµÐ»
ĠÐĿ Ð¸
Ð°Ðº Ð¾Ð½
ÑĢ ÐµÑģ
ĠÐ·Ð°Ð¿ ÑĢ
ĠÐ· Ð°Ð±Ð¾ÑĤ
ĠÐ¸Ð· Ð²
ĠÐ²Ð· ÑĢÑĭÐ²
ÂłÐ¢ Ð°Ðº
Ð¿ Ð¾Ð½
ĠÐ¾Ð³Ð¾ Ð½ÑĮ
ĠÐ¶ Ð°ÑĢ
Ð½Ð¾ÑģÑĤ ÑĢÐ°Ð½
âĢ ľ
Ð°Ðº Ð¾Ð½ÐµÑĨ
ĠÑģÐ½ ÐµÐ³
Ġo f
Ðĺ Ð½
Ð¼ Ð¿
ĠÐ» ÐµÐ²
ĠÐ´ Ð½Ð¸
ĠÑĢÐ°Ð·Ð² Ðµ
Ð°ÑĢ Ñħ
ĠÐ¢ ÑĥÑĤ
Ð¸ÑĢÐ¾Ð² Ð°Ð»Ð¸
ĠÐĵÐµÑĢ Ð¼
ÐµÐ´ Ð»ÐµÐ½Ð½Ð¾
ĠÐ¿ÑĢÐ¾ ÐµÐºÑĤ
ĠÐ°ÑĢ ÑĤ
Ð¿ÑĢ Ð¾Ñģ
ĠÐ»Ð¸ÑĨ Ðµ
ĠÐ¼Ð¾ÑĢ Ðµ
Ð¸ÑĤ Ð¾Ð²
ĠÐ°Ð± ÑģÐ¾Ð»ÑİÑĤ
ĠÐ± Ñİ
ĠÐ½Ð¸ÐºÐ°Ðº Ð¾Ð³Ð¾
ĠÐ¿ÑĢÐ¸ Ð¾Ð±ÑĢ
ĠÑĢ Ð°Ðº
ĠÐĽ Ðµ
Ð°Ð½ Ð½Ð¾Ðµ
ĠÑģÐº Ð»Ð°Ð´
ĠÐĶ ÑĥÐ¼
ĠÐ¿Ð¾Ð´ Ð¿Ð¸Ñģ
ĠÐ´ Ð¾Ñĩ
ĠÐĶ Ð¼
Ð¿ÑĢÐ¸Ð½ Ð¸Ð¼
Ð¸Ð½ Ñı
ÐµÐº Ñĥ
ĠÑģÐ°Ð¼ ÑĭÐµ
ĠÑĤÐµ Ð¾ÑĢ
ĠÐºÐ»Ð°Ñģ Ñģ
ÑģÐº Ð°Ð·
ĠÐ³Ð»ÑĥÐ± Ð¾Ðº
Ð¾ÑĢ Ñĥ
Ä Ĳ
__ __
ÑĦ Ð°
ĠÑĢÐ°Ð· ÑĢÑĥÑĪ
ĠÑĦ Ð¾ÑĤÐ¾Ð³ÑĢÐ°ÑĦ
ĠÑĪ ÐµÑģÑĤ
ĠÐ³ Ð°Ð»
ĠÐ¼Ð¾Ð¶ÐµÑĤ Ðµ
Ġ19 6
Ġ201 4
ĠÐºÐ¾ ÑĪ
ĠÐ¿Ð¾ÑĢÑıÐ´ ÐºÐµ
ĠÐ¼ ÑĥÑĩ
Ð² Ð¾Ð¹
Ð»Ñı Ñı
. ).
Ð¾Ð² Ð°Ñı
ĠÑģÐ² ÐµÑĤÐµ
ĠÑģÑĤÑĢÐ°Ð½ Ðµ
ĠÐ¾ÑĤÑĩ Ð°Ñı
ĠÐ»ÑİÐ± Ð²Ð¸
ĠÐŀ Ð´Ð¸Ð½
ÑģÑĤÐ² Ð¸ÐµÐ¼
ĠÐ²Ð²ÐµÑĢ Ñħ
ĠÐłÐ¾ÑģÑģ Ð¸Ñı
ĠÑĢÐ°ÑģÑģ Ð¼Ð°ÑĤÑĢ
ĠÐŁÑĢ Ð¾ÑģÑĤÐ¾
ĠÐ½Ð°Ð¿ÑĢÑı Ð¶
ĠÑĥÐ²Ð¸Ð´ ÐµÑĤÑĮ
ĠÐ± Ð°ÑĪ
ĠÐ¿Ð¾Ð» ÐµÐ·
ĠÐ²Ñĭ ÑıÑģÐ½
ĠÐ´Ð°Ð½ Ð½ÑĭÐ¼
ĠÐĲÐ½ Ð´ÑĢ
Ð½Ð¸Ðº Ðµ
ĠÐ¾ÑĢÑĥÐ¶ Ð¸Ðµ
Ñį Ðº
ĠÑĥÑĤÑĢ Ð¾Ð¼
ĠÐ¿Ð¾ Ð½ÑıÐ»Ð°
ĠÐ² Ð»Ð¸Ñı
ĠÑĢ Ð°Ð¼
Ð ¬
ĠÐ¡ Ð»
ĠÑģÐµÐ¼ ÑĮ
ĠÐ· Ð²ÐµÑĢ
ĠÑĨ ÐµÐ¿
ĠÐ¼ Ð°Ð¼
Ð°ÑİÑī ÐµÐ³Ð¾
ĠÐ¾Ð´ Ð½Ð¾Ð²ÑĢÐµÐ¼ÐµÐ½Ð½Ð¾
ĠÐĶ ÐµÐ²
ĠÐ°Ð´ Ð¼Ð¸Ð½Ð¸ÑģÑĤ
ĠÐ¿ÑĢÐ¸Ð² Ð¾Ð´
Ð°Ð¶ Ð°
ĠÑģÐ¾Ð± ÑĢ
en t
ĠÑĤ Ñı
Ġ19 7
Ð¸ÑĨ Ð¸Ð¾Ð½
ÑİÑī Ð¸Ðµ
ĠÐ²Ð· Ð°
ĠÐ³ÑĥÐ± Ñĭ
Ðŀ Ð´
ĠÐºÐ¾ÑĤÐ¾ÑĢ Ð¾Ð¼Ñĥ
ĠÑģÐ¿ Ð¾ÑĢÑĤ
ĠÐ°Ð³ ÐµÐ½ÑĤ
ĠÑĩÐµÑĤÑĭ ÑĢ
ĠÐ¾Ð±Ñī ÐµÐ¼
ĠÐļ Ð¸ÑĢ
Ð² ÐµÐ¹
ĠÐ½Ð¾Ñĩ Ð¸
ĠÐ½Ð¸Ðº Ð¾Ð³Ð¾
ĠÐ¿Ð¾Ð´ ÑĢÐ¾Ð±
ĠÐ² Ð»Ð°ÑģÑĤ
1 1
ĠÐ½Ð¾Ð² Ð¾Ð³Ð¾
ĠÐ·Ð½Ð° ÐµÑĤÐµ
ĠÐ¿ÑĢÐµÐ´ Ð¾ÑģÑĤÐ°Ð²
ĠÑĤÐ°Ðº ÑĥÑİ
ĠÐ¾Ð± Ðµ
Ð¾ÑĢÐ¼ Ð¾ÑĤ
Ð¾ ÐµÐ²
ĠÐºÐ°Ðº Ð¸Ñħ
ĠÐ¸Ð¼ ÐµÑĤÑĮ
ÑıÑī Ð¸Ð¹
ÑĮ ÑĤÐµ
ĠÐ³Ð¾Ð»Ð¾Ñģ Ð¾Ð¼
ĠÑĩÑĤ Ð¾Ð±
ĠÐ°Ð² ÑĤ
ÑĤÐ¾ Ðµ
ĠÑģÐº ÑĢÑĭÐ²
ÐµÐº ÑĤÐ°
ĠÐ¾Ð± Ð»
ĠÐ§ÐµÑĢ ÐµÐ·
Ð¾Ð±Ñĭ Ñĩ
q u
ĠÐŁÑĢÐ°Ð² Ð´Ð°
ĠÐ°Ð²Ð³ÑĥÑģÑĤ Ð°
ĠÑĥÑģ Ð¼ÐµÑħ
ĠÐ²Ð¾Ð´ Ñĥ
ĠÐĵ Ð´Ðµ
ÐµÐ½ Ð·
Ð¸Ð· Ð¼Ð°
ÐµÐ»Ð¸ ÑģÑĮ
Ð°ÑİÑī Ð¸Ð¼
ÑĨ Ð¾Ð¼
ĠÐºÐ¾Ð¼ Ð¼Ñĥ
ĠÐºÑĢ ÑĭÑĪ
Ð½ Ð¾Ð´
Ð°Ð¹ ÑģÑı
ĠÑĥÐ·Ð½ Ð°ÑĤÑĮ
Ð± Ð¾Ð¹
ĠÑıÐ· ÑĭÐº
Ð¼ Ð¾Ð²
Ð¾Ð»ÑĮ Ð½Ð¾
ÑĨ Ð°ÑĢ
ĠÐ²ÐµÑĩ ÐµÑĢÐ¾Ð¼
ĠÐ·Ð°Ð² ÑĤÑĢÐ°
Ð¸Ð¹ ÑģÐºÐ¾Ð¹
ĠÐ½ÐµÐ¾Ð¶Ð¸Ð´ Ð°Ð½Ð½Ð¾
ÐĴ ÑģÐµ
ÂłÐŁ ÑĢ
ĠÑĢÐ°Ð¹ Ð¾Ð½Ðµ
ÐĶ Ð°
ĠÐµ Ð¶
Ð°Ð» Ð¾Ð¼
ĠÑĩÐµÐ»Ð¾Ð²ÐµÐº Ð¾Ð¼
ĠÐ²Ð¸Ð´ ÐµÐ»Ð°
ÑĢ ÐµÐ¶Ð´
Ð» Ð¾Ð¿
ĠÑģÐ¿ Ð¸Ð½Ð¾Ð¹
ĠÐ²Ñĭ ÑĪ
ĠÐŀ Ð¿
Ð°Ð¶ Ñĥ
ĠÐĽ Ñĥ
ÑģÐº Ð¾Ð²
ĠÐ¸Ð½ÑĦÐ¾ÑĢÐ¼Ð° ÑĨÐ¸Ð¸
Ð¾Ð» Ðµ
ĠÐ¼ Ð¾ÑģÑĤ
ĠÐŃ Ð½
ĠÐ°Ð½ Ð³Ð»Ð¸Ð¹
Ð¾Ð· Ð½Ð°Ñĩ
ĠÐ² Ð¸Ð½Ð¾Ð²
ÐµÐ½ Ðµ
ĠÑģ Ð´ÐµÑĢÐ¶
ĠÐ¿Ð» Ð°ÑĤÑĮ
ÐµÐ¶ Ð°Ð»
ĠÐŁ Ð¾ÐºÐ°
ÂłÐĴ Ð¾ÑĤ
ĠÐ´ÐµÑĤ Ð¸
ĠÑģ ÑĢÐ°Ð¶
ĠÐ¼Ð°ÑĤ ÐµÑĢ
Ð´Ðµ ÑģÑıÑĤ
ĠÐ± Ð¸Ð·Ð½ÐµÑģ
ĠÐ¿Ð¾Ð´ Ðº
ĠÑģÐ²Ð¸Ð´ÐµÑĤ ÐµÐ»ÑĮ
ÐµÐ· Ð´Ðµ
Ð°Ð½ ÑĤÐ°
ĠÐºÑĢÐ°Ð¹ Ð½ÐµÐ¹
ÐĲ Ð½
ĠÑĢÐ°Ð·ÑĢ Ð°Ð±Ð¾ÑĤ
ĠÑĢ ÐµÐ»Ð¸
ÑĢÐ° ÑĨÐ¸Ð¸
ĠÐĺÐ² Ð°Ð½Ð¾Ð²
ĠÐ¿ÑĢÐ¾ Ñī
ÐµÐ½ Ð½Ð¾ÑģÑĤÑĮ
ĠÐ¿ÑĢÐ¾Ð±Ð»ÐµÐ¼ Ñĭ
Ðķ ÑģÐ»Ð¸
ĠÐºÑĢÐ¾Ð² ÑĮ
ĠÑĥÑĩÐ°ÑģÑĤ Ð¸Ðµ
ĠÐ» Ð°Ð³
ĠÐ²ÑģÐµÐ¼ Ð¸
Ġ ,
Ð¸Ð´ ÑĨ
ĠÑĤÑĢÐ°Ð½ ÑģÐ¿
ĠÑģ ÐµÐ»ÑĮ
ÑĭÐ² Ð°ÐµÑĤÑģÑı
ĠÐ½Ð¾Ð² ÑĭÑħ
Ġ l
ĠÐºÑĢ Ð¸Ñĩ
ĠÐ³Ð¾ÑģÑĥÐ´Ð°ÑĢ ÑģÑĤÐ²Ð°
ĠÐ³Ð¾Ð²Ð¾ÑĢ Ð¸Ð»Ð¸
ĠÑĢÐµÐ³ Ð¸Ð¾Ð½
Ð¼ ÑĥÑĤ
Ð½Ñı Ð²
ĠÐ¿ ÑĥÐ±Ð»Ð¸
ĠÐ¿ÑĢÐµÐ´ Ð¿Ð¾Ð»Ð¾Ð¶
ĠÐ¿Ð¾Ð´Ð¾ÑĪ ÐµÐ»
ĠÐĴÐ»Ð°Ð´Ð¸Ð¼ Ð¸ÑĢ
ĠÐ¿Ð¾Ð» ÐºÐ¾Ð²
ĠÐ²Ð¾ÑģÐº Ð»Ð¸Ðº
ĠÐ¾Ð± Ð°
Ð°Ð½ Ð½Ð°Ñı
ĠÐ´ÑĥÑĪ Ð¸
Ðĵ Ð»Ð°Ð²Ð°
ĠÐ¿ÑĥÑĤ ÐµÑĪÐµ
Ð¾Ð¹ Ð´ÐµÑĤ
Ð¼ Ð°Ñħ
ÑĤÐ¾ÑĢ Ð¾Ð¼
ĠÑĢÐ°Ð±Ð¾ÑĤ Ðµ
Ð¾ Ð¸ÑĤ
ĠÐ³Ð¾Ð²Ð¾ÑĢ Ñİ
ĠÐ¼ÐµÑħ Ð°Ð½
ĠÑĢÐ°ÑģÐ¿ Ð¾ÑĢ
ĠÐ¼Ð°ÑĪ Ð¸Ð½
ĠÑģÐ¼Ð¾ÑĤÑĢ ÐµÑĤÑĮ
Ð»ÐµÐ½ Ð¾
Ð´ ÐµÐ¼
Ñ £
Ð¾Ð³ Ð»Ð°Ñģ
Ð°Ð² Ð¸Ñģ
ĠÐ°ÑĢ ÐµÑģÑĤ
ĠÑģÐ»ÑĭÑĪ Ð°Ð»
ĠÐ²Ñĭ Ð¶
ĠÐ¼ÐµÐ¶Ð´Ñĥ Ð½Ð°ÑĢÐ¾Ð´
ĠÐ´Ð¾ÑĢÐ¾Ð³ Ðµ
ĠÐºÐ¾Ð»Ð¸ÑĩÐµ ÑģÑĤÐ²Ð¾
Ð½ Ð°Ð·
Ð¸Ð² Ð°Ð»Ð¸ÑģÑĮ
ĠÐ´Ð°Ð»ÑĮ Ð½ÐµÐ¹
ĠÐ¸Ð¼Ð¿ ÐµÑĢÐ°
ĠÐ¿Ð¾Ð´ ÑĬ
Ð¡ Ð¿
ĠÐ²ÑĭÐ· Ð²
ĠÐ¸ Ð½Ð¾ÑģÑĤÑĢÐ°Ð½
ĠÑģÐ¾Ð¿ ÑĢÐ¾Ð²
ĠÐ·ÑĢ ÐµÐ½Ð¸Ñı
ÐµÑģÐ¿ ÑĥÐ±Ð»Ð¸
ĠÐ»Ð¸ÑĨ Ð¾Ð¼
ĠÑģÐµÑĢ ÐµÐ±
Ð· Ð´
ĠÐ¿ÐµÑĢÐ² ÑĭÐ¼
ĠÐ²ÑĭÐ½Ñĥ Ð¶
ÐµÑĢÐº Ð²Ð¸
ĠÐ¾Ð±ÑıÐ· Ð°Ð½
ĠÐº ÑĢÑĥÐ¶
ĠÐ¿ÑĢÐ¸Ð² Ð»ÐµÐº
ĠÐ¾ÐºÑĤ ÑıÐ±ÑĢÑı
ÑģÐº Ðµ
ĠÑģÐ¸ÑĤÑĥÐ° ÑĨÐ¸Ð¸
ĠÐ³Ð¾Ð» ÑĥÐ±
ĠÐ± Ð¾Ð¼
i m
Ð°Ð» Ð¾Ð³
Ð¾Ñģ Ð½Ð¾Ð²
ĠÐ¡ÐµÑĢÐ³ ÐµÐ¹
ĠâĢ ŀ
ĠÐ¿ÑĢÐ¸Ð± Ð»Ð¸Ð¶
ĠÑĢÐ°ÑģÑģÐºÐ°Ð· Ð°Ð»
ĠÐ¼Ð¾Ð¶ ÐµÐ¼
ĠÑĤ Ñī
ÑİÑī Ð¸Ñħ
ĠÐ¾ Ð²
Ð´Ð° ÐµÑĤÑģÑı
ĠÐ¿ÑĢÐ¸Ñĩ Ð¸Ð½
ĠÐ³ Ð¸Ð±
ĠÐ¾Ðº Ð½Ð°
ĠÐ¼Ð¾Ð¶ ÐµÑĪÑĮ
ĠÑĩ ÐµÐ¼Ñĥ
ĠÑģÑĭ Ð½Ð°
ĠÐº ÑĥÑģ
ÐµÐ½ Ñĥ
ĠÐ¿ÑĢÐµÐ´ Ð¿Ð¾Ñĩ
Ð´ ÑĢÑĥÐ³
Ð¾Ðº Ðµ
Ðº Ð°Ð·
ĠÐ»ÑİÐ±Ð¾Ð² ÑĮ
Ð¸ ÑīÐµ
ÐµÑĢ Ð¾
Ð¾ÑĤ Ðµ
Ð» Ð°Ð¶
ĠÐ¢ ÑĢ
ĠÑĢÑĭ Ð½
ĠÐ¿Ð¾Ñħ Ð¾Ð¶Ðµ
ĠÐºÐ½Ð¸ Ð³Ð¸
ĠÐ´ ÑĭÑħ
ĠÐ²Ñĭ Ð´ÐµÑĢÐ¶
Ð½Ð¾ ÑĢ
ĠÐĺ Ð²Ð°Ð½
ĠÑģÑĤÐ°Ð½Ð¾Ð² Ð¸ÑĤÑģÑı
ĠÑģ ÑĢÐ¾Ðº
ĠÐ´Ð¾Ð±Ð°Ð² Ð¸Ð»
Ð°Ñģ Ð¸Ð±Ð¾
ĠÐ¿ÑĢÐ¸Ð¼ ÐµÐ½
ÑĢ Ð¾ÑĢ
ĠÐŀ ÑģÑĤ
Ð» ÑĭÐ¹
ĠÐ¾ÑĢÐ³Ð°Ð½Ð¸Ð·Ð° ÑĨÐ¸Ð¸
Ñģ Ð¾Ð¼
ĠÐ·Ð² ÑĥÑĩ
ĠÑĤÑĢ Ð¸Ð´ÑĨ
ĠÐĲ ÑĦ
ĠÐŁ Ð¾Ð¼
ĠÐ¼ ÑıÑģ
ĠÐ¼Ð¾Ð»Ð¾Ð´ Ð¾Ð¹
ĠÐ· Ð¸Ð¼
ĠÑģÑĢÐµÐ´ ÑģÑĤÐ²
ĠÑıÐ½Ð²Ð°ÑĢ Ñı
ĠÐ¸Ð¼ ÐµÐ½
ĠÐ¾ÑĤ ÑģÑĤÑĥÐ¿
Ð»Ñı ÑİÑĤ
ĠÑģÐ² ÐµÐ¶
Ð½Ð¸ ÑģÑĤ
ĠÑģÐ¼ ÐµÑĪ
ĠÑģ ÑĨÐµÐ½
ĠÑĥÑĩ ÐµÐ½
ĠÐ¥ ÑĢÐ¸ÑģÑĤ
ĠÐ½Ð° ÑģÐ»ÐµÐ´
Ð¾Ð¼ Ð°
ĠÑĢ Ð°
ĠÐł ÑĥÑģ
ĠÐ°Ð½ ÑĤ
Ð°Ð´ ÐµÐ¼
00 0
ĠÑĥÑĩ Ð°
Ð°ÑĢ Ðµ
ĠÐ¼Ð°Ð»ÑĮ ÑĩÐ¸Ðº
ĠÐ¾ Ð¿ÑĢÐ°Ð²
ĠÐ¶ ÐµÑĢÑĤÐ²
Ð¸ÑģÑĤ Ñĭ
ĠÐ¶Ð´ Ð°ÑĤÑĮ
ĠÐ±ÑĭÐ² Ð°ÐµÑĤ
ÑĢÐ¾Ð¿ ÐµÐ¹
Ðµ ÐµÑĤ
ĠÐ¼ Ð»Ð°Ð´
ĠÐ±ÐµÑģ ÐµÐ´
ĠÑĥÑģÐ¿ Ð¾ÐºÐ¾
ĠÐ² Ð¸Ð¶Ñĥ
ĠÑĢÐ°Ð· Ð²ÐµÑĢ
Ð¿ÑĢÐµÐ¶ Ð½ÐµÐ¼Ñĥ
ĠÐĶ Ð¾Ð½
Ð¸Ð² Ð°Ñİ
ÑģÑĤÑĢ ÐµÑĩ
ĠÐ¸Ñİ Ð»Ñı
ĠÑĤÐ¾Ð» Ð¿
ĠÐ½ ÐµÐ»
ĠÑĢÐ¾Ð´ Ð°
Ð ®
Ð»ÐµÑĤ Ð²Ð¾ÑĢ
ĠÐĳ ÐµÐ·
Ð¾Ñĩ Ð½Ð¾Ð¹
ĠÐºÐ°Ð¶Ð´ Ð¾Ð³Ð¾
ĠÐ¾Ð± Ð¸Ð´
ĠÐ¼ÑĥÐ· Ñĭ
ĠÑĢÐ°Ð·Ð²Ð¸ÑĤ Ð¸Ñı
ĠÐºÐ°Ðº Ð¾Ð³Ð¾
Ð°Ð½ Ð³
ĠÑĢÐ°Ð· Ð½ÑĭÑħ
ĠÐ¾ÐºÐ°Ð· Ð°Ð»Ð°ÑģÑĮ
ĠÐ´ÑĢ Ð¾Ð¶
ĠÐ³ÑĢ Ð¾Ð·
ĠÑĤÐ² Ð¾Ð¹
Ñĥ ÑĢÑĥ
ĠÐ° ÑĤÐ°Ðº
ĠÑħÐ» Ð¾Ð¿
ĠÐ± ÐµÑģÐº
ĠÑĢÐ°Ð±Ð¾ÑĤ Ð°
ÑĪ Ð°
ĠÐ²ÑģÐ¿ Ð¾Ð¼Ð¸Ð½
ÑģÑĤÐ²ÐµÐ½ Ð½Ð°Ñı
ĠÐ» Ð¸Ð´
ĠÐ¿ÑĢÐ¾Ð¸Ð· Ð²ÐµÐ´
ĠÑĦ ÑĥÐ½Ðº
ĠÐ²ÐµÑĢ ÑĤ
ĠÑĢ Ð¸Ñģ
ĠÐºÐ¾Ð¼ Ð¸ÑģÑģ
Ð¾Ñħ Ð¾ÑĤ
ĠÑģÐµÐ¼ ÐµÐ¹
ĠÐĴ Ð¾Ð»
Ð² ÐµÐ»
2 5
Ð¾ÑĢ Ð³
ĠÐ¿ Ð°ÑģÑģ
ÑĢÐ°Ð» Ñı
Ð¸Ð½ ÐºÐ¸
ĠÐľ Ð°ÑĤ
ĠÐĵ Ð»Ð°Ð²
Ñı Ð»Ð¸ÑģÑĮ
ĠÐ¿ÑĭÑĤ Ð°Ð»ÑģÑı
Ð¸ÑĢ Ð°ÑĤÑĮ
ĠÑĦ Ð¸Ð»Ð¾ÑģÐ¾ÑĦ
Ð¢ Ðŀ
ĠÑħÐ» ÐµÐ±
ĠÐ¿ÑĢÐ¸ Ð³Ð¾ÑĤÐ¾Ð²
ĠÑħ ÑĢÐ°Ð¼
ĠÐ½Ð¾Ð² Ð¾Ð¹
ĠÑĢÐ°Ð·Ð³ Ð¾Ð²Ð°ÑĢ
ÐŁ Ð¾Ð´
Ð¾Ð½Ð¸ Ð¸
ĠÐ¿ÑĢÐ¸Ð² ÑĭÑĩ
ĠÐ±ÑĥÐº Ð²
ĠÐ¾Ðº ÑĢÑĥÐ³
ĠÑģÐ¾ ÑİÐ·
ĠÐ¿ÑĢÐ¸Ð¼ ÐµÑĢÐ½Ð¾
ĠÐĲ Ðº
ĠÐºÑĢ Ð¸ÑĤ
Ñĭ Ð½
ÑĤÐ° Ñī
ĠÐ²Ñĭ ÑģÑĤÐ°Ð²
ĠÐ¼Ñĭ ÑĪ
ĠÐ¿ÑĢÐ¸Ð² ÑĭÐº
Ð¾ ÐµÐ´Ð¸Ð½
ĠÐ¿ÑĢÐµÐºÑĢÐ°Ñģ Ð½Ð¾
ĠÑģ ÑĦ
ĠÐ° Ð´ÑĢ
ĠÐ´Ð¸Ð² Ð¸Ð·
Ì ģ
ĠÐ¿Ð¾Ð» Ðµ
ĠÑģÐ² ÑıÑī
ĠÐ¼Ð¾ÑĢ Ñı
ĠÐ´Ð²Ð¸Ð¶ ÐµÐ½Ð¸Ñı
ĠÑĪ Ð°ÑĢ
ĠÑĪÑĤ Ð°Ð±
ĠÑģÑĤÐ¾ ÑıÐ»Ð°
ĠÐ´ Ð°ÑĢ
ĠÑģÐ¼ ÐµÑĢÑĤ
3 0
ĠÐ¿Ð°ÑĢÑĤ Ð¸Ð¸
Ñĭ ÑĤÑĮ
Ð»Ð°Ð³ Ð¾Ð´Ð°ÑĢ
Ð°Ð± Ð°ÑĤ
ÑĥÐ½ Ð´
ĠÐ¿ÑĢÐµÐ´ Ð¿Ð¾Ð»Ð°Ð³
ĠÑģÐ¾Ð³ Ð»Ð°ÑĪ
ĠÑģÐ¾ ÐµÐ´Ð¸Ð½
ĠÑĤÐ¾Ð» ÑģÑĤ
ĠÐ¿ÑĢÐ¸Ð´ ÑĥÐ¼
ĠÐº Ð¾ÑĤ
Ð°ÑİÑī Ð°Ñı
ĠÐ½Ð°ÑģÑĤ Ð¾Ñı
ĠÐ´Ð¾Ð¿ Ð¾Ð»Ð½
ĠÐ½ÐµÐ± Ð¾
ĠÐ¼Ð°ÑĪ Ð¸Ð½Ñĥ
ĠÐľ Ð¸ÑĢ
ĠÑĥÐ¿ÑĢÐ°Ð² Ð»ÐµÐ½Ð¸Ñı
Ð¾Ð½ ÐµÑĩÐ½Ð¾
ĠÐ¡ ÐµÐ¼
ĠÑĥÐ´ Ð¾Ð±
ĠÐ²ÑģÐº Ð¾ÑĢÐµ
ĠÑģ Ð¾Ð½
ĠÐ¼Ð°ÑĢ ÑĤÐ°
ĠÐ½Ðµ ÑĦ
ĠÐ½Ð°Ð¼ ÐµÑĢ
ĠÐ¿Ð¾ ÐµÐ·Ð´
ĠÑĤÑĢÑĥÐ´ Ð¾Ð¼
ĠÐĶÐ¶ Ð¾Ð½
ÐµÑİ ÑģÑĮ
Ð°ÑģÑĤ Ð¸
ĠÐ¿ÑĢÐ¸ Ð¿
Ð¾Ð² Ð°ÑĤÐµÐ»ÑĮ
ĠÐ³Ð»Ð°Ð² Ð½Ð¾Ðµ
ĠÐ¸Ñİ Ð½Ñı
ĠÐ²Ð¾Ð· Ð±
Ġ19 5
ĠÑĦÐµÐ² ÑĢÐ°Ð»Ñı
ÑĢÑĭ ÑĤÑĮ
ĠÐ¿ Ð»Ð°
Ð¾Ð² Ð»ÐµÑĤÐ²Ð¾ÑĢ
ĠÐ¿Ð¾Ð»Ð¾Ð¶ ÐµÐ½Ð¸Ðµ
Ð¾Ð¿ Ð¸Ñģ
ĠÑģÐ»ÐµÐ´ÑĥÑİÑī Ð¸Ð¹
Ð¾Ðº Ð¾Ð¼
ĠÐ¿Ð°ÑĢ ÐµÐ½ÑĮ
ĠÐ´ÐµÑıÑĤÐµÐ»ÑĮ Ð½Ð¾ÑģÑĤÐ¸
a d
ĠÐĺ ÑĢ
ĠÐ¿ÑĢÐ¸Ð½ ÑıÑĤÑĮ
ĠÐ¿Ð¾Ð´Ñĩ ÐµÑĢÐº
ÑĢ ÐµÐ¶
ĠÐ¾ÑģÑĤ Ð°Ð»ÑģÑı
Ð¾Ð² ÑĥÑİ
ĠÑĩÑĥÐ² ÑģÑĤÐ²Ð¾
ÐµÑĢ Ð½Ð°
ĠÐ¾ÑģÑĤÐ¾ÑĢÐ¾Ð¶ Ð½Ð¾
ĠÐ¼Ð°ÑģÑĤ ÐµÑĢ
Ñį Ð»ÑĮ
Ð´ ÑĥÐ¼
ÑģÑĤÐ²Ð¾Ð² Ð°Ð»Ð¸
ĠÐº Ð¾Ð»ÑĮ
ĠÐŁÐ¾ÑĤ Ð¾Ð¼Ñĥ
ĠÐĵ ÐµÐ½
ĠÐ² Ð»Ð°ÑģÑĤÑĮ
ĠÐ¿Ð¸ÑģÑĮ Ð¼Ð¾
ĠÐ¿Ð¾Ð² Ð¾Ð´Ñĥ
ĠÑģÐ¼ Ð¾Ð¶ÐµÑĤ
ĠÐ¾ÑĤÐ½Ð¾ÑĪ ÐµÐ½Ð¸Ð¸
ĠÐ¿ÐµÑĢÐµÐ³ Ð¾Ð²Ð¾ÑĢ
Ð² ÑıÑī
ĠÐ¿Ð¾Ð´Ð¾Ð· ÑĢ
ĠÐĴ Ð¾Ð·Ð¼Ð¾Ð¶Ð½Ð¾
ĠÐĲÐ½Ð´ ÑĢÐµ
ĠÑĥÑĤÐ²ÐµÑĢÐ¶ Ð´
ĠÑģÐ¿ ÐµÑĪ
ĠÑĤÐµÐ»ÐµÑĦ Ð¾Ð½
ĠÐ¼ÐµÑĩ ÑĤ
ĠÐ¾ÐºÐ°Ð· Ð°Ð»Ð¸ÑģÑĮ
ĠÑĢÐµÐ±ÐµÐ½ ÐºÐ°
ĠÐ´Ð²ÑĥÐ¼ Ñı
Ñĭ Ð¶
ÑĤÐ¾ Ð½Ð°
ĠÐ½ÐµÑĩ ÑĤÐ¾
ĠÐ²Ð½Ð¸Ð¼ Ð°ÑĤÐµÐ»ÑĮÐ½Ð¾
ÑĪ ÐµÐ¼Ñĥ
Ð½ Ð¾Ð¿
ĠÑħ ÑĥÐ¶Ðµ
Ð¾ÑĤÑĢ ÐµÐ±
Ð½Ð¸Ñĩ Ðµ
ĠÐ¼Ð¾Ð»Ñĩ Ð°
Ð¸Ð½Ñĥ Ð»ÑģÑı
Ðŀ Ð½Ð¸
Ñİ Ð¼
ĠÐ¡ ÐµÐ²ÐµÑĢ
ÐµÐ½ÑĮ Ðµ
ĠÐ¾Ð´ ÐµÐ¶
ĠÐļ Ð»
ĠÐ¿Ð» ÐµÐ¼
ĠÐ´Ð¾ÑĢÐ¾Ð³ Ñĥ
ĠÑĢ Ð¾Ð²
ĠÑģ Ð¾Ð¶Ð°Ð»
âĢ Ļ
ĠÐ»ÑİÐ´ ÑıÐ¼
ĠÐĿ Ð°ÑĤ
ĠÐļÐ¾Ð½ ÑģÑĤ
ĠÐ±Ð»Ð°Ð³Ð¾Ð´Ð°ÑĢ Ñı
ĠÐº ÑĥÐ»
ĠÐ» Ð¾Ð´
ĠÐ¿Ð¾Ð· Ð²Ð¾Ð½
ĠÑģÐ¾Ð± ÑĢÐ°Ð½
ĠÐ½Ð¾Ð¼ ÐµÑĢ
ĠÐ¿ÑĢ Ð¾Ð»
Ð°Ð½ Ð½ÑĭÐ¼
ĠÐ´ÐµÐ¼ Ð¾Ð½
ĠÐ´Ð¾Ð»Ð» Ð°ÑĢÐ¾Ð²
ĠÐ¶ ÐµÐ½Ð°
Ð¾ ÑĤÐ¾Ñĩ
i g
ĠÐĴ ÑĤÐ¾ÑĢ
ĠÐ§ ÑĤÐ¾Ð±Ñĭ
ĠÐ¶ÑĥÑĢÐ½ Ð°Ð»Ð¸ÑģÑĤ
ĠÑĢÐ°ÑģÑģ ÑĩÐ¸ÑĤ
Ð°Ð´ÑĨ Ð°ÑĤÐ¸
Ġ2 4
ĠÐ½Ð° Ð¸Ð±Ð¾Ð»ÐµÐµ
ĠÐ¿Ð»Ð¾ Ñħ
Ð°Ð½ Ð½Ð¾Ð³Ð¾
Ð· ÐµÐ¼
Ð¸ÑĢÐ¾Ð²Ð°Ð½ Ð¸Ñı
ĠÐ²ÐµÑĢ Ð½ÑĥÑĤÑĮÑģÑı
Ð¼ Ð°Ð½Ð°
ĠÐ¾Ð±ÑĬ ÑıÑģ
Ð»ÑıÑĤÑĮ ÑģÑı
Ð°Ð¹ ÑĤ
Ġ2 2
ĠÑĥÐ´ Ð°Ð»
ĠÑģÐ² ÐµÑĤÐ°
ĠÑģÐ°Ð¼ Ð¾Ð»
ĠÐºÐ°ÑĢ Ð¼Ð°Ð½
ĠÑĨÐµÑĢ ÐºÐ¾Ð²
Ð¸Ð² Ð°
ÐµÐ¿ ÐµÐ½Ð½Ð¾
ĠÐ³ÐµÐ½ÐµÑĢ Ð°Ð»
Ð»Ñı Ð»Ð¸
Ð°Ð´ÑĨ Ð°ÑĤ
ĠÐ¿ Ð¾Ð²Ð¾ÑĢ
Ð¾Ð½ Ð·
ĠÑĢÐ°Ð· Ð°
ĠÐļ Ð°ÑĤ
Ð¸ÑĩÐµÑģÐº Ð¾Ð¼
ĠÐ½ÐµÐ² ÐµÑĢ
ĠÐ¼Ð½ ÐµÐ½Ð¸Ñİ
ĠÑĤÐ¾Ñĩ ÐºÐ¸
ĠÐ¿ÐµÑĢ ÐµÑĪ
ĠÐ´ Ð»
ĠÐ·Ð°Ðº Ð°Ð·
ĠÑĢÑĥ ÐºÐµ
Ġ( Â«
ĠÑĢÐ°Ð¹ Ð¾Ð½
Ð¾Ð¿ÑĢ Ð¸ÑıÑĤ
ĠÐ´ÐµÐ» Ð°ÐµÑĤ
ĠÐ¿ÑĢÐ¾ÑĪ Ð»Ð¾
ĠÑħ ÑĢÐ¸ÑģÑĤÐ¸Ð°Ð½
ĠÐ½Ð¾ ÑıÐ±ÑĢÑı
ĠÐ¿Ð¾ÐºÐ°Ð· Ð°Ð»Ð¾ÑģÑĮ
ĠÑĢÐµÐº Ð¸
ĠÐĵ Ð¾Ð»
ĠÐ¿Ð¾Ð½ ÑĢÐ°Ð²
ĠÑĤÐ¾ÑĢ Ð¾Ð¿
ĠÐ¢ Ð¾ÑĤ
ĠÐ¿Ð¾Ð» Ð¸ÑĨÐµÐ¹
ĠÐ±ÐµÑĢÐµÐ³ Ñĥ
ĠÐ³Ð¾Ð²Ð¾ÑĢ Ð¸Ð»Ð°
Ð°Ð½ Ð¾Ð¼
ĠÐ¼Ð» Ð½
ĠÐ¼ Ð°Ð¹
Ġ and
ĠÑĥÑĤ ÑĢÐ°
ĠÐ²ÑĢÐµÐ¼ÐµÐ½ ÐµÐ¼
ÑĢÑĥ Ð±
ĠÑĢÐ°ÑģÑģÑĤ Ð¾Ñı
ÐĴ Ð¾ÑĤ
ĠÐŃ ÑĤÐ¸
ĠÑĢÐ°Ð½ ÐµÐµ
ĠÐĴ Ð¾ÑģÑĤ
ÑĢ Ð´
ĠÐ¿ÐµÑĢÐ² ÑĥÑİ
ÑĮÑİ ÑĤÐµÑĢ
Ð¸Ð± Ð»Ð¸
ĠÐ½Ð°ÑĪ ÐµÐ»
ĠÐ²ÑģÑĤ Ð°Ð»
ĠÐºÐ¾Ð¼Ð½ Ð°ÑĤÑĭ
ĠÑģÑĤÐµÐ¿ ÐµÐ½Ð¸
o o
ĠÑĢÐ°Ð·Ð´ ÑĢÐ°Ð¶
ĠÐ¸Ñģ ÑħÐ¾Ð´
ÐµÐ½Ð¸Ñı Ð¼
ĠÑģÐ² ÐµÐ´
Ð¸ÑĤ Ð°Ð»
ĠÐ·Ð°Ñī Ð¸Ñī
ĠÑĥÐ·Ð½ Ð°Ð»
ĠÐ»ÑİÐ´ ÑĮÐ¼Ð¸
ĠÐ´ÑĢÑĥÐ³ Ð¸Ð¼Ð¸
Ð½Ð¸ Ð¶
ĠÑģÐ¾Ð¼Ð½ ÐµÐ²
ĠÐ» ÐµÐ´
ĠI I
ĠÐ´ Ð¸ÑģÐº
ĠÐ²Ð·Ð´Ð¾Ñħ Ð½ÑĥÐ»
ĠÑĤÐµÐº ÑģÑĤ
ĠÑģÑĤÐ¾ ÑıÐ»Ð¸
ĠÐ¾Ð±ÑĬ ÐµÐ´Ð¸Ð½
Ð²Ð°ÑĢ Ð´
ĠÐ± Ð¸
ĠÐ¸ÑģÐ¿Ð¾Ð»ÑĮÐ· Ð¾Ð²Ð°ÑĤÑĮ
ÐµÐ´ Ð»Ð¸Ð²
ĠÐ¾ÑĤÑģ ÑİÐ´Ð°
Ð½ ÐµÑĤÑģÑı
ĠÐ¾ÑĤ ÑĢÐ°Ð¶
Ð¾Ð² ÐµÑĤ
ĠÑģÑĤÐ¾ÑĢÐ¾Ð½ Ðµ
ĠÐ´ Ð°Ð¼
Ð¸Ð» Ð¸Ñı
Ñħ Ð¾Ð²
Ñį Ð¼
ĠÐ²ÑĭÐ¿ ÑĥÑģÐº
Ð¸Ð´ ÐµÐ½ÑĤ
Ñĩ ÐµÑĢ
ĠÐĺÐ¼ ÐµÐ½Ð½Ð¾
ĠÑĢÐµ Ð°Ðº
ÐµÐ´ Ð¾Ð¼
ĠÐł Ð¾Ð±
ĠÐ²Ñĭ ÑĪÐ»Ð°
Ð»Ð¾ Ñĩ
ĠÐķ ÑģÑĤÑĮ
Ð³Ð¾ ÑĢÐ¾Ð´
ĠÐĹ Ð½Ð°ÑĩÐ¸ÑĤ
ĠÐ² ÐµÑģÑĤÐ¸
ĠÐ½ÑĢÐ°Ð² Ð¸ÑĤÑģÑı
ĠÐ´ Ð¾ÑĩÑĮ
ĠÐ¼ Ð°Ð¼Ð°
ĠÐ´Ð¾ÑĢÐ¾Ð³ Ð¸
Ðº ÑĢÐµÑĤ
ĠÐ¿ÐµÑĢ ÑģÐ¾Ð½
ĠÐ· Ð°Ð¹
ĠÐ¾Ð¶ Ð¸Ð´Ð°
ÐµÑĢ Ð·
ĠÐ¿ Ð¸Ð»
Ð°Ð²ÑĪ ÐµÐ³Ð¾
ĠÐ·Ð½ Ð°Ð»Ð¸
ĠÐ´Ð¾ ÑħÐ¾Ð´
ĠÐ² ÑģÑĤÐ°Ð²
ÐµÑĤ Ð¾Ð¼
ĠÐ¼ÐµÑĤ ÑĢÐ¾Ð²
ĠÐ¿Ð¾Ð´ ÑĢÑĥÐ³
ĠÑĤÑĢ ÐµÑĤ
ĠÐ¿Ð¾Ð· Ð¶Ðµ
ĠÐĲÐ½Ð´ÑĢ ÐµÐ¹
Ðŀ Ð±
ĠÑģ ÑħÐ¾Ð´
ĠÐ¿Ð¾Ð¿ ÑĢÐ¾Ð±
ĠÐ¿Ð¾Ð´Ñĩ Ð¸Ð½
ĠÐ¿Ð¾Ð¹ Ð¼
ĠÐ¼Ð³Ð½Ð¾Ð² ÐµÐ½Ð¸Ðµ
Ð¸Ð½Ñĥ Ð²
ĠÐ½ÐµÐºÐ¾ÑĤÐ¾ÑĢ ÑĭÑħ
ÑĥÑĩ Ð¸
ĠÐ°Ð¿ÑĢ ÐµÐ»Ñı
ĠÑį Ð»ÐµÐ¼
ĠÑģ ÐµÐ·
Ð «
ĠÑģ Ñħ
ĠÐ¼ Ð¸ÑģÑĤÐµÑĢ
ĠÐ²Ð¾Ñģ ÑģÑĤÐ°Ð½Ð¾Ð²
Ð°ÑĤÐµÐ»ÑĮ ÑģÑĤÐ²Ð°
ĠÐ´Ð¾ÑģÑĤ ÑĥÐ¿
ĠÐ²Ñģ Ð»ÐµÐ´
ĠÑĤÑıÐ¶ ÐµÐ»Ð¾
ĠÐ¼ÑĥÐ¶Ñĩ Ð¸Ð½
Ð¸Ð·Ð° ÑĨÐ¸Ð¸
ĠÐ¾ÑĤÐºÑĢÑĭ Ð»
ĠÐ²Ñĭ Ð³Ð»ÑıÐ´ÐµÐ»
Ð½ Ð¸ÑĤ
Ð»Ð¸ ÑĩÐ½Ð¾
ÑĥÑģÑĤ Ð¸Ð»
ĠÐ¸ÑģÑĤ Ð¸Ð½
ĠÐ¿Ð» ÐµÐ½
ĠÐ¿ÑĢÐµÐ´ Ð¼ÐµÑĤ
ĠÐ»ÑİÐ± Ð¾Ð¿ÑĭÑĤ
Ð°Ñģ Ð°
ĠÐĺ Ð³Ð¾
ĠÐľÐ¸Ñħ Ð°
ĠÐ¿Ð¾Ð´ Ð°Ð²
ĠÑģÑĤÑĢÐ¾ Ð¸ÑĤÐµÐ»ÑĮ
ĠÐ±ÑĥÐ´ ÐµÑĪÑĮ
ĠÐ½Ð° ÑģÐºÐ¾Ð»ÑĮÐºÐ¾
Ð¾Ð¶ Ñĥ
ĠÐ½Ð°ÑĢÐ¾Ð´ Ð°
ĠÐ° Ñį
Ð°ÐµÐ¼ ÑģÑı
ĠÐ¿ÑĢÐ¾ Ñħ
ĠÐ¿Ð¾ÑĢ ÑĥÑĩ
Ð» Ð¾ÑĢ
ĠÐĵ ÑĢÐ¸
ĠÐ¿ÑĢÐµÐ´Ð»Ð¾Ð¶ Ð¸Ð»
ĠÐ¿ÑĢÐ¸Ð½ ÑıÑĤ
ĠÐ¾ÑģÑĤÐ°Ð½Ð¾Ð² Ð¸Ð»ÑģÑı
ĠÐľ ÐµÐ½Ñı
Ñĭ Ð»Ð¸
ÑģÑĤ Ð¸
ĠÑĥÐ»ÑĭÐ± Ð½ÑĥÐ»Ð°ÑģÑĮ
Ñı Ð½ÑĥÑĤ
ĠÐ²Ð·Ð° Ð¸Ð¼
ĠÐ¼ ÐµÐ»ÑĮ
ĠÐ½Ð°ÑģÐµÐ» ÐµÐ½Ð¸Ñı
ĠÐ¿Ð¾Ð´Ð½ÑıÐ» ÑģÑı
ĠÐ± Ð»Ð¸Ð¶Ðµ
ĠÑģÑĤ ÑĢÑĥÐºÑĤ
Ð¾Ð² Ð¸Ñĩ
ĠÑĥÑĩ ÐµÐ½Ð¸
ĠÐ½ÐµÐ´ Ð°Ð²Ð½Ð¾
ĠÐ¿Ð¾Ð´ÑĤ Ð²ÐµÑĢÐ´
ÑĭÑĪ Ð»ÐµÐ½
ĠÑģÐ¿ÐµÑĨÐ¸ Ð°Ð»Ð¸ÑģÑĤ
Ð° ÑīÐµ
ÐµÐ² Ð°ÑĤÑĮ
ĠÐº Ð»Ð°Ð´
ĠÑĦÐ¾ÑĢ Ð¼Ñĥ
ĠÐ½Ð°Ð²ÐµÑĢ Ð½ÑıÐºÐ°
ĠÐ¾ÑĤÐ¼ÐµÑĤ Ð¸Ð»
ĠÐ±Ð» Ð¾Ðº
ĠÐ²Ð°Ð¶ Ð½Ð¾
Ð°ÑĪ Ð¸
ĠÑģÐ¼ÑĭÑģÐ» Ðµ
Ð°Ð»Ð¸ Ñĩ
ĠÐ¿ ÐµÑĤ
Ñİ Ðº
ĠÐ¿Ð¾ÑģÐ¼Ð¾ÑĤÑĢ ÐµÐ»Ð°
ĠÐ¡ Ð»ÐµÐ´
ĠÐ¾Ð±ÑıÐ· Ð°ÑĤÐµÐ»ÑĮÐ½Ð¾
ĠÐ» ÐµÐº
ĠÐ¿ÑĢÐ°Ð² Ð¸Ð»ÑĮÐ½Ð¾
ĠÐ²Ñĭ ÑĢÐ°Ð·
ĠÐł Ð°Ð½ÐµÐµ
Ñĭ Ð´
ĠÑĨ ÐµÐ»Ð¸
ĠÐºÐ¾Ð½ ÐµÑĨ
ĠÐ¿Ð»Ð¾Ñī Ð°Ð´
ĠÐ¿ÑĢ Ð¾Ð·
ĠÐ¿Ð¾Ð´ Ð±
ĠÑģÐ»Ð¾Ð² Ð°Ð¼Ð¸
ĠÑģÑĤÐ¾Ð» Ð°
ĠÐ¿ÑĭÑĤ Ð°ÑıÑģÑĮ
ĠÐ¿ÑĢÐ¾ÑĪ ÐµÐ¿ÑĤ
ĠÐ² Ð¾ÑĢ
ĠÑĤ ÐµÑĤ
ÂłÂłÂłÂł ÂłÂłÂłÂł
ĠÐ¸ÑģÐº Ð°ÑĤÑĮ
ÐµÑĢ ÑĭÐ²
ÐºÐ¸ Ð¿
ĠÑĥ ÑĪ
Ð½ Ð°Ð´
Ġ5 0
ĠÑģÐ¾Ð³Ð»Ð°Ñģ Ð¸Ð»ÑģÑı
ĠÐĺ ÑģÑĤ
Ñİ Ñĩ
Ð¶ Ð¸
ĠÐ´Ð² Ð¾Ðµ
ĠÐ¾Ð± Ð»ÐµÐ³
ĠÐ¾Ð± ÑĥÑĩ
ĠÑģÐ¸Ð» Ð¾Ð¹
ĠÐĲÑĢ ÑĤ
ÑģÑĤÑĢ Ð°Ð´
ĠÐºÐ¸Ð» Ð¾Ð¼ÐµÑĤ
ĠÐ¿Ð¾ÑĩÑĥÐ² ÑģÑĤÐ²Ð¾Ð²Ð°Ð»
ĠÐ¿Ð¾ÑģÐ¼Ð¾ÑĤÑĢ ÐµÑĤÑĮ
ĠÐ¿Ð¾Ð´Ð¾Ð· ÑĢÐµÐ²
ĠÐ¿Ð¾Ñģ ÐµÑĤ
ĠÐŃ ÑĤÐ°
ĠÐ·ÐµÐ¼ Ð»Ñı
ĠÑģÐ»ÑĥÑĩ Ð°Ñı
ĠÐ³ Ð»Ñı
Ð»Ð¾ Ñī
ĠÐ¿Ð¾Ð´ Ð¿
ÑĤÐ¸ ÑĢÑĥ
ĠÐ¢ ÑĥÑĢ
Ñģ Ð¸Ð¸
ĠÑĥÐ· Ð½Ð°
ĠÑĥÐ´ Ð¾Ð²Ð»ÐµÑĤÐ²Ð¾ÑĢ
Ð¸ÑĤÐµÐ»ÑĮ Ð½Ð¾ÑģÑĤÐ¸
ĠÐ¶ Ð¸Ð»Ð¸
ĠÐ´ Ð¾Ð½
ĠÐ¿Ð¾Ð´ Ð²
ĠÑħÑĥÐ´ Ð¾Ð¶
ĠÐ²ÐµÐ» Ð¸Ñĩ
ĠÐ² Ð½ÐµÐ·Ð°Ð¿Ð½Ð¾
Ð¼Ñĭ ÑģÐ»
ĠÑģÐµÐ¼ ÑĮÐ¸
Ð¾Ñģ Ð°
ĠÑĢÐµÑĪ Ð¸Ð»Ð°
ĠÐ¿ Ð¸ÑĤ
ĠÐ¿Ð¾Ð² ÑĭÑĪ
ĠÐ´ÐµÐºÐ°Ð± ÑĢÑı
i r
ĠÐ¼ Ð°Ñħ
ĠÐ¾ÑģÑĤ Ð°Ð»ÑĮÐ½ÑĭÐµ
ÑĥÑģÑĤ Ð¸ÑĤÑĮ
ĠÐ½Ð°Ð· Ð²Ð°Ð½
ĠÐ» Ð¾Ð³
Ð¾Ñģ Ð¿
ĠÐ½ÐµÐ´ ÐµÐ»Ñİ
ĠÐ²Ð¸Ð´ ÐµÐ»Ð¸
ĠÐ²Ð¾ÑģÐ¿ Ð¾Ð¼Ð¸Ð½
ÐµÑģÑģ Ð°
ĠÐ³ Ð½ÐµÐ²
Ġ19 2
ÐµÐ¶ Ð°ÑĤÑĮ
ĠÐ²Ð¾Ñģ Ñħ
Ð¾ÑĤ Ð²Ð¾ÑĢ
ĠÐ½ÐµÐ¼ ÐµÐ´Ð»ÐµÐ½Ð½Ð¾
ĠÑĥÐ²Ð¸Ð´ ÐµÐ»Ð°
Ð¾Ñĩ Ð¸Ð»
ĠÐ· ÐµÑĢÐº
Ð²ÐµÑģÑĤ Ð¸
ĠÐ¿ÑĢÐ¾ÑĤÐ¸Ð² Ð½Ð¸ÐºÐ°
ĠÐ¾ Ñħ
ĠÐĿ Ð°ÑģÑĤ
ĠÑģÐ°Ð¼ Ð¾Ð»ÐµÑĤ
ĠÐ¿Ð¾ÑıÐ² Ð¸Ð»ÑģÑı
ĠÑģÐ¿ÑĥÑģÑĤ Ñı
ĠÑįÐº ÑĢÐ°Ð½
Âł ÑĤ
ĠÐºÐ¾Ð½ Ñģ
ĠÐ½Ð°Ðº Ð°Ð·
ĠÑģÐ¾Ð»Ð½ ÑĨÐµ
ĠÐļ Ð°Ð¼
Ñİ Ð±
ĠÐ±ÑĢÐ¾Ñģ Ð¸Ð»
Ð¾Ð½ ÐµÑĩ
Ġ2 3
ĠÐĲ Ð±
ĠÐ¿ÑĢÐ¸ÑħÐ¾Ð´ Ð¸Ð»Ð¾ÑģÑĮ
ĠÐº Ð¼
ĠÑģÐµÑĢ ÐµÐ´
Ð¾Ð² Ð°Ð»Ð°ÑģÑĮ
ĠÐ±ÑĥÑĤ ÑĭÐ»
ĠÐ³Ð¾ÑģÐ¿Ð¾Ð´ Ð¸Ð½
ÑĪ Ð¸Ð¼Ð¸
Ð¸Ðº Ð¾Ð¹
Ð¾Ñģ Ð»ÐµÐ´
ĠÐ´ÑĢÑĥÐ³ Ñĥ
Ðº Ð°Ð½
ĠÐºÐ°Ñģ Ð°ÐµÑĤÑģÑı
Ð» ÑĭÐµ
ÑĥÐ³ Ð¸
ĠÐ¿ÑĢÐ¸Ð½ ÑıÐ»
ĠÐ¿ÑĢÐµÐ´ Ð¿ÑĢÐ¸ÑıÑĤ
ĠÐ¾Ñģ Ð¾Ð·Ð½
ĠÐļÑĢ ÑĭÐ¼
ÑģÑĤÑĢ ÐµÐ¼
ĠÐľ Ð¾
ĠÑĤÑĭÑģÑıÑĩ Ð¸
Ð¡ Ðļ
ĠÐ²ÑĭÐ± ÑĢ
ĠÑħÐ¾Ð´ Ðµ
ĠÑĨÐ²ÐµÑĤ Ð°
. :
Ð» Ð¾Ð¹
Ġ1 00
ĠÐ³Ð¾Ð²Ð¾ÑĢ Ð¸ÑĤÑģÑı
ĠÐºÐ¾Ð¼Ð°Ð½Ð´ Ñĭ
ĠÐ² Ð¸Ñģ
Ð¾Ð± Ð¾ÑĢÐ¾ÑĤ
ĠÐ¿ÑĢÐ¸Ð³ Ð»Ð°ÑĪ
ĠÐ¿Ð¾Ðº Ð»Ð¾Ð½
ĠÐĿ Ð¸ÑĩÐµÐ³Ð¾
ĠÐ¾Ð±Ñģ ÑĥÐ¶Ð´
ĠÐ² Ð°ÑĢ
Ð°ÑĤ ÑĥÑĢÑĭ
ĠÑĢ ÐµÐ¹
ĠÐº ÑĥÑģÑĤ
ĠÐŁ ÑĥÑģÑĤÑĮ
ĠÐ·Ð°Ðº ÑĢÑĭÑĤ
ĠÐ·Ð° ÑħÐ¾ÑĤ
ĠÐ¿ÑĢÐµÐ·Ð¸Ð´ ÐµÐ½ÑĤÐ°
ÑĢÐ°ÑĤ Ð½Ð¾
ĠÐ´ÐµÐ¿ ÑĥÑĤ
ĠÐ¿ÑĢÐ¸Ð² ÐµÑĤ
ĠÐ³Ð¾ÑĢ Ð´
ĠÐ´Ð²Ð¸Ð¶ ÐµÐ½Ð¸Ðµ
ĠÐĿ Ð°Ð¼
ÑĥÐ± Ð»Ð¸Ðº
Ġ in
ĠÐ¾Ð± Ð¼Ð°Ð½
Ð°Ð²ÐµÑĢ Ð½Ð¾Ðµ
ĠÑħÐ¾ÑĤ Ð¸ÑĤÐµ
ÑĢ Ð¾ÑģÑĤ
ĠÑĥ Ð¼Ð°
ĠÐ¶ÐµÐ» Ð°Ð½Ð¸Ðµ
ĠÑħÐ¾Ñĩ ÐµÑĤÑģÑı
Ð¾Ðº Ð¾Ð»
ÐºÐ¾Ð² Ð°
Ð°ÐµÑĪÑĮ ÑģÑı
ĠÐ Ļ
ÑĭÐ² Ð°ÑĤÑĮÑģÑı
ĠÐ» Ð°Ð²
Ð¾Ñĩ ÐµÐº
ÑĥÑħ Ð°
ĠÐĺ ÑģÐ¿
Ð¿ Ð¾
ĠÐ¿Ð¾Ð·Ð´ Ð½Ð¾
ĠÐ¿ÑĢÐ¸ÑĪ Ð»Ð°
ĠÐºÐ¾Ð½ ÐºÑĢÐµÑĤ
ĠÐ°Ð´ÑĢ ÐµÑģ
ĠÐ¾Ð¿ ÐµÑĢ
ĠÐľ ÐµÐ¶Ð´Ñĥ
Ð°Ð» Ð»
ÑĪ ÐµÐ±
Ð² ÐµÐ½
ĠÐ¼ÐµÑģÑı ÑĨÐµÐ²
Ð´Ð° ÑİÑĤ
ĠÑį Ð¼Ð¾
Ð¾Ð²Ð°Ð½ Ð¸ÐµÐ¼
Ð°Ð½ Ð½Ð°
ĠÐ²Ð¸Ð´ Ð¸Ð¼Ð¾
ĠÐ¸Ð·Ð± Ð°Ð²
Ð¸Ð» Ðµ
ĠÐ¸Ð· ÑĥÐ¼
Ð¸ÑĨ Ð¸Ñİ
ÑĢ Ð°Ð¶Ð´
ĠÐ½ÑĥÐ¶ ÐµÐ½
ĠÐĵÐµÑĢÐ¼ Ð°Ð½Ð¸Ð¸
Ð¾Ñħ ÑĢÐ°Ð½
ĠÑĪ Ð»Ð¸
Ð» ÑĥÑĩ
ĠÐ¾ÑĤÐ´ ÑĭÑħ
Ð¸Ð² Ð°Ð½Ð¸Ñı
ĠÑģÑĩÐ¸ÑĤ Ð°ÐµÑĤ
ĠÐ½ÐµÐ¿ Ð¾Ñģ
ĠÑĪ Ð°Ð½Ñģ
ĠÑĢ Ñı
ĠÐ¿Ð¸ÑĪ ÐµÑĤ
Ñİ Ð¶
ĠÐºÑĢ ÑĭÐ»ÑĮ
ĠÐ¼ÐµÑĤ Ð¾Ð´
ĠÐĲ Ð¼ÐµÑĢ
ĠÑĥÐ³ Ð¾Ð»
ĠÑĢÐµÑĪ ÐµÐ½Ð¸Ñı
ĠÐ·Ð½ Ð°Ð¼ÐµÐ½
ĠÐ· Ð°Ð³Ð¾
ĠÑĩÑĥÐ² ÑģÑĤÐ²Ð¾Ð²Ð°Ð»
ĠÐ¼ÑĥÐ¶Ñĩ Ð¸Ð½Ñĭ
ÑĥÑĪ ÐºÑĥ
ĠÑģÑģ ÑĭÐ»
Ð°Ð»ÑĮ Ð½ÑĭÐ¼Ð¸
Ð¾ Ð¸Ð½
ĠÐ½ÐµÐ· Ð°Ð²Ð¸Ñģ
ĠÑĢÐ°Ð· Ð½ÑĭÐµ
ĠÑĥÐ± ÐµÐ¶Ð´
ĠÐ¿ÑĢÐ¾ÑĦÐµÑģÑģ Ð¸Ð¾Ð½
ĠÐ¿ÐµÑĢÐµÐ² Ð¾Ð´
ĠÐ² ÑĩÐµÑĢÐ°
ĠÐ¥ Ð¾ÑĢÐ¾ÑĪÐ¾
ĠÑĥÑģÐ»Ð¾Ð² Ð¸ÑıÑħ
ĠÐ³Ð¾ÑģÑĤ Ð¸Ð½
Ð¸ÑģÑĤ Ð°
ĠÐļ ÑĥÑĢ
Ð¾Ð¶Ð´ ÐµÐ½Ð¸Ðµ
Ð¸ÑĤÐµÐ»Ñı Ð¼Ð¸
ĠÐłÐ°Ð· Ð²Ðµ
ĠÐºÐ¾Ð¼Ð¿ ÑĮÑİÑĤÐµÑĢ
ĠÐ¸Ð³ÑĢ Ñĭ
ĠÑģÑĥÑīÐµÑģÑĤÐ² ÑĥÐµÑĤ
ĠÐ¿ Ð¸ÑģÑĤ
ĠÐ¡ Ð¾Ð±
Ð°Ð»Ð¸ Ð¸
ĠÐ· Ð¾Ð²
ĠÐ¤ÑĢÐ°Ð½ ÑĨÐ¸Ð¸
ÑıÑī ÐµÐ³Ð¾
ĠÐĲ Ð·
ĠÐ¡Ðº Ð¾ÑĢ
ĠÐ¿ÑĢÐ¾ ÑĪÐµÐ»
ĠÐºÐ¾ÑĤÐ¾ÑĢ ÑĭÐ¼Ð¸
ĠÐºÐ½Ð¸ Ð³
ĠÐĴ Ð¾Ð·
ĠÐ± Ð¾ÑĢÑĤ
ĠÑĤ Ð¸ÑĪ
ĠÐ°Ð¿ Ð¿Ð°ÑĢ
ĠÐ½Ð°ÑģÑĤÐ¾Ñı ÑīÐµÐµ
ĠÐ¸Ð¼Ðµ ÑİÑĤ
ĠÐ³Ð¾Ð»Ð¾Ð² Ð°
Ð» ÑĥÐ±
ĠÑģ ÑįÑĢ
r o
ĠÐ¼Ð¾ Ð¸Ð¼
ĠÐĹ Ð°Ðº
ĠÑģÐ¿ ÑĥÑģÐº
Ð¼ Ð¾ÑĢ
Ñı ÐµÑĤÑģÑı
ĠÐ½Ð°ÑĪ Ð°
ĠÐºÐ¾Ð» Ð»ÐµÐº
ĠÐ²Ð´ Ð¾Ð»ÑĮ
ĠÐ¿Ð¾Ð» Ð½Ð¾Ð¼
ĠÑįÐºÑģÐ¿ ÐµÑĢ
ĠÑģÐ¿ÑĢ ÑıÑĤ
ÐµÐ¼ Ð°
ĠÐ¿ÐµÑĢÐ² ÑĭÐµ
ĠÐļ Ð¸ÐµÐ²
Ð¾Ð³ Ñĥ
Ð°Ð´ Ñĥ
ĠÐ½Ð¸Ðº Ð¾Ð¼Ñĥ
Ġ n
ĠÐ¡ ÑĤÑĢ
ĠÑģÐ¿ ÑĥÑĤ
ĠÐµÐ² ÑĢÐ¾Ð¿ÐµÐ¹
ĠÐ¿ Ð»Ð°ÑģÑĤ
ĠÐľ Ð¾Ð¶Ð½Ð¾
Ñı Ñı
Ð¾Ð²Ð°Ð½ Ð¸Ð¸
ĠÐĳ Ð¾Ð¶
ĠÐ½Ð° ÑĪÐµ
ĠÐ½ Ð°Ð¶
Ð¾ÑĢ ÑĤÐ°
ĠÐ²Ñĭ Ð¸Ð³
ĠÐŀÑĩ ÐµÐ½ÑĮ
ĠÐ² ÐºÑĥÑģ
ĠÑģ ÐµÐ´
ĠÐ¿Ð¾Ð²ÐµÑĢ Ð½ÑĥÐ»ÑģÑı
ĠÐ¿ÑĢÐ¾ Ð½Ð¸Ðº
ĠÐĽÑİ Ð±
ĠÑģÐ´ÐµÐ» Ð°Ð»Ð°
ĠÑĢÐµÑĪ Ð¸Ð»Ð¸
ĠÐ½Ð° ÑģÐ»
ĠÑĥÐº Ð°Ð·ÑĭÐ²
ĠÐ´ÐµÐ¹ÑģÑĤÐ² Ð¸Ð¹
Ð°Ð½ÑĤ Ñĭ
ĠÑĢÐ°Ð· Ð³Ð»ÑıÐ´
Ñĩ Ð¸ÐºÐ¸
Âł Ðº
ÑĨ Ð¾
Ð°ÑĤÐµÐ»ÑĮ Ð½ÑĭÐ¹
ĠÐ¿ÑĢÐ¾Ð± Ð¾ÑĢÐ¼Ð¾ÑĤ
ÑĥÑĢ Ðµ
ÑģÐº Ð¾
ÐµÑĪÑĮ ÑģÑı
Ð³ Ð»Ð°Ð²
ĠÑģÐ¸Ð¼ Ð²Ð¾Ð»
ÑģÑĤ Ð°Ð½
ĠÑĩÐ°ÑģÑĤ Ð½Ð¾ÑģÑĤÐ¸
ĠÑĦ Ð°Ð¼
ĠÐ¼ÐµÑģÑı ÑĨ
ĠÑĥÐ³ Ð¾Ð´Ð½Ð¾
ĠÐ½ÐµÐ¿ Ð¾Ð½ÑıÑĤ
ĠÑĥ ÑĢ
ĠÐľÐ¾ÑģÐº Ð²Ñĭ
Ð½ ÐµÑĢ
ĠÐ¿Ð°ÑģÑģ Ð°Ð¶
ĠÑıÐ²Ð»Ñı ÑİÑĤÑģÑı
ĠÐ³ ÑĥÑģÑĤ
ĠÐ¿Ð¾ÑģÑĤ Ð°ÑĢ
ĠÐŁÐµÑĤ ÑĢÐ¾Ð²
ĠÑĨ ÐµÑĢÐºÐ²Ð¸
ĠÐ¿Ð°Ð¼ÑıÑĤ Ð¸
ĠÐŃ ÑĤ
ĠÐ¿Ð¾Ð¼ Ð½Ñİ
ĠÑĩÑĥÐ² ÑģÑĤÐ²Ð°
Ð¾ Ñĥ
ĠÑĩ ÑĢÐµÐ·
ĠÑģ Ð³
Ð¾Ð² ÐµÐ´
ĠÐ´ÑĢÑĥÐ³ ÑĥÑİ
Ð²ÐµÑĢ Ð³
ĠÐ¾ÑĤÐ²ÐµÑĤ ÑģÑĤÐ²ÐµÐ½
ĠÑĢÐ°ÑģÑģ Ð¼Ð¾ÑĤÑĢ
ĠÐ²ÑģÑĤÑĢÐµÑĩ Ð¸
.] .
ĠÑģÐ¸Ð»ÑĮ Ð½ÐµÐµ
ÐĹ Ð°
ĠÑĤÐµÑħ Ð½
ĠÐ½ÐµÐ· Ð½Ð°ÐºÐ¾Ð¼
ĠÑĤÐ¸Ð¿ Ð°
ĠÐ·Ð² ÐµÐ·Ð´
ĠÑģ Ð°Ð»
ÐµÑħ Ð°ÑĤÑĮ
ĠÑģÑĤ Ð°Ðº
ÐµÐ» Ð»Ð¸
ĠÐ¿ÑĢÐµÐ´ ÐµÐ»
ĠÐ¡ Ð²ÐµÑĤ
ĠÐ¿ÑĢÐ¸ Ð±Ñĭ
ÐµÑģ ÐµÐ´
ĠÐ¼ÐµÐ´ Ð¸ÑĨ
ĠÐ·Ð°Ð¿ Ð°Ñģ
ĠÐ¸Ð½ÑģÑĤ Ð¸ÑĤÑĥÑĤ
ĠÑĢÐ°Ð±Ð¾ÑĤ Ð°ÐµÑĤ
ĠÐ¸ÑģÑĤÐ¾ÑĢ Ð¸Ñİ
ĠÑĤÐ¾ÑĢ Ð¶Ðµ
ĠÐ´Ñĥ ÑĪÐµ
Ð¸ÑĤÐµÐ»ÑĮ Ð½Ð°Ñı
ĠÑĪ ÐµÐ¿
Ð¾ÑģÑĤÐ¸ Ð¶
ĠÐ½Ð°ÑħÐ¾Ð´ Ð¸Ð»ÑģÑı
ĠÑĢÐµÐ·ÑĥÐ»ÑĮÑĤ Ð°ÑĤ
Ð»ÐµÐ½ Ð½Ð¾Ð¹
ĠÑģÑĤÐ¾Ð» Ðº
ĠÐ±Ð» ÐµÑģÑĤ
ĠÐ¾Ð±Ð»ÐµÐ³ Ñĩ
ĠÐ¿ÑĢÐµÐ´ÑģÑĤÐ°Ð² Ð¸ÑĤÑĮ
ĠÐº Ð¸Ð½Ð¾
ĠÐ²Ð¾Ñģ ÐµÐ¼ÑĮ
ĠÐ²Ð°ÑĪ ÐµÐ¹
ĠÐ² Ðµ
ĠÐĿ ÐµÑģ
ĠÑĢ ÐµÑģÑĤ
ĠÐ² Ð°ÑĪÐµ
ĠÐ¾Ð±ÑīÐµ ÑģÑĤÐ²Ð°
ĠÐ¿Ð¾Ð½Ð¸Ð¼ Ð°Ð»
ĠÑģÐ¾Ð² Ð¼ÐµÑģÑĤ
ĠÑģÐ¾ÑģÑĤÐ¾Ñı Ð½Ð¸Ðµ
ĠÑģÐ¼ ÐµÑħ
ĠÐ¢ Ðµ
ĠÐ¿ÑĢÐ¸ÑĪ Ð»Ð¸
ĠÐ½Ð¸ Ð¶Ðµ
ĠÐ¸ÑģÑĤÐ¾ÑĢ Ð¸Ñı
Ð°Ð»ÑĮ ÑĪÐµ
ĠÐ¡ ÐµÑĢ
ĠÐ´ÐµÐ²ÑĥÑĪ ÐºÐ¸
ĠÑĢÐ°Ð±Ð¾ÑĤ Ð°Ð»
ÂłÐŀ ÑĤ
ĠÐ¾Ð¿ÑĢÐ°Ð² Ð´
Ġ2 6
ĠÐ¾ÑĤÐ´ Ð°Ð»
ĠÐºÐ¾Ð» Ð»ÐµÐ³
ĠÐĿ Ð°ÑĢ
ĠÑģÐ¿ Ð°ÑĤÑĮ
Ð¸Ð»Ð¸ Ð¿
ĠÐ½Ð°Ð·ÑĭÐ² Ð°ÐµÐ¼
Ñı ÑİÑĤ
ĠÐŃ Ð´
ĠÐ½Ð°Ð·Ð² Ð°Ð½Ð¸Ðµ
Ð°Ð»ÑĮ Ð½Ð¾ÑģÑĤÐ¸
ÑıÑī Ð¸Ñħ
ĠÑģÐ°Ð¼ Ð¾Ð¼Ñĥ
Ñĩ Ð¸ÐºÐ°
ĠÑĥ ÑĤÐ¾Ñĩ
ĠÐ´ÑĥÐ¼ Ð°Ð»Ð°
ĠÐºÑĢÐµÑģÑĤ ÑĮÑıÐ½
ĠÐ»ÑİÐ± Ð»Ñİ
ĠÐ¿ÑĢÐµÐ² ÑĢÐ°Ñī
ĠÐ» ÐµÐ¹
Ð¸ÑĢ Ð°Ñı
ĠÐ¿Ð¾ÑģÐ» ÑĥÑĪ
ĠÐ¿Ð¾Ð´ÑĥÐ¼ Ð°Ð»Ð°
ĠÐ¦ ÐµÐ½ÑĤ
ĠÐ¿Ð»ÐµÑĩ Ð¾
5 0
Ñģ ÐµÐ½
ĠÐ´Ð¸ÑĢ ÐµÐºÑĤÐ¾ÑĢ
ĠÐĶ ÑĢÑĥÐ³
ĠÐº ÑĢÑĥÑĤ
Ð¸ÑĤ Ð°ÑĢ
Ð¸ÑĪÑĮ ÑģÑı
ÐĲ ÑĢ
ĠÐ¼Ð°ÑĢ ÑĪ
ĠÐ¾ÑģÑĤ Ð°ÐµÑĤÑģÑı
ĠÐľ Ñį
ĠÐ¿Ð¾ÑģÐ»ÐµÐ´ Ð½ÐµÐµ
ĠÐºÐ¾ÑĢÐ°Ð± Ð»Ñı
ĠÐ±Ð¾Ð» Ð¸
ĠÐ½ÐµÐ´ ÐµÐ»Ð¸
ĠÑģÐ¼ Ð¾Ð¶
ÐµÐº Ð¾Ð¼
ĠÐ»Ð¸Ñĩ Ð½Ð¾
Ð°Ð²ÑĪ Ð°Ñı
ÑĩÐ¸Ðº Ð¾Ð²
ĠÐ¾ÑĤ ÑģÑĤ
Ð°ÑĤÑĥ ÑĢÐ°
ĠÐŀ Ð»ÑĮ
ĠÐ¿ÑĢÐ¸Ñĩ ÐµÐ¼
Ð°Ð¹ÑĤÐµ ÑģÑĮ
ÑĢ ÐµÐ»
ĠÐ³ÑĢ ÐµÑħ
ĠÐ¿Ð¾Ð¿ ÑĢÐ°Ð²
ÑĢÐµÐ´ Ð¾ÑĤÐ¾Ñĩ
ĠÑĤÑİ ÑĢÑĮ
ĠÐ± Ð¸ÑĤ
ĠÐŁ ÐµÑĢÐµÐ´
ĠÐ³ Ðµ
ĠÐº Ð¸Ð½
ĠÐ¿ÑĢÐ¸ÑģÑĤ ÑĥÐ¿
ĠÑĦ Ð°Ð½ÑĤ
Ñı Ðº
ĠÐºÐ¾ÑĢÐ°Ð± Ð»ÑĮ
ĠÐ½ÐµÐ±Ð¾Ð»ÑĮÑĪ Ð¾Ð¹
ĠÑĩ ÐµÑģÑĤÑĮ
ÐºÑĥ Ð¿
ĠÐĿ ÐµÐ¼
ĠÐ´ ÑıÐ´
ĠÐ¾Ð´ Ð½Ð¾Ð¼Ñĥ
ĠÐ²Ñĭ ÑĤÐ°Ñī
ĠÐ¾Ð´ Ð¸Ð½Ð¾
ĠÐ¿ÐµÑĢ ÐµÐ»
ĠÐ±Ð¾Ð»ÑĮÑĪ Ð¸Ð¼
ĠÐºÐ¾Ð¼Ð°Ð½Ð´ Ð¸ÑĢ
Ð¾Ð· Ñĭ
ĠÐ²ÑĢÐµÐ¼ ÐµÐ½Ð°
ĠÐŃ ÑĢ
ĠÐ» Ð°ÑģÐº
ĠÐ°Ð²ÑĤÐ¾Ð¼ Ð°ÑĤ
ĠÐł Ð¾Ð¼
ĠÐ² ÑĢÐµÐ´
ĠÐ¾ Ð¿ÑĢ
ĠÐ¡ ÑĤÐ¾
ĠÐ¿ÑĢÐ¸Ñģ Ð¾ÐµÐ´Ð¸Ð½
ĠÐºÐ°Ðº Ð¾Ð¼
Ð°ÑĤ ÐµÐ»ÐµÐ¼
ĠÐ¿Ð¾Ð»ÑĮÐ· Ñĥ
ĠÑĢÐ°Ñģ ÑħÐ¾Ð´
Ð¾Ð¿Ð¾Ð» Ð¾Ð¶
ĠÐ½Ð°ÑĪ Ð»Ð¸
Ġ2 7
ĠÐ¿Ð¾Ð½ÑıÑĤ Ð½Ð¾
ĠÐŃ Ð»
Ġ ĠĊ
ÑĤ Ð¸Ð²
ĠÐĿ Ð°Ñĩ
ÐµÐ³Ð¾ ÑĢ
Ð¸Ð»Ð» ÐµÑĢ
Ð¸Ð² Ð°ÑİÑĤÑģÑı
ĠÑĦÑĥÑĤ Ð±Ð¾Ð»
Ð½Ð° ÑģÑĤ
ĠÐ²Ð· ÑĢÐ¾Ñģ
ĠÑģÑĤ ÑĢÐ°ÑģÑĤ
ĠÐ¿Ð¾ÑģÑĤ ÐµÐ¿ÐµÐ½Ð½Ð¾
ĠÐ¸ Ñī
ĠÐ¿ ÑĥÐ³
ĠÑĩÐµÐ»Ð¾Ð²ÐµÐº Ñĥ
ĠÐ´Ð¾Ðº ÑĤÐ¾ÑĢ
ĠÐĲ Ð»ÐµÐº
ĠÐĳÐ¾Ð³ Ð°
ĠÐ¿Ð¾Ð´ ÑĢÐ°Ð·
ĠÐ¾Ðº Ð½Ð¾
Ġ2 8
ĠÐ½Ðµ Ñĳ
ÂłÐľ Ñĭ
ĠÑģÐ¼Ð¾ÑĤÑĢ ÐµÐ»Ð°
ĠÑģÑĤÐµÐ½ Ðµ
ĠÐĿ Ð°ÐºÐ¾Ð½ÐµÑĨ
ĠÑĨÐµÐ½ÑĤ ÑĢÐµ
ÐµÑĢÐ± ÑĥÑĢ
ĠÐĺ Ð»ÑĮ
ĠÐ¿ÑĢÐ¾ÑĤ ÑıÐ½ÑĥÐ»
ĠÐ¾ÑĤÑĢ Ð¸ÑĨ
* *
ĠÐ±ÐµÐ· ÑĥÐ¼
ĠÐ¡ Ð¸ÑĢ
Ð»Ñı Ð»ÑģÑı
ĠÑĥÑģÐ»ÑĭÑĪ Ð°Ð»
ÑĦ ÐµÑĢ
ĠÐ½ÐµÐ´ Ð¾
ĠÐĲ Ñħ
ĠÐ¿ Ð¸Ñī
ĠÐŃ Ð¹
ĠÑĢÐ¾Ð´ ÑģÑĤÐ²ÐµÐ½
ĠÑĢÐ°Ð´ Ð¾ÑģÑĤ
ĠÐ¿Ð°Ð»ÑĮ ÑĨÑĭ
ĠÑģÑĩÐ¸ÑĤ Ð°ÑĤÑĮ
ĠÐ²Ð¾Ð´ Ð¾Ð¹
ĠÐ» Ð°Ð¿
ĠÐ¿Ð¾Ñģ Ð°Ð´
ÑĳÑĤ ÑģÑı
ÑĮ ÐµÐ¼
ĠÑģÐ» ÑĥÑħ
ĠÐºÐ¾ ÑĦÐµ
Ð°Ð´ Ð¾Ð±
ÑıÐ± ÑĢÐµ
ĠÐ½ÐµÐºÐ¾ÑĤÐ¾ÑĢ Ð¾Ðµ
âĢ ĥ
ÑĥÐ¼ Ð°
ĠÐŁÑĢ Ð¸Ð¼
ĠÐ¸Ð½ÑĦÐ¾ÑĢÐ¼Ð° ÑĨÐ¸Ñİ
ĠÐ¼ÑĥÐ¶ Ð°
Ð¸Ð´ Ñĥ
ĠÑĥÑģÑĤ Ð°Ð»
Ðĺ ÐĲ
ĠÑĨÐµÐ»ÑĮ Ñİ
ĠÐ²ÐµÑģ ÐµÐ»
ÑĢ Ð¾ÑĪ
ÂłÐŀ Ð½
Ð°Ð½ Ð´Ð°
ĠÐ½ÑĥÐ¶ Ð½Ð°
Ð¾ÑĤ Ð¾Ð²
ĠÑĤ ÐµÑģ
ÑĢÑĥ Ñģ
ÐµÑĢ ÐµÐ·
Ð± Ð»
ĠÐ²ÐµÐ´ ÑĥÑī
ÑĥÑİ ÑģÑı
ĠÐ´ ÑĭÑĪ
ĠÐ´Ð¾ÐºÑĥÐ¼ ÐµÐ½ÑĤ
ĠÐĶÐ¶ ÐµÐ¹
ĠÐ·Ð°Ð³ Ð¾Ð²Ð¾ÑĢ
ĠÐ¼ÐµÑģÑı ÑĨÐ°
Ġ2 1
ĠÐ±Ð¾Ð»ÑĮÑĪ ÑĥÑİ
ĠÐ¢Ð°Ðº Ð¶Ðµ
ĠÐ² ÑĢÑıÐ´
ĠÐ½Ð°Ð´ Ðµ
ĠÐ¡ Ð¾Ñİ
ĠÐ³ÑĢÑĥÐ´ ÑĮ
ĠÐºÑĢ Ð°Ñı
ĠÐ½Ñĭ Ð½ÐµÑĪ
ĠÐ£ÐºÑĢÐ° Ð¸Ð½Ðµ
ĠÐ¡ ÑĥÐ´
ĠÐ¿ÑĢÐµÐ´ ÑģÐµÐ´
ĠÑĥÑĩ ÐµÐ±
Ġ O
ĠÐŀ Ð»ÐµÐ³
ĠÑģÐµÐºÑĥÐ½ Ð´
ĠÐ·Ð°Ð² Ð¾Ð´
ĠÐ±Ð¾Ð»ÑĮÑĪ Ð¸Ðµ
ĠÐ°Ð±ÑģÐ¾Ð»ÑİÑĤ Ð½Ð¾
ĠÐº ÑĥÑĩ
ĠÐ·Ð°Ð¼ÐµÑĤ Ð¸Ð»Ð°
ĠÐ²Ð°ÑĪ Ð¸
ĠÐ¼Ð½Ð¾Ð¶Ðµ ÑģÑĤÐ²Ð¾
ĠÐ¿Ð¾ ÑıÑģÐ½
ÐĿ Ñĥ
ĠÐ²Ð¾Ð¹ Ð½Ð°
Ð¸Ðº Ð°Ð¼Ð¸
ĠÐ½Ð¸ÐºÐ°Ðº Ð¾Ð¹
ĠÐ¢ Ð¾Ð»
ĠÑĥÐº ÑĢÐµÐ¿
Ð» ÐµÐ·
ĠÐ¼Ð¸Ð½ Ð¸Ð¼
Ð¾ÑģÑĤ Ð¾ÑıÑĤÐµÐ»ÑĮ
ĠÐºÐ¾Ð¼Ð¿ Ð°Ð½Ð¸Ñı
Ñĥ Ð»Ð°
Ð¹ ÑĤÐµ
Ð¸Ð½ ÐºÐ°
ĠÐ¿ÑıÑĤ Ð¸
ĠÐ¿ÐµÑĢÐ² ÑĭÑħ
ÐµÐ½ Ñī
Ð¸Ñģ Ð¿
ĠÐ¿ÑĢÐµÑģ Ð»ÐµÐ´
ĠÐ´ÐµÑĢÐµÐ² ÑıÐ½
ĠÐ¾ÑģÐ² Ð¾Ð±
ĠÐ½Ð°Ð¿ ÑĢÐ¾ÑĤÐ¸Ð²
ĠÑĥÑģÑĤ ÑĥÐ¿
ĠÐ¾ÑģÐ½Ð¾Ð² Ð½Ð¾Ð¼
ĠÐ² Ð¼ÐµÑĪ
ĠÐ¼ Ð¸Ðº
ĠÑģÑĤÑĢÐ°Ð½ Ð½Ð¾
ĠÐ¸Ð· Ð¼
ÑĥÐ½ ÐºÑĤ
ĠÑģÐ¾Ð±ÑģÑĤÐ²ÐµÐ½ Ð½Ð¾Ð¹
Ð» ÐµÐ±
ĠÑģÐ¿ ÐµÑĨ
ĠÐĴ Ð·
ĠÐ¿ÑĢÐ¾ ÑģÑĮ
ĠÐŃ Ð¼
ĠÐ¿Ð¾Ð´ÑĤ Ð²ÐµÑĢÐ¶
Ð¸Ð½ Ð¸
ĠÐ¿ÑĢÐµÐ¿ Ð¾Ð´
ÐµÑĢÐ° ÑĨÐ¸Ð¸
ĠÐ¿ÑĢÐ¸Ð± Ð»Ð¸Ð·
ĠÑģ ÑĥÐ´Ð°
Ð¾Ñĩ Ðµ
r a
ÐµÐº Ðµ
ĠÐ¸ÑģÐº ÑĢÐµÐ½
Ðº Ð¾ÑģÑĤÑĮ
ĠÐ¿ÑĢÐµÐº ÑĢÐ°ÑĤ
ĠÑĤÐµÑĢ ÑĢÐ¾ÑĢ
ĠÑĢ Ð¾Ð±
ĠÑĢÐ°Ñģ ÑĪÐ¸ÑĢ
ĠÐ» Ð¾Ðº
ĠÐŁÑĢ Ð¸Ñĩ
ĠÑĥ ÑĪÐµÐ»
Ð°ÑģÑĤ Ñĭ
ĠÐ¨ ÑĤ
ĠÐ¿Ð¾Ð» Ð¸ÑĨÐ¸Ð¸
ĠÐĲ Ð¹
Ð¼ Ð¾Ð¹
ĠÐ²Ñĭ Ð¹ÑĤÐ¸
Ñģ Ð¼
ĠÐĹ Ð°Ð²
ĠÐľ Ð°Ð³
ĠÐ½Ð¸ Ð¶
ĠÑĩ Ð°Ð¹
ĠÑĢÐ°Ñģ Ð¿Ð¾Ð»Ð°Ð³
Ð¸Ð½ ÐºÑĥ
ĠÐº Ð»ÐµÑĤ
ĠÑģÐ² Ð¾Ð´
u t
ĠÐ±Ð» ÐµÐ´
ĠÐ¾Ð´ Ð½Ð°Ð¶Ð´Ñĭ
ĠÐ¿Ð»ÐµÑĩ Ð¸
ĠÐ³ÑĢÑĥÐ¿Ð¿ Ð°
ĠÐ¿ÐµÑĢÐ² Ð¾Ð¼
ĠÐĺ ÑĤ
ĠÑĩÐ°Ñģ Ñĭ
ĠÐ²Ð¾Ð» Ð½
ĠÐĶÐ¼ Ð¸ÑĤÑĢ
ĠÑģÐ¾Ð¿ ÑĢÐ¾ÑĤÐ¸Ð²
ĠÐ¿Ð¾Ð» Ð½Ð¾Ð¹
ĠÐ¿ÑĢÐ°Ð²Ð¸ÑĤÐµÐ»ÑĮ ÑģÑĤÐ²Ð°
Ð°Ð½ Ð½ÑĥÑİ
ĠÐ»Ð¸Ð½ Ð¸Ð¸
ĠÐĲÐ½ Ð³Ð»Ð¸
ÐĴ ÐĲ
ĠÐ¼Ð¸Ð½ÑĥÑĤ Ñĭ
ÑĪ ÐµÐ´
ĠÐ²ÐµÑĢ Ð½Ð¾
ĠÐķ Ð¹
Ð°ÑĤÐµÐ»ÑĮ ÑģÑĤÐ²Ð¾
ĠÑĤ ÑĢÑĥÐ¿
ĠÑĥ Ð¹ÑĤÐ¸
ĠÑģÐ¾ÑģÑĤÐ°Ð² Ðµ
ÑĨ Ð²ÐµÑĤ
ÑĨ Ð°Ñħ
Ð°ÑĤ ÐºÐ¸
ĠÐ¾Ð± ÐµÐ´
Ð¸Ð¼ Ð°Ñı
ĠÑĦ Ð¸ÑĢ
ĠÑĥÑģÐ¼ÐµÑħ Ð½ÑĥÐ»ÑģÑı
ĠÑĤ Ð°Ð»
ĠÐĴÐ¸Ðº ÑĤÐ¾ÑĢ
ĠÐ¸ Ð´Ð¸
ĠÐ¾ÑģÑĤ Ð°Ð»Ð¸ÑģÑĮ
Ð½Ð¾ Ñĩ
ĠÐº Ð»Ð¸Ð½
ĠÐŁ Ð¾Ð²
Ð°Ð½Ð´ Ð¸Ð´
Ñī Ð¸ÐºÐ¾Ð²
ĠÐ³ÑĢÐ¾Ð¼ ÐºÐ¾
ĠÐ²Ð¿ÐµÑĢ ÐµÐ´Ð¸
ĠÐĴ Ð°ÑĢ
ĠÐ³Ð»ÑĥÐ± Ð¾ÐºÐ¾
ĠÐºÐ°Ð¶Ð´ Ð¾Ð¹
ĠÑĤ Ð²ÐµÑĢÐ´
ĠÑģÐ»ÑĥÐ¶ Ð±Ñĭ
ĠÐĿÐµ ÑĥÐ¶ÐµÐ»Ð¸
ĠÐ¿Ð¾ ÑĪÐ»Ð¸
ĠÐ¿Ð¾Ð¿ÑĭÑĤ Ð°Ð»ÑģÑı
ĠÐ¿ÑĢ ÐµÐ±
ĠÑģÐ´ÐµÐ» Ð°Ð»Ð¸
ĠÐ¡ ÐµÐ³Ð¾Ð´Ð½Ñı
ĠÑħ Ð²Ð¾ÑģÑĤ
ĠÐ²Ð¾Ð·Ð´ÑĥÑħ Ðµ
ÐŁÐ¾Ñģ Ð»Ðµ
Ñģ ÐµÐ³Ð´Ð°
ĠÐ² Ð¾Ð½
ĠÑģÐ¿ Ð¸Ð½Ñĥ
Ðº Ð¸Ð½Ð°
ĠÐ¿Ð¾ÑĤ ÑĢÑıÑģ
ĠÐ¼Ð¸Ð½ Ð¸ÑģÑĤ
Ñı Ð»Ð¾
ĠÐ£ Ð¶Ðµ
ĠÐ½ÑĥÐ¶ Ð½Ñĭ
ĠÐ½Ð°Ñĩ Ð°Ð»Ð¾
i e
ÑĥÑİÑī Ð¸Ð¹
ĠÐ±Ð¾Ð»ÑĮÑĪ Ð°Ñı
Ð»Ð¾ Ñħ
ĠÑĪ Ð»Ð°
ĠÐ¿Ð¸Ñģ Ð°Ð»
ĠÑĦÐ¾ÑĢÐ¼ Ðµ
Ð°Ð± ÑĢ
Ð¾Ð² Ð¾Ðµ
ĠÐ²ÑĭÑĢ Ð²
ĠÐ¿Ð¾ Ð¸Ð½ÑĤÐµÑĢÐµÑģ
Ð»Ñı ÑİÑī
Ðŀ ÐĿ
ĠÑģÐ» Ð°Ð´
ĠÐ½Ð°Ðº Ð»Ð¾Ð½
ĠÐ·Ð½Ð°Ñĩ ÐµÐ½Ð¸Ðµ
ĠÐ½Ð¾Ð³ Ð°Ð¼Ð¸
ĠÐ±ÑĢÐ°ÑĤ Ð°
ĠÐ¿Ð¾ ÑıÑģ
Ñģ Ð»Ñı
Ð¼ Ð¾Ñģ
ĠÑĩ Ð°ÑīÐµ
ĠÐ¾ÑģÐ² Ð¾Ð±Ð¾Ð´
ĠÐŁÐµÑĤ ÑĢ
ĠÐ´Ð¾ÑĢ Ð¾Ð¶
ĠÑĤÑĢÑĥ Ð´Ð°
ĠÑĢÐ°ÑģÑĤ ÐµÑĢ
ĠÐ²Ñĭ Ð¹
ĠÐ´ÑĥÑĪ Ñĥ
ÐµÐ»Ð° ÑģÑĮ
ĠÐŁ Ð¾Ð¿
ĠÐ» ÐµÑĩ
ĠÐº Ð°Ð»
ĠÐ¿ÑĢ ÐµÑĤ
Ðº Ð½ÑĥÐ»Ð°
ĠÑĢÐ°Ð·Ð¼ ÑĭÑĪ
Ð¸ÑģÐº Ð¸
ĠÐº Ð°ÑĦ
ĠÐ½ÐµÐ¿ ÑĢÐ°Ð²
Ð¸ÑĩÐµÑģÐº Ð¸Ð¼Ð¸
Ð¸Ð½ Ð´
ĠÐ¿Ð¾ÑıÐ² Ð¸Ð»Ð°ÑģÑĮ
Ð¿ÐµÑĢ Ð²
ĠÐĴ Ð°Ð¼
ĠÐĴ Ð¼ÐµÑģÑĤ
ĠÑįÑĤ Ð°Ð¿
ĠÐ¾ÑĤÑĤ ÑĥÐ´Ð°
ĠÑģÑĤÑĢÐ°ÑĪ Ð½Ð¾
ĠÐ¿Ð» Ð°Ð²
ĠÐ¸Ð· Ð²Ð¸Ð½
ĠÑĢÑĥ ÐºÐ°
ĠÐ¥ Ð°ÑĢ
ĠÑĥÐ¿ Ð¾ÑĢ
u m
ĠÐ²ÐµÑĢ Ð¾ÑıÑĤÐ½Ð¾
ĠÐ¾Ñģ Ð¼Ð¾ÑĤÑĢ
ĠÑı Ð¿Ð¾Ð½
Ġ J
Ð¸Ð½ ÑģÐºÐ¾Ð¹
ĠÐºÐ¾Ð½ ÐºÑĥÑĢ
ĠÐļ Ð°Ð¶Ð´
ĠÑĩÐµÑĤÑĭÑĢ ÐµÑħ
ĠÐ¿Ð¾Ð³Ð¾Ð²Ð¾ÑĢ Ð¸ÑĤÑĮ
Ð°Ð¹ Ð´
ĠÐºÑĥÑĢ Ñģ
Ð³ Ð½
ĠÐ¿Ð¾ ÑģÑĤÑĢÐ°Ð´
ĠÐ¾ÑĢÑĥÐ¶ Ð¸Ñı
ÑĥÑİÑĤ ÑģÑı
ĠÐ´ Ð¾ÑĪ
ÑĥÑİ ÑīÐµÐµ
ĠÐ¿ Ð»Ñİ
ĠÐ³Ð¾Ð» Ð¾Ð´
ĠÑĢÐ°ÑģÐ¿Ð¾ÑĢ ÑıÐ¶
ĠÐ¼Ð¾ ÑģÐºÐ¾Ð²
ĠÐ¿ Ð°Ðº
2 4
ĠÐ¾ÑĤÐº ÑĢÐ¾Ð²
Ð¶ Ð°
u l
ĠÑĥÐ³ Ð¾Ð»Ð¾Ð²
ĠÐ½ÐµÐ´ Ð¾Ð²Ð¾Ð»ÑĮ
ĠÐ²Ð¾Ð´ Ð°
ĠÑĥÐ± Ð¸ÑĤÑĮ
Ðľ Ðĺ
ĠÐ¶ Ð¸ÑĤÐµÐ»ÐµÐ¹
ÐµÐ½ ÑĨÐ¸
Ð¸Ð½ ÑģÐºÐ¸Ð¹
ĠÐ³Ð»Ð°Ð² Ð°
ĠÑĢ ÐµÑģ
ÑĢ ÐµÑģÑģ
ĠÐĵ Ð¾Ð²Ð¾ÑĢ
ĠÐ¾ÑĤ ÑĢÑıÐ´
ĠÐ²Ð¾ÑģÐº ÑĢÐµÑģ
ĠÐ§ ÐµÐ¼
ĠÐĿ Ð°Ñģ
ÐŁ ÑĢÐ¸
Ð¾Ð²Ð°Ð½ Ð¸Ð¹
Ð½Ñı Ð¼Ð¸
ĠÐ¿ÑĢÐ°Ð² Ð¸Ð»ÑĮ
Ð¸Ð½ ÑģÐºÐ¾Ð³Ð¾
ĠÐ¾Ñī ÑĥÑĤ
ĠÑĢÐ°Ð· Ð½Ð¾
ĠÑį ÐºÐ¸Ð¿
ĠÐ¼ÑĥÐ· ÑĭÐº
ĠÐ²Ð¾ ÑĪÐµÐ»
ĠÐ½Ðµ Ð¾Ð±ÑĭÑĩ
ÐĴ ÐĶ
ĠÐĿ ÑĮÑİ
ĠÐ¿Ð¾Ðº Ð¾Ð»
ÑģÑĤÐ² Ð°Ñħ
ĠÐ´ ÐµÐ´
ĠÐ¿Ð¾ÑĢ Ð°Ð·
ĠÐ±ÑĭÑģÑĤÑĢ ÐµÐµ
ĠÐ´ÑĢÑĥÐ· ÐµÐ¹
ĠÐ·Ð° Ð¸Ð½ÑĤÐµÑĢÐµÑģ
Ð¸Ðº Ñģ
ĠÐ°Ðº ÐºÑĥ
Ð°Ð½ ÑĤÐ¾Ð²
ĠÐĵÐ°ÑĢ ÑĢÐ¸
ĠÐ¸Ð¼ Ð¸
ĠÑģÐ¾Ñģ ÑĢÐµÐ´Ð¾ÑĤÐ¾Ñĩ
ĠÑģÐ¾Ð±ÑĭÑĤ Ð¸Ð¹
ĠÐŁÐ¾Ñģ Ð»ÐµÐ´
Ñĥ ÐºÐ¾Ð²
Ð¾Ð² Ñĭ
ĠÐ¸Ð³ÑĢ Ð°ÑĤÑĮ
Ð¸Ð¼ Ð¾Ð¹
ĠÐ¿Ð¾Ð»ÑĥÑĩ Ð¸Ð»Ð¸
Ð½ Ð¸Ð»
ĠÐ¾ÑģÑĤÐ°Ð² Ð°Ð»Ð¾ÑģÑĮ
ĠÐºÑĢÐ¾Ð² Ð°ÑĤÐ¸
ĠÐ¿Ð¾Ð· Ð½Ð°ÐºÐ¾Ð¼
ÑĥÑīÐµ Ðµ
Ð¾ ÑĨÐ¸
ĠÑĥ ÑģÑĤÑĢÐ¾Ð¹
ĠÐ²Ð¾Ð» ÑĪÐµÐ±
ĠÐ³Ð¾Ð´ Ð¾Ð²
ĠÐ½ Ð°Ð»Ð¸Ñĩ
ĠÑĪÐºÐ¾Ð» Ñĭ
ĠÑĥÐº ÑĢÐ°ÑĪ
Ġ4 0
ÐµÐ»Ð¾Ð² ÐµÐº
ĠÑģÐºÐ°Ð· Ð°Ð»Ð¸
e m
ÑıÑī Ð¸Ðµ
ĠÐ½ÐµÑĩ ÐµÐ³Ð¾
ĠÐ¿ÑĢÐ¸ÑħÐ¾Ð´ Ð¸ÑĤÑģÑı
ÐŁ ÐµÑĤ
ĠÐĹ Ð°ÑĩÐµÐ¼
ĠÐ² ÑĤ
ĠÐ¿Ð¾Ð´ Ð½Ñı
ĠÐł Ñĥ
Ð¼ Ð¾Ð½
Ð¸Ð¹ ÑģÐºÐ¾Ð³Ð¾
ĠÑĥÐ¿ Ð¾Ð¼Ð¸Ð½
Ðº Ñģ
ÐµÐ½ Ð½Ð¾Ð¼Ñĥ
ĠÑģÐ¸ÑĤÑĥÐ° ÑĨÐ¸Ñı
Ð° ÐµÐ²
ĠÐ° ÑģÑģ
ĠÐ¸Ð½ ÑĦ
ĠÑħÐ¾ÑĤ ÐµÐ»Ð¸
ĠÑĩÑĥÐ² ÑģÑĤÐ²Ñĥ
ĠÐ¿Ð¾ÑĢ Ð°
ĠÐ¾ÑģÐ² ÐµÑī
ĠÐ» Ð°Ð±
ĠÑĨÐµÐ» Ð¾Ð¼
ĠÐĽ Ð¾Ð½Ð´
Ð¿ Ð»
ĠÐ·Ð°Ð¿ÑĢ ÐµÑī
Ð°ÑĤÐµÐ»ÑĮ Ð½Ð¾Ð¹
ĠÐ¼ Ñĥ
ĠÑĩ Ð¸Ð½Ð¾Ð²
ĠÑĤÑĭ Ñģ
ÐµÐº ÑĤÐ¾Ð²
ĠÐ²Ñĭ ÑĪÐ»Ð¸
ĠÐ²ÑģÐ¿Ð¾Ð¼Ð½ Ð¸Ð»
ĠÐĲ Ð»Ð¸
ĠÑģÐ²ÑıÐ· ÑĮ
Ð¾Ñģ ÑħÐ¾Ð´
Ð¾Ð²Ð°Ð½ Ñĭ
ĠÑģ ÑĥÑī
Ð¿ÑĢ ÑıÐ¼
ĠÐ·Ð°Ð² ÐµÐ´
ĠÑĥÑĤ ÑĢÐ¾
ĠÐ·Ð² ÑĥÐº
Ð± ÐµÑĢÐ³
ĠÐ²Ð¸Ð´ Ð¾Ð¼
ĠÐ¿Ð¾Ð¶Ð°Ð»ÑĥÐ¹ ÑģÑĤÐ°
ĠÐºÐ¾ÑĢ Ð¾Ð»Ñı
ĠÐ¿Ð¾Ñģ Ð²ÑıÑī
Ð¾Ð² Ð°Ð»Ð¸ÑģÑĮ
ĠÑĢÐ°Ñģ ÑģÐ»ÐµÐ´
ĠÑĤÐ² Ð¾Ñı
ĠÑįÑĤ Ð¸Ð¼Ð¸
ÐĴ Ñĭ
ĠÑģÐ¾Ð±ÑĭÑĤ Ð¸Ñı
ĠÐľ ÐµÐ´
ĠÑģÑĤÐ¾Ð» Ð¾Ð¼
Ð¢ ÐĲ
ĠÑĢÑĥÑģ ÑģÐºÐ¸Ñħ
ĠÐ·Ð½Ð° ÑİÑĤ
ĠÑĥÐ¼ Ð¸ÑĢ
ĠÑĩÐ¸Ñģ Ð»Ð¾
ÑĮ ÐµÑĢ
ĠÐĺ Ð¸Ñģ
ĠÐ¼ Ð¸Ð»Ð¸
ĠÐ¼ Ð¸ÑģÑĤ
ĠÐ¿ÑĢÐ¾Ðº ÑĥÑĢ
ĠÐ·Ð°Ñģ ÐµÐ´
ĠÐ¿ÑĢÐ¾ÑĪ Ð»Ð¾Ð¼
ĠÐ¼ ÑĥÑģ
ĠÐ´ Ð°ÐµÑĤ
ĠÑĥÑĢÐ¾Ð² Ð½Ðµ
ĠÐ³ Ð°Ð´
ĠÐ´ÐµÐ» Ñĥ
ĠÐ» Ð¾Ð¼
ĠÐ± ÑĢÐ¾Ð²
Ġt o
Ð¾Ð» ÐµÐ¿
ĠÐ²Ð¾Ð¹ ÑģÐºÐ°
ĠÐĵ Ð°Ð»
ĠÐºÐ¾Ð½ÑĤÑĢ Ð¾Ð»
Ð¾Ð² Ð°Ð»Ð¾
Ð¾Ð± Ð½Ð¾
Ð¾Ð¶Ð°Ð» ÑĥÐ¹
Ð°Ð² Ð°Ñı
ÂłÐķ ÑģÐ»Ð¸
Ð¸ÑĢÐ¾Ð² Ð°Ð»Ð°
ĠÑģ Ð¸ÑĢ
ÐµÐ½ÑĮ Ñİ
ĠÐ±Ð¾Ð»ÑĮÑĪÐ¸Ð½ ÑģÑĤÐ²Ð¾
ĠÑİ Ð¶
ĠÑģÐ»ÑĥÑĩÐ°Ð¹ Ð½Ð¾
Ð½Ð¸ÑĨ ÐµÐ¹
ĠÐ¸Ð½ÑĤÐµÑĢÐµÑģ Ð½Ð¾
Ð½Ñı ÐµÑĤ
ĠÐ½Ð°Ð¿Ð¸Ñģ Ð°Ð»
ĠÐ¿Ð¾ Ñį
ÑĮÑı Ð¼Ð¸
ĠÐºÐ½Ð¸ Ð¶
ĠÐ³Ð¾ Ð½
ĠÐ²Ð¾Ð· ÑĢÐ°Ð·
ĠÑĥÐ± Ð¸ÑĤ
ĠÐ±ÐµÑģÐ¿ Ð¾ÐºÐ¾Ð¹
ĠÐ·Ð° ÑĪ
ĠÐ´ÐµÐ² Ð¾ÑĩÐºÐ°
ĠÐĿÐ¸Ðº Ð¾Ð»Ð°
ĠÐ½Ð°ÑĪ Ñĥ
ĠÐ¾ÐºÐ¾Ð½Ñĩ Ð°ÑĤÐµÐ»ÑĮÐ½Ð¾
ĠÐ¿Ð¾ÑĤ Ð¾Ð»
ĠÑģÐ¾Ð¾ÑĤÐ²ÐµÑĤ ÑģÑĤÐ²ÑĥÑİÑī
ĠÐĴ Ð°ÑĪ
ĠÐķÐ²ÑĢÐ¾Ð¿ Ñĭ
Ð¸Ð±Ð»Ð¸ Ð¾ÑĤ
ĠÐ½Ð°Ð¿ Ð¾Ð¼Ð½
ĠÐºÐ¾Ð¼ Ð¼ÐµÐ½ÑĤ
ĠÐ²Ð¾ ÑģÑĮ
ĠÐ¾Ð±ÑĬ ÐµÐºÑĤ
ĠÑģÑĥÐ¿ ÑĢÑĥÐ³
ĠÐ¢Ð°Ðº Ð¸Ð¼
ĠÐ¿Ð»Ð°ÑĤÑĮ Ðµ
ĠÐ» ÐµÐ·
ĠÐ·Ð°Ð¼ ÐµÑĢ
ĠÐ²Ð¿ÐµÑĩÐ°ÑĤ Ð»ÐµÐ½Ð¸Ðµ
ĠÐ²Ñĭ ÑģÑĤÑĢÐµÐ»
ÑģÐºÐ¾ÑĢ Ð±
Ñĩ Ð¾Ð½
Ð² Ð¾Ðº
Ð¶ Ð°Ð»
ĠÐ²ÑģÑı ÐºÐ¸Ð¹
Ñģ Ñİ
ĠÐĲÐ»ÐµÐºÑģ ÐµÐ¹
Ð¸Ð² Ð¸Ð»
ÐµÐ»ÑĮ Ðµ
ĠÐ¿ÑĢÐ¸Ð½ ÑĨ
ĠÐ½ÐµÐ¿Ð¾Ñģ ÑĢÐµÐ´
ĠÐ¿ ÑĥÐ½ÐºÑĤ
ĠÐ® ÑĢ
ĠÐ¿ÑĢÐ¾ Ð¸Ð³
ĠÑĢÐµÐ¶ Ð¸Ð¼
ĠÐ¿ÑĢÐ¾Ð² ÐµÑģÑĤÐ¸
ĠÐ±ÑĥÐºÐ² Ð°Ð»ÑĮÐ½Ð¾
ĠÐ·Ð½ Ð°Ðº
ĠÑĢÐµÐ´ Ð°Ðº
Ð¿ Ð°ÑĤ
ĠÐ¿Ð¾ ÑĪÐ»Ð°
ĠÐ´Ð¾Ð¼ Ð°ÑĪ
ĠÐ±ÐµÐ· Ð´
Ð°Ð½ ÐºÐ°
i v
ĠÐĿÐ°Ð¿ ÑĢÐ¸Ð¼ÐµÑĢ
Ð¾Ð¶ Ð¸Ð»
ĠÐ½Ð¾Ð² ÑĥÑİ
Ð¸ÑĤÐµÐ»Ñı Ð¼
ĠÑģÐµÐºÑĥÐ½ Ð´Ñĥ
Ð°Ð½Ð¸Ñı Ñħ
ĠÐ± Ð°Ð½Ð´
ĠÐº Ð¸Ñģ
ĠÐ»Ð¸ÑĤÐµÑĢ Ð°ÑĤÑĥÑĢ
ÑĭÐ² Ð°Ð»ÑģÑı
Ð¾ÑĤ Ðº
ĠÑĥÑģÐ»Ð¾Ð² Ð¸Ñı
ĠÐ²ÐµÐ´ Ð¾Ð¼
ĠÐ¾Ð¿ÐµÑĢÐ° ÑĨÐ¸Ð¸
ĠÐŀÑģ Ð¾Ð±
ĠÐ·Ð°Ñģ Ð»ÑĥÐ¶
Ð¾Ðº Ñģ
Ð°ÑĢ Ð¸Ð¹
ĠÐŁ Ð¾ÑģÑĤ
Ð¸ÑĢÐ¾Ð²Ð°Ð½ Ð¸Ðµ
ÐĴ Ð¾
ÐµÑĢ Ñģ
Ð¾Ð» ÐµÐ½
ĠÑģÐº Ð¾Ð»ÑĮÐ·
ĠÐ¼ Ð°ÐºÑģÐ¸Ð¼
Ð°Ð½Ð¸Ñı Ð¼Ð¸
ĠÐ²Ð· ÑıÐ»Ð°
Ð°ÑĢ Ð¸Ð¸
ÑĤÐµÐ½ Ð°Ð½ÑĤ
ĠÐ»ÑİÐ± Ð¸ÑĤ
ĠÐº Ð°Ð´
ĠÑģÐ» Ð¾Ð¼
ĠÐ¾ÑĤÑĩ ÐµÑĤ
ĠÐ¼Ð°Ð»ÐµÐ½ÑĮ ÐºÐ¸Ð¹
ÑĨÐ¸ ÑĦ
ĠÐ¼Ð¸Ð»Ð»Ð¸ Ð¾Ð½Ð¾Ð²
Ð½ Ð°Ð¼
ĠÑĤ Ð°ÑĢ
ĠÐ¾ÑĤÐ½Ð¾Ñģ Ð¸ÑĤÐµÐ»ÑĮÐ½Ð¾
ĠÐ²Ð¾Ð· ÑĮ
ĠÐºÐ¾ÑĢ Ð¾Ð»ÑĮ
ĠÑĢÐ°Ð¹ Ð¾Ð½Ð°
ÑĭÐ² Ð°ÑıÑģÑĮ
ĠÐ·Ð°Ðº ÑĢÑĭÐ²
ĠÑģÑĤÐ°ÑĢ ÑĭÐ¹
ĠÐ·Ð°Ðº ÑĢÐ¸Ñĩ
Ð¸ Ð¾Ð½Ð°
ĠÑı Ðº
Âł Ð¿ÑĢ
ĠÐ² ÐµÐ½
ĠÐºÐ¸Ð² Ð½ÑĥÐ»Ð°
2 2
ĠÐºÐ¾Ð» ÐµÐ½Ð¸
c om
ĠÐ·Ð½Ð°Ð¼ÐµÐ½ Ð¸ÑĤ
Ð½Ð¸ Ñģ
Ð¸Ð² ÐµÑĤ
Ð¸Ð± Ð¸ÑĢ
ĠÐ¾ÑĤ Ð¾Ð·Ð²
ĠÑĢÐ°Ð¼ ÐºÐ°Ñħ
ĠÐºÐ¾ÑĢ Ð¼
ĠÑģ Ð°Ð¿
Ð½Ð¸ ÑĨÐ¸
Ð¾Ð³ ÑĢÐ°Ð¼
ĠÐ¿Ð¾Ð½ Ð°Ð´Ð¾Ð±
ĠÐ´ÐµÐ» Ð°Ð»
ÐµÐ² ÐµÐ»
ÑĪÑĤ Ð°Ð±
ĠÐ¿Ð¾Ðº Ð¾Ð¹
ĠÐ¿ Ð°Ñħ
Ð°ÑĤ ÑĭÐ¹
ĠÐº Ð°Ð½Ð´Ð¸Ð´
ĠÑįÑĦÑĦ ÐµÐºÑĤÐ¸Ð²
Ñĳ Ð·
Ð¸Ð² Ð°ÐµÐ¼
ĠÑĥÐ¿ Ð°Ð»
Ð¸Ñī Ð°
ĠÐ² ÑĬ
Ġ2 9
ĠÐ»ÑİÐ± Ð¸Ð»
ÂłÐľ Ð½Ðµ
ĠÐ·Ð° ÑĤÐ¾
ĠÐĹ Ð½Ð°
ĠÑģÐ°Ð¼ Ð¾ÑģÑĤÐ¾ÑıÑĤÐµÐ»ÑĮ
ĠÐ¼Ð» ÑĢÐ´
ĠÑģÐ¾Ð³Ð»Ð°Ñģ Ð½Ð¾
ĠÐºÐ¾ÑĢ ÑĢ
ĠÐ²Ð°ÑĪ ÐµÐ³Ð¾
ĠÐ¿Ð¾Ð¿ÑĢÐ¾Ñģ Ð¸Ð»
ĠÐ²Ð¾Ð·Ð± ÑĥÐ¶Ð´
ĠÑĤÑĢÐ°Ð½ÑģÐ¿ Ð¾ÑĢÑĤ
ĠÑģÑĤÐ°ÑĢ Ð¸Ðº
ÐµÐ² Ð¾
ĠÐ¾ÑĤÐº Ð°Ð·ÑĭÐ²
Ð½Ð¾Ð³ Ð¸Ðµ
ĠÐ³Ð¾Ð»Ð¾Ñģ Ð°
ĠÐľÐ¾ÑģÐº Ð¾Ð²
Ð¼ Ð¸Ð³
ĠÐ»ÐµÐ¶ Ð°Ð»
Ð¾ÑĢ ÑĥÑģ
ĠÑģ Ð¸Ñı
ĠÐ¼Ð°Ð»ÑĮÑĩ Ð¸ÑĪ
ĠÐĿÐ¸ÐºÐ¾Ð» Ð°Ð¹
ĠÐ¢ ÐµÐ±Ðµ
ĠÐļ Ð°Ð»
ÑģÑĤÑĢ ÐµÐ±
Ð¸Ð¿ Ð»Ð¾Ð¼
ĠÑĤÑĢ Ð¾Ð¿
ĠÑģÑĢÐµÐ´ ÑģÑĤÐ²Ð°
ĠÐ¾ ÑĤÐ¾ÑĢ
ĠÐ¼Ð½ ÐµÐ½Ð¸Ðµ
ÐµÑħ Ð°Ð»Ð¸
) ;
ÑģÐ¿ ÐµÐºÑĤÐ¸Ð²
ĠÐºÐ¾ÑĢ Ð¾Ð±
ÑĢÐ°ÑĤ ÐµÐ³
ĠÐ·ÑĥÐ± Ñĭ
Ðł Ð°Ð·
Ñı Ð½ÑĥÐ»Ð°
ĠÑĥÑģÑĤ ÑĢÐ°
Â» ?
Ð¾Ðº Ð¾Ð²
ĠÐ²Ð¾ÑģÐ¿ Ð¾Ð»ÑĮÐ·
ĠÐĶ Ð°Ð½
ĠÑĢÐ°ÑģÑģ Ð¼Ðµ
Ð¸Ð² Ð°Ð»Ð°ÑģÑĮ
ĠÐ¿ÑĢÐ°Ð² Ð¸Ð»
ĠÐĿÐ¸Ðº ÑĤÐ¾
ĠÐ¾ÑĤ ÑģÑĤÐ°Ð²
ĠÑģÐ°Ð¼ Ð°Ñı
ĠÐ¼Ð½Ð¾Ð³Ð¾ ÑĩÐ¸Ñģ
ÐµÐ½ÑĮ ÐºÐ°
ĠÑĥÐ¼ Ðµ
Ġ U
ĠÐ¾Ð±ÑĬÑıÑģÐ½ Ð¸ÑĤÑĮ
ĠÑģÑĤ Ð°Ð´
Ð»Ð¸Ñĩ ÐµÑģÐº
ĠÐ¿ÐµÑĢÐµÐ´ Ð°Ñĩ
ĠÐ¾Ð·Ð½Ð°Ñĩ Ð°ÐµÑĤ
ĠÐ¾Ðº Ðµ
ĠÐ¿Ð¾ÑĢÑıÐ´ Ð¾Ðº
ĠÐ° Ð¼
ĠÑĤÐ²Ð¾ ÐµÐ¹
ÐµÐ»ÑĮ Ð½Ð¾
Ð³Ð¸ Ð¾Ð·
ĠÐ¾ ÑĤÐ¾
ĠÐ¿ÐµÑĢ ÐµÑĩ
ĠÐ¢ Ð¾ÑĢ
Ð¾Ñħ Ð¾Ð¶Ðµ
ĠÐ´ÑĭÑħ Ð°Ð½Ð¸Ðµ
. -
ĠÐ¢ ÐµÑĢ
ĠÐ¿Ð¾ÐºÐ°Ð· Ð°Ð»
ĠÐ¾Ð± Ð¸ÑĤ
ĠÑĥÐ»ÑĭÐ± ÐºÐ¾Ð¹
Ñĥ ÑģÐ»Ð¾Ð²
ÑĥÑİÑī Ð¸Ñħ
ĠÑĤÐ°Ðº Ð¸Ð¼Ð¸
ĠÐ¿ÐµÑĢÐµÐ´ Ð°ÐµÑĤ
ĠÐ¿Ð°Ð¼ ÑıÑĤÑĮ
ĠÐ´Ð¾ÑģÑĤ Ð¾Ð¹
ĠÐĲ Ð¼
Ð° ÑģÑĮ
Ð¾Ð³Ð»Ð°Ñģ Ð½Ð¾
Ð¶ Ñĥ
ĠÑĢÐ°Ð·Ð»Ð¸Ñĩ Ð½ÑĭÑħ
ĠÑĤ ÑĥÐ¿
Âł -
Ð³ ÐµÑĢ
ĠÐļ Ð°Ð½
ĠÐ²ÑĤÐ¾ÑĢ Ð¾Ð³Ð¾
ĠÐ¼Ð°ÑĪ Ð¸Ð½Ð°
ÑģÐ» ÑĥÑĪ
ĠÐ¿Ð¾Ð´ Ð´
ĠÐ¿Ð¾Ð¿ ÑĥÐ»ÑıÑĢ
Ð¼ Ð¾Ð¼
ÂłÂł Âł
ĠÐ¸Ð½ Ð²ÐµÑģÑĤ
ĠÑĥÑĢÐ¾Ð² Ð½Ñı
ĠÐ¿ÑĢÐ¾Ð² ÐµÐ»
Ð¾Ð½ Ð°Ñĩ
ĠÐ¸ Ð»
ĠÐ½Ð°Ð± Ð»Ñİ
Ð°Ñģ Ð¿
ĠÐºÑĢ ÐµÐ´
ĠÐĶ Ð°ÑĢ
Ð»ÑĮ ÑĦ
Â °
ĠÐ¼ ÑĥÐ´ÑĢ
ĠÑģÑĤ Ð¾Ð¹
ÐµÑģÐ¿ÑĥÐ±Ð»Ð¸ ÐºÐ¸
ĠÑĢÐ°Ð· Ð¾Ð±ÑĢ
Ð¸ÑĤÐµÐ»ÑĮ Ð½ÑĥÑİ
ĠÐ¼Ð¾Ð» Ð¸ÑĤ
ĠÑĦ Ð»
ĠÑģÐ¿ Ð¸Ñģ
ĠÐº Ð¸ÑĤÐ°Ð¹
ĠÐļ Ð°Ð¿
ĠÑĪÑĤ ÑĥÑĢ
ĠÑģÐ¾Ð±Ð¸ÑĢ Ð°Ð»ÑģÑı
ÐµÑģÐº Ð¾Ð»ÑĮÐºÐ¾
ĠÐ¿ÑĢÐ¾Ð³ Ð¾Ð²Ð¾ÑĢÐ¸Ð»
ĠÑħÐ²Ð°ÑĤ Ð¸ÑĤ
ĠÐ½Ðµ ÑĥÐ´Ð°
ĠÐ¿ÑĢÐ¸ÐºÐ°Ð· Ð°Ð»
] .
ĠÐ½Ð¾Ð² Ð¾Ðµ
ÐĿ Ðĺ
ĠÐ·Ð°Ð² ÐµÑĢ
ĠÐ± ÑĢÐ¸Ð³
ĠÑıÐ·Ñĭ ÐºÐµ
ĠÐ²Ð¾ÑģÐ¿ Ð¸ÑĤ
ĠÐ¿Ð» Ð°Ðº
ĠÐĽ ÐµÐ²
ĠÐ²Ð¾ ÐµÐ½Ð½ÑĭÑħ
ĠÐ½Ð°ÑĩÐ¸Ð½ Ð°ÐµÑĤ
ĠX V
ĠÐ¾ÑĤ ÑĢÑı
Ð¾Ð» Ð²
ĠT he
ĠÐ° Ð³ÑĢ
ĠÐ¼ÐµÑģÑĤ Ð°Ñħ
ÐµÐ¶ Ð°Ð»Ð°
ÐĿ ÐµÑĤ
ĠÐ¾Ð± ÑģÑĤÐ°Ð½Ð¾Ð²
ĠÐ¿Ð¾ÐºÐ°Ñĩ Ð°Ð»
ĠÐ¿Ð¾Ð² ÐµÐ»
Ð»Ñı ÐµÐ¼
ÑĭÐ² Ð°Ñİ
ĠÐ¾ÑĤÐ»Ð¸Ñĩ Ð¸Ðµ
ĠÑģÐ¼ ÑĥÑĤ
ĠÑģÐ¼ ÑĥÑī
ĠÐļ ÑģÑĤÐ°ÑĤÐ¸
ĠÐ¼Ð°ÑĤ Ñĩ
ĠÐĿ ÐµÐ²
ĠÑģÐºÐ°Ð¶ Ñĥ
ĠÑģÐ¾Ð¶Ð°Ð» ÐµÐ½Ð¸Ñİ
ĠÐ·Ð°Ð³ Ð°Ð´
ĠÑĤÑĢÐ¸Ð´ÑĨ Ð°ÑĤÑĮ
ĠÐ¿ÑĢ Ð¾Ð·Ð²
Ð»Ñı Ð»Ð°
ÑĢ Ð°Ð»Ð¸
ĠÐ¸Ð½ÑģÑĤ ÑĢÑĥ
ĠÐºÑĢÐµÐ¿ ÐºÐ¾
ĠÐ±Ñİ Ð´Ð¶
ĠÑħ ÑĢ
ĠÑĤÑĢÐµÑĤ Ð¸Ð¹
ĠÑģÐµÑĢÐ´ ÑĨÐ°
ĠÐ· Ð»Ð¾
Ð°Ðº Ðµ
II I
ĠÐ²Ñĭ ÑĢÐ¾Ñģ
ĠÐ½Ðµ ÑĥÐ´
ĠÐ¿ÑĢÐµÐ´ ÑĥÑģ
ĠÑĩ Ð°ÑĪ
ĠÐº ÑģÑĤÐ°ÑĤÐ¸
ĠÐ·Ð°ÑĢ Ð°Ð±Ð¾ÑĤ
ĠÐŀ Ð½Ð¾
Ð½Ð¾ÑģÑĤ ÑıÐ¼Ð¸
ĠÑģ ÐµÐ¹
ĠÑĢÐ°Ð½ ÐµÐ½
ĠÐ½ÐµÐ½Ð°Ð² Ð¸ÑģÑĤ
ÐµÐ¼ Ð°ÑĤ
ÐŁ Ð¾Ð»
Ð»Ð° Ñħ
ĠÐ½Ð° Ð¾Ð±Ð¾ÑĢÐ¾ÑĤ
ĠÐļÐ¾Ð½ÑģÑĤ Ð°Ð½ÑĤ
ĠÐ¾Ð¿ÑĢÐµÐ´ ÐµÐ»Ñı
ĠÐ¿ÑĢÐµ Ð¸Ð¼
i a
ĠÐ¾Ð± Ð»Ð°ÑģÑĤ
ĠÐ¿Ð¾Ð´ Ð²ÐµÑĢÐ³
ĠÐ¶Ð¸Ð² ÐµÑĤ
Ð°Ð»ÑĮ Ð½Ð¾ÑģÑĤÑĮ
ĠÐ±Ð¾Ð»ÑĮÑĪ Ð¾Ðµ
Ġ K
Âł Ð·
ĠÐ¾ÑĢ Ð³
ĠÐ½Ð°Ð¿ÑĢÐ°Ð² Ð»ÐµÐ½Ð¸Ð¸
ĠÑĢÐ°Ð½ Ð¾
ĠÑģÑĩÐ¸ÑĤ Ð°Ð»
ĠÐ²Ð·Ð³Ð»Ñı Ð½ÑĥÐ»
ĠÐ» Ð¾Ð±
ĠÐ¿Ð¾Ð» ÐµÑĤ
Ð¸Ð¼ ÑĭÐ¹
ĠÐļ Ð¾
ĠÐ¿ÑĢ Ð¾Ð¹ÑĤÐ¸
ĠÑģÐµÑĢÑĮÐµÐ· Ð½Ð¾
ĠÑĢÐµÑĩ Ð¸
ĠÐ¿Ð¾Ð»Ð¾Ð¶ Ð¸Ð»
ĠÑĤÐ²Ð¾ Ð¸
ĠÑĤ ÐµÐ½Ð¸
ĠÐ¿ÑĢÐ¸Ð² ÑıÐ·
ĠÐ¾ÑģÑĤÐ°Ð½ Ð°Ð²Ð»Ð¸Ð²
ĠÑħÐ¾ÑĤ ÑıÑĤ
ĠÐ¶ÐµÐ» ÑĤ
ĠÐ¿ÑĢÐ¸Ð³ Ð»Ð°Ñģ
ĠÐ²Ð¾ÑģÐºÐ»Ð¸Ðº Ð½ÑĥÐ»
ĠÐ¿ÑĢÐµÐ´Ñĥ Ð¿ÑĢÐµÐ´
ĠÐ¿Ð¾ ÑįÑĤ
s t
Ð»Ñı ÑİÑĤÑģÑı
ĠÐļ Ð¸ÑĤ
ÑģÑĤÑĢÐµÑĩ Ñĥ
ĠÑģÐ¸ÑģÑĤÐµÐ¼ Ð°
ĠÐ³ Ð¸Ð³
ÐµÑĢÐ± ÑĥÑĢÐ³
ĠÑģÐ¸Ð³ Ð°ÑĢ
ĠÐ±ÐµÑģÐ¿ Ð¾ÐºÐ¾
ÑģÑĤÐ² ÑĥÑİÑĤ
ĠÐ¿ÑĢÐ¸Ð² ÐµÐ´
ĠÑĤÐµÑħ Ð½Ð¸ÑĩÐµÑģÐº
ÐµÐ½ÑĮ ÑĪ
ĠÐºÐ½Ð¸ Ð³Ñĥ
ĠÐĳÑĭ Ð»Ð¾
Ð¿ Ð¾Ð·
ĠÐ» Ð¸Ðº
Ð°Ñħ Ð°ÑĢ
ĠÐ¡ Ð»Ð¾Ð²
ĠÐĽ ÑĥÑĩ
ĠÐ±Ð»Ð¸Ð· ÐºÐ¾
ĠÐ´Ð¾ÑģÑĤ Ð¾Ð¸Ð½
ĠÑģÑĤÑĢÐ°Ñħ Ð°
Ð» ÐµÑĩÑĮ
ĠÐ´ÑĥÐ¼ Ð°ÐµÑĪÑĮ
ĠÐ»Ð¾ÑĪ Ð°Ð´
ĠÐ¶Ð´ Ð°Ð»
Ð¼Ð¾ÑĤ ÑĢÐ¸
ĠÐ³ÐµÑĢ ÑĨ
ĠÐ¾ÑģÑĤÐ°Ð² Ð¸ÑĤÑĮ
ĠÐ¾ÑĩÐµÑĢÐµÐ´ Ð½Ð¾Ð¹
ĠÐĿ Ð°Ð²ÐµÑĢÐ½Ð¾Ðµ
ĠÐ²Ð¾Ð·Ð´ ÑĥÑĪ
Ð½Ð¾ Ñİ
ĠÑĢ Ð¾Ð¶
ĠÑĥÐ»Ð¸ ÑĨÑĥ
ĠÐ¿Ð¾Ð² ÐµÐ·
Ð¸ÑĤÐµÐ»ÑĮ Ð½Ð¾ÑģÑĤÑĮ
ĠÐ¢ Ð°
ĠÐ¾ÑĤÐ¿ÑĢÐ°Ð² Ð¸Ð»ÑģÑı
ÐµÐ² Ð½Ð°
ĠÐ¿ÑĢÐ¾ÑĤ ÐµÑģÑĤ
ĠÑĤÐµ Ð°ÑĤ
ĠÐºÐ½ÑıÐ· ÑĮ
ĠÑĢÐµÐ±ÐµÐ½ Ð¾Ðº
Ð»Ð¾ ÑħÐ¾
ĠÐ¨ Ð°ÑĢ
Ð¾ÑĢ Ñī
Ð´Ð° ÑİÑī
ĠÑģÐº ÑĥÑĩ
Ð»ÐµÐ½ Ð½Ð¾Ð³Ð¾
ĠÐ¾ÑģÑĤÐ°Ð² Ð¸Ð»
ĠÐºÑĢÐ°Ð¹ Ð½Ðµ
ĠÐļ Ð¾ÑģÑĤ
Ġ g
ĠÐ¿Ð¾Ð´ÑĥÐ¼ Ð°ÑĤÑĮ
Ð¾Ñģ Ð»Ð°Ð²
ÑĥÐ³ Ð°
ĠÐ´Ð°Ð½ Ð½ÑĭÐµ
ĠÐ¼Ð¾Ð¼ ÐµÐ½ÑĤÐ°
Ð°Ð»Ð¸Ð·Ð° ÑĨÐ¸Ð¸
ĠÐ¾ÑĩÐµÐ²Ð¸Ð´ Ð½Ð¾
ĠÑĢÐµÑģÑĤ Ð¾ÑĢ
ĠÐ¿ÑĢÐ¸Ð¼ ÐµÑĢ
ĠÑģÐ¾ÑĢ Ð¾Ðº
o w
ĠÐĶ Ñį
Ð³ Ð¸Ð¿
ĠÐ·Ð°Ð± ÑĭÐ»
ĠÑįÐºÑģÐ¿ÐµÑĢ Ð¸Ð¼
ĠÑģ Ð½Ð°ÑĢ
Ð¾ÑĢ ÑıÐ´
Ð½Ð¸Ð¼ Ð¸
ĠÑĤÐµÐ¼ Ð¿ÐµÑĢ
ĠÐ³Ð¾Ð´ Ð°Ñħ
Ð¾Ð²Ð°Ð½ Ð¸Ñİ
ĠÐ¼Ð¸ÑģÑģ Ð¸Ñģ
ĠÐ¿Ð»Ð¾Ñī Ð°Ð´Ð¸
ĠÑģÑĤÐ°ÑĢ Ð°ÑıÑģÑĮ
ĠÐ¿ÑĢÐ°Ð² Ð¸Ð»Ð¾
Ð»ÐµÐ½ Ð½ÑĭÐ¼
Ð¸ÑĤ Ð¸
2 3
ĠÑģÐ¼ ÐµÐ½
ĠÐ´ÐµÐ» Ð¾Ð¼
Ð¢ Ñĭ
ĠÐ¿Ð¾Ð¼ ÐµÑĪ
ĠÑĥÑĢÐ¾Ð² ÐµÐ½ÑĮ
Ðľ Ð°ÑĢ
Ð½ Ð°ÑĤÑĮ
ĠÐºÑĢÐ¸Ðº Ð½ÑĥÐ»
ÑĢÑĭ Ð»
ÐµÑģ Ð»Ð¸
ĠÐŁ Ð¾Ðº
Ð¸Ð½ ÑĥÑĤÑĮ
4 0
ĠÐ·Ð°Ð³ Ð»Ñı
ĠÐ¾ÑģÑĤ Ð°ÑĤÑĮÑģÑı
ĠÐĿ ÐµÐºÐ¾ÑĤÐ¾ÑĢ
ĠÐ³Ð¾ÑĤÐ¾Ð² Ñĭ
ĠÐ¾ÑĤÐ½Ð¾ÑĪ ÐµÐ½Ð¸Ðµ
ĠÐ´ Ð¸Ð¿Ð»Ð¾Ð¼
ĠÑĢÐ°ÑģÐ¿ Ð°Ñħ
ĠÑģ ÐµÐ»Ð°
ĠÐ¿Ð¾Ð¿ Ð°Ð»
Ð°ÑĤ Ð°ÑĢ
ĠÐ¿ÑĢÐ¾ÑĤ ÑıÐ¶
Ð¾Ð² Ð¾Ð¼
ĠÐºÐ¾Ð» Ð¾Ð½
a g
Ð¾Ñĩ Ð½ÑĭÐ¹
ĠÐ½ÐµÐ² Ð¸Ð´
ĠÐ¿Ð¾ÑıÐ² Ð¸Ð»Ð¸ÑģÑĮ
ĠÐ¸ Ð½Ð¸ÑĨÐ¸
ĠÐĲÐ»ÐµÐºÑģÐ°Ð½Ð´ ÑĢÐ°
Ñĥ Ð½Ð°
Ðº Ð¾ÑĤ
ĠÐ¿Ð¾Ð» Ð¾Ñģ
ĠÐ¿Ð¾Ð´ ÐµÐ»
Ð° ÑĤÐ¾Ñĩ
ĠÐ´Ð°Ð» ÐµÐµ
ĠÐľ Ð¾Ð½
ĠÑĦ ÐµÐ´
Ñģ Ð¾ÑĤ
ÑĮ ÐµÑĤ
ĠÐ¿ÑĢÐ¾ÑĤÐ¸Ð² Ð¾Ð¿Ð¾Ð»Ð¾Ð¶
ĠÐ½ÐµÐ± ÐµÑģ
ĠÐ²Ð¾Ð¹ Ð½Ðµ
ÐµÐ² Ð°Ð»
ĠÐ·Ð°Ð¼ ÐµÑģÑĤ
ĠÐ¡Ð² ÑıÑĤ
ÑģÐº Ð¾ÑĢÐµ
ĠÐ¼Ð¾ ÐµÐ¼
ÐµÐº ÑĤÐ¾ÑĢÐ°
ĠÐ²Ð· ÑıÑĤ
ÐµÐ² Ð¸Ð·
ĠÐ°Ð²ÑĤ Ð¾Ð±
ĠÐ½Ð°Ñĩ Ð°ÑĤÑĮ
ĠÐ²Ð¾Ð·Ð´ ÐµÐ¹ÑģÑĤÐ²
ĠÐ¸Ð¼Ðµ Ñİ
Ð¸ÑĤ Ð¾Ð¼
ĠÐ¸Ð¼ ÐµÐ»Ð¸
Ð½ Ð¾Ð·
ĠÑĢÐ°ÑģÑģÐºÐ°Ð· Ð°ÑĤÑĮ
ĠÐĹÐ°Ð¿ Ð°Ð´
ĠÑģÑĤ ÑĢÑĥ
Ġd e
ĠÑĪÐ¸ÑĢ Ð¾ÐºÐ¾
Ð°Ð»ÑĮ ÑıÐ½
Ð² ÑĭÑĩ
ĠÐ³Ð¾ ÑĢÑĭ
ĠÑģ Ð½Ð¸Ð¶
ĠÐ³ ÐµÐ½
ĠÐ¾Ð±ÑĢÐ°ÑĤ Ð¸Ð»ÑģÑı
Ñı ÑĢ
ĠÑģÐ¾ÑģÑĤÐ°Ð² Ð»ÑıÐµÑĤ
ĠÐľ Ð¸Ð»
ĠÐ³Ð»Ð°Ð² Ðµ
ÐµÐ½Ð¸ ÑĢÐ¾Ð²
ĠÐ°Ðº Ð°Ð´ÐµÐ¼
Ð¸Ñĩ Ð½ÑĭÐ¹
ĠÑģÐ»ÐµÐ´Ð¾Ð² Ð°Ð»Ð¾
ĠÑĢ Ð¾Ñģ
Ð¼Ñĥ Ñī
ÑĢ Ð°Ð»Ð°
ĠÐ±ÑĥÐ¼Ð°Ð³ Ð¸
a y
ÑĨ ÐµÐ»Ð¾Ð²
ĠÐ¡ Ð¸Ð½
ĠÐ³Ð»Ð°Ð² Ð½ÑĭÐ¹
ĠÐ¾Ð± Ð¼
ĠÐ±ÑĥÐ´ÐµÑĤ Ðµ
ĠÑģÑĤ ÑĢÐ°ÑĤÐµÐ³
ĠÐ³Ð» ÑĥÑħ
ĠÐµ Ñİ
ĠÐĺ Ñģ
ĠÐĿ ÐĲ
ĠÐ»ÐµÑģÑĤ Ð½Ð¸ÑĨÐµ
ĠÐ± Ð¸Ð±Ð»Ð¸Ð¾ÑĤ
ĠÐ½Ð¾Ð³ Ñĥ
ĠÐ¸ÑĤ Ð¾Ð³Ðµ
ÑĥÐ¶ Ð½Ð¾
ĠÐ¤ ÑĢ
ĠÐĴÑĭ Ñģ
ĠÑģÐ»ÐµÐ· Ñĭ
ĠÑģÐ¿ Ð°Ð»ÑĮ
Ð½Ð°Ð· Ð½Ð°Ñĩ
Ðº Ð°ÑĤÐµÑĢ
Âł Ð±
ĠÐ¿ÑĢ ÐµÐ¼ÑĮ
ĠÐ¾ÑĤÐ²ÐµÑĤ Ð°
ĠÐ·Ð°Ð¼ ÑĥÐ¶
ĠÐ·Ð´ ÑĢÐ°Ð²
Ð½ ÐµÐ¿
ĠÑĢÐ°Ñģ ÑģÐ»
ĠÐ´ Ð°Ð»Ð¸
ĠÐ½Ð°ÑĪ ÐµÐ¼
ĠÐ´ Ð½ÐµÐ¼
Ð² Ð°Ð»Ð¸
ĠÐ²Ð°ÑĪ Ð°
ĠÐ²Ð· Ð´ÑĢ
ĠÐ²Ð°ÑĢÐ¸ Ð°Ð½ÑĤ
ÑĥÐ´ Ð¸
ĠÐ¾ ÑģÐº
ĠÑģ ÑĥÑĢ
ĠÐºÑĥÐ»ÑĮÑĤ ÑĥÑĢ
ĠÐ·Ð½Ð° ÐµÐ¼
ĠÐĲÐ»ÐµÐº ÑģÐµ
ĠÑĤÑĢ Ð°Ð³
ĠÑĤÑĢÑĥÐ± ÐºÑĥ
ĠĠĠĠ ĠĠĠĠ
ĠÐł ÐĺÐĲ
ĠÐ²Ð¾ Ð¸Ð½
ĠÐ±ÑĢ Ð¾Ð½
ĠÐ¿Ð¸ÑģÑĤ Ð¾Ð»ÐµÑĤ
ĠÐºÑĢ Ð°ÑĤ
Ð² ÑĤÐ¾ÑĢ
Ð° ÑĨ
ÐµÑģ ÑģÐµ
ĠÐ¿ÑĢÐµÐ² Ð¾ÑģÑħÐ¾Ð´
ĠÐ²Ð´ Ð¾Ñħ
Ð°Ð¼ ÐµÐ½ÑĤ
ĠÐ½ÐµÐ¾Ð±ÑħÐ¾Ð´Ð¸Ð¼ Ð¾ÑģÑĤÐ¸
ĠÐ¿Ð¾Ðº ÑĢÑĭÑĤ
ĠÐ½Ð°Ð¿ Ð¾Ð»Ð½
ĠÐ´Ð¾Ðº Ð»Ð°Ð´
ĠÑĥÐ»Ð¸ ÑĨÑĭ
Ð¾Ðº Ñĥ
ĠÑģÐ²ÑıÑī ÐµÐ½
Ð½ ÑıÑĤÑĮ
Ð¸Ð½Ñĥ Ð»Ð°
Ð¸ ÑĤÐ¾
h t
ĠÑģÐµÐ¼ ÑĮÐµ
ĠÐ¶ÐµÑģÑĤ Ð¾Ðº
ĠÐ¼ Ð°ÑģÐº
Ð°Ð¹ Ð½Ð¾
ĠÐ¿ÑĢÐ°Ð²Ð¸ÑĤÐµÐ»ÑĮ ÑģÑĤÐ²Ð¾
Ð¸Ð²ÑĪÐ¸Ð¹ ÑģÑı
Ġ ÑĨÐ¸ÑĦ
ĠÐ¿ÑĢÐ¸Ð¾Ð±ÑĢ ÐµÑĤ
ĠÑĢÑĥÐ± Ð°ÑĪ
ĠÑĢ Ð¾Ð¶Ð´ÐµÐ½Ð¸Ñı
ĠÐ¾ ÑħÐ²Ð°ÑĤ
ĠÐ¾ÑĤÐ²ÐµÑĤ Ð¸ÑĤÑĮ
ĠÐ¿ÑĢÐµÐ´ÑģÑĤÐ°Ð² Ð¸ÑĤÐµÐ»ÑĮ
ĠÐ¶ Ð´ÐµÑĤ
ĠÐłÐ¾ÑģÑģ Ð¸Ñİ
ĠÑĪ Ð°Ñħ
ĠÐºÑĥÐ»ÑĮÑĤ ÑĥÑĢÑĭ
ĠÐ¥ Ð¾Ð»
ĠÑĨÐµÐ» ÑĭÐ¹
Ð¸Ð´ ÐµÑģÑı
Ġ v
ĠÐ· Ð¾Ð»
Ñī Ð¸ÐºÐ¸
ĠÐ²Ð¾Ð¿ÑĢÐ¾Ñģ Ð¾Ð²
ĠÐºÐ°Ð¼ ÐµÐ½ÑĮ
ĠÐºÐ°ÑĤ ÐµÐ³Ð¾ÑĢ
ĠÐĺÐ³Ð¾ ÑĢÑĮ
ĠÐ¾ÑģÑĤ Ð°Ð»ÑĮÐ½ÑĭÑħ
ĠÑĪ Ð»Ñı
ĠÐ¿ÑĢÐµÐ´Ð»Ð¾Ð¶ ÐµÐ½Ð¸Ðµ
ĠÐ¾ ÑĢÑĥÐ´
ĠÐ¼ ÐµÐ¶
ĠÐ¿ÐµÑĢÐ² Ð¾Ðµ
Ð¾Ð² Ñĥ
Ð°Ð²ÑĪ ÐµÐ¹
ĠÐľ Ð¸ÑĪ
ÑĢ Ð¸Ñģ
ĠÐĺÐ½ Ð´
ĠÐ·Ð°Ð¿ ÑĢÐµÑĤ
ĠÐ´Ð¾ÑĢÐ¾Ð³ Ð¾Ð¹
ÐµÐ½ÑĮ ÐºÐ¾
ĠÑįÐ¿ Ð¾Ñħ
ĠÐ¿ÑĢÐ¸Ð² ÐµÐ·
ĠÑĪÐº Ð¾Ð»ÑĮ
ĠÐ¼ Ð¾Ð±
Ð± ÐµÐ¶
ĠÐ»ÐµÐ³ ÑĩÐµ
ĠÑĩÐ°ÑģÑĤ ÑĮÑİ
ĠÑģÐ¾Ð± ÐµÑģÐµÐ´
ĠÑģÐ¼ Ð¾ÑĤ
ĠÐ¿Ð¾Ð¹ ÑĤÐ¸
ĠÐ¾ ÑģÐºÐ¾ÑĢÐ±
ĠÐ²Ð¾Ð¹ Ð½Ñĥ
Ð°Ð² Ð¸Ð»
ĠÐ¿ÐµÑĢ ÑģÐ¿ÐµÐºÑĤÐ¸Ð²
ĠÐ¾ÑģÐ½Ð¾Ð² Ðµ
ĠÐ¾Ð±Ð¾ÑĢ ÑĥÐ´
Ð¸Ð¼ ÑĭÐ¼
ĠÐ¿ÑĢÐ¾Ð² Ð¸Ð½
ĠÐ´ ÐµÑĢ
ĠÑģÑĤÐ°Ð½ ÑĨÐ¸Ð¸
ĠÐ¶Ð¸Ð·Ð½ ÑĮÑİ
Ð¸Ð¹ ÑģÐºÐ¸Ð¹
ĠÐ¿ÑģÐ¸Ñħ Ð¾Ð»Ð¾Ð³
ĠÐ² Ð½Ðµ
Ġ19 0
Ð°Ð» Ðº
Ñĭ Ð´ÑĥÑī
ĠÐ¸Ð» Ð»Ñİ
ĠÑĢÐ°Ð·ÑĥÐ¼ ÐµÐµÑĤÑģÑı
ÑĥÑİÑī Ð¸Ðµ
ÑĪ Ð¸Ð½
ÑĢÑĭ Ð·
Ð¾Ñĩ ÐºÐµ
Ð² Ð¾Ðµ
ĠÐ¿ÑĢÐ¸Ð½ ÑıÐ»ÑģÑı
ÐµÐ¼ Ð¾Ð½
Ð² Ð°Ñĩ
ĠÐ¸Ð½Ð´ Ð¸Ð²
Ð» Ð°Ðº
ĠÐ¿ÑĢÐ°Ð² Ð´Ñĥ
Ð¸Ð½ Ð³ÑĢ
ĠÐ¿ÑĢ ÐµÑĢÐ²
ĠÐ¾ÑĤ ÑĢÑĭÐ²
ĠÐŁ Ð¾Ñĩ
ĠÐ³Ð» Ð¾ÑĤ
ĠÑģÑĤÐ¾Ð» Ðµ
Ð¾Ð»Ñĩ Ð°Ð»
ĠÐ³ÑĢ Ð°Ð¼
ĠÐ´ ÑĥÐ±
Ð°ÑİÑī Ð¸Ð¼Ð¸
.. ..
ĠÑģÐ¾Ð¿ÑĢÐ¾Ð² Ð¾Ð¶Ð´
ĠÐ¿Ð¾Ð¶ ÐµÐ»
ĠÐ¿Ð°Ð»ÑĮ ÑĨÐ°Ð¼Ð¸
Ð°Ð½ Ñı
ĠÐ¿Ð°Ð»ÑĮ ÑĨÐµÐ¼
Ġ %
ĠÑĢÐµÐ»Ð¸ Ð³Ð¸Ð¾Ð·
ÐµÐ½ Ð¾Ð¼
ĠÑģÐ² Ð°Ð»
ĠÐ´ Ð¾ÑģÑĤÐ¸Ð¶
ĠÐ½Ð°Ð² ÑģÐµÐ³Ð´Ð°
ĠÑģÐº ÑĢÐ¾Ð¼
ĠÑįÐ½ÐµÑĢÐ³ Ð¸Ð¸
Ð°ÑĤÐµÐ»ÑĮ Ð½ÑĭÑħ
ĠÐº ÑĥÐ±
Ð¸ÑģÐº Ð¾Ð¿
ĠÐ¿Ð¾Ð» Ð½Ð¾
ĠÐ¿Ð°ÑĢ Ð»Ð°Ð¼
2 00
ÑĥÐ· Ñĭ
ÐµÐ· Ð´Ñĭ
ĠÑĦ ÑĢÐ°Ð·
ĠÐ³Ð» Ð°Ð´
ĠÐ¿ÑĢÐ¾Ð¸Ð·Ð½ÐµÑģ Ð»Ð°
ĠÑģÐ¸Ð´ ÐµÐ»Ð¸
ĠÑĥÑĩ Ð¸ÑĤ
ÑĢÐ°ÑĤ Ð¸Ð²
ĠÐ±ÑĢ Ð¸ÑĤÐ°Ð½
ĠÑĢÐµÐ´ ÐºÐ¾
ĠÐ£ Ñĩ
Ð°ÑĤÐµÐ»ÑĮ Ð½Ð¾Ð³Ð¾
ĠÐ¡ Ð¸Ð¼
ĠÐ® Ð¶
Ð°Ð½ ÑĩÐ¸Ð²
ĠÐ· Ð½Ð°Ñı
Ð» Ð¾Ð´
Ð°Ð² Ð°
ĠÐ¾Ð± ÐµÐ·
ĠÐĲ Ð³
ĠÐ¡ Ð½Ð°ÑĩÐ°Ð»Ð°
ĠÐ»ÐµÑģ Ñĥ
ĠÐ»Ð°Ð´ Ð½Ð¾
Ð¾Ð³ Ð¾Ð²
ĠÑģÐ¾Ð»Ð½ ÐµÑĩ
ĠÐ¿Ð¾ Ð¾Ð±
ĠÑĩÑĥÐ´ Ð¾Ð²
ĠÑģÐ¾Ð·Ð½ Ð°Ð½Ð¸Ðµ
ĠÑģÐµÐ³Ð¾Ð´Ð½Ñı ÑĪ
ĠÐĴÐ°Ñģ Ð¸Ð»ÑĮ
ĠÐ¸Ð½ Ð¶
ÑĨ ÐµÐ½Ð¸Ð²
ĠÑįÐºÑģÐ¿ ÐµÑĢÑĤ
ĠÐ¾ÑģÐ¾Ð± Ð¾
ÑģÑĤ ÑĢÐ°
ĠÐºÐ¾Ð½ ÑĨ
ĠÐ² Ð»ÑİÐ±
ĠÐ¿Ð¾Ð´ Ð±Ð¾ÑĢ
ĠÑģÐ»ÑĥÑĩÐ°Ñı Ñħ
ĠÐ¿Ð¾Ð½Ð¸Ð¼ Ð°ÐµÑĪÑĮ
ĠÐľ Ð°ÐºÑģ
ĠÐºÐ°Ð±Ð¸Ð½ ÐµÑĤ
ĠÐ½Ð°ÑģÑĤÐ¾ÑıÑī Ð¸Ð¹
Ð¾Ñĩ Ð½ÑĭÑħ
ĠÐ´ Ð¾Ð¼Ñĥ
ĠÐ³Ð»Ð°Ð² Ð½ÑĭÐ¼
e c
ĠÐ²ÑĭÑĢÐ°Ð¶ ÐµÐ½Ð¸Ðµ
ĠÐ¾Ð±ÑĬ ÐµÐ¼
ĠÐ¼Ð¾ ÐµÐ¼Ñĥ
ĠÑĥÐ¿ Ð¾ÑĤÑĢÐµÐ±
ĠÐ´ÐµÐ²ÑĥÑĪ ÐºÑĥ
ĠÑģÑĤ Ð²Ð¾Ð»
ĠÑģÐ¸ÑĤÑĥÐ° ÑĨÐ¸Ñİ
ÑĮ ÑģÑı
ĠÐ¾ÑĤÐ¿ ÑĥÑģÐº
ĠÑį ÑģÐº
Ð°ÑģÑĤ ÑĢÐ¾ÑĦ
ĠÑįÐº Ð·
ĠÑĦÐ¸Ð³ ÑĥÑĢ
ĠÑĪÐºÐ¾Ð» Ðµ
ĠÐ¾ ÑĦ
ĠÐļ Ñį
ĠÐľÐ¸ÑħÐ° Ð¸Ð»
ĠÐ²ÑģÑı ÐºÐ¾Ð¼
ĠÐ¿ÑĢÐ¸ Ð¿Ð¾Ð´
ĠÐ¼Ð°ÑĪ Ð¸Ð½Ðµ
Ð¸Ð» Ð¸Ð¸
ĠÑĥ Ð¹
ĠÑģÐ²ÐµÑĢ ÑħÑĥ
ĠÐ²ÐµÑĩ ÐµÑĢÐ°
ĠÐ·Ð°Ð½Ð¸Ð¼ Ð°ÑĤÑĮÑģÑı
ĠÑģÐ¾Ð¾Ð±Ñī Ð¸Ð»Ð¸
ĠÐ¿Ð¾Ð· Ð¸ÑĨÐ¸Ð¸
ĠÐľÐ¾ÑģÐº Ð²Ñĥ
Ðº Ð¾Ð¼Ñĥ
ĠÑģ Ð½Ð¸Ð·
ĠÐ¿ÑĢ ÐµÐ¼
ĠÐ²Ð·Ð´Ð¾Ñħ Ð½ÑĥÐ»Ð°
ĠÑģÑĤÑĢ Ð¾Ð¹
ĠÐ¿Ð¾ÐºÐ°Ð· Ð°ÑĤÑĮ
Ðł ÐĲ
Ñĳ Ð²
ĠÑĢÐ°Ð· ÑĬ
ĠÐ¡ÑĤ ÐµÐ¿
ÑıÑī ÐµÐ¹
Ð¸Ð¼ Ð¾Ðµ
at ion
Ðļ Ð¾ÑĢ
Ð°Ð¼ Ð±
ĠÑĤ ÐµÐ¼Ñĥ
ĠÐ½Ð°Ð² ÑģÑĤÑĢÐµÑĩÑĥ
ÐµÐ´ Ð¶
Ð¾ÑĤ Ð¾Ð¹
ÐµÑĤÑĮ ÑģÑı
ĠÐ¾ÑģÑĤ Ð°Ð»Ð°ÑģÑĮ
ĠÐ²ÑģÐ¿ ÑĭÑħ
Ð¿ÐµÑĢÐ² ÑĭÑħ
ĠÐ¿Ð» Ð°Ð¼
ĠÐ¾Ð³ Ð½Ñı
- -
ĠÐĵ Ðµ
ĠÐĳÐ¾ÑĢ Ð¸Ñģ
ĠÐ»Ð¸ÑĨ Ñĥ
Ð¾Ð¼ Ð½Ð¸Ð¼
ĠÑģ Ð°Ð½Ðº
ÑĨÐ¸Ð¾Ð½ Ð½Ð¾Ð¹
ĠÐ³ÑĢÑĥ ÑģÑĤ
Ð¾Ð³ ÑĢÐ°Ð´
ĠÐ¶ÐµÐ½Ñī Ð¸Ð½Ñĥ
ĠÐ¶ ÐµÐ½Ñĭ
2 6
ĠÑĥÐ´Ð¸Ð² Ð¸Ð»ÑģÑı
ĠÐ¿Ð¾Ð»ÑĥÑĩ Ð¸Ð»Ð¾ÑģÑĮ
Ð¾Ð»Ñİ Ð±
Ð¸Ð²ÑĪ Ð°Ñı
ÐµÐ² ÑĭÑħ
ÐºÐ° ÑĦ
ÑĥÑĤ Ð°
ĠÐ¿ÑĢÐµÐ´ Ð½Ð°Ð·Ð½Ð°Ñĩ
ĠÐ¼Ð¾Ð½ Ð°ÑģÑĤÑĭ
ĠÐ²Ðµ ÑīÐµ
ĠÑĪ ÐµÑİ
ĠÐ±Ð°Ð½ Ðº
ĠÐ²Ð¾Ð´ Ðµ
Ð¾ÑĢ ÐµÑĩ
Ð¼ÐµÑĢ ÑĤ
ĠÐ²Ð¸Ð´ Ð¸ÑĤ
ĠÐºÑĢ Ð¸Ð·
ĠÐ¾Ð´ Ð½Ð¸
ĠÐ¼Ð¾Ð»Ñĩ Ð°Ð»
Ñī Ð°
ĠÐ» ÐµÐ´Ð¸
Ð² ÑĥÑĩ
ĠÐ²Ð¾Ð· Ð½Ð¸ÐºÐ°
ĠÐ¿ÑĢÐ¾ÑĪÐ» Ð¾Ð³Ð¾
ÑĭÐ² Ð°Ð»Ð¸ÑģÑĮ
ĠÐ²ÐµÐ»Ð¸Ðº Ð¾Ð»ÐµÐ¿
ĠÐ¿ÑĢÐµÐ¸Ð¼ ÑĥÑīÐµ
ÑĬ ÑıÐ²
ĠÑĩÐ¸ÑĤ Ð°ÑĤÑĮ
Ð² Ð°ÑĤÑĮ
c e
Ð¾Ð´ ÐµÐ¹ÑģÑĤÐ²
ÑģÑĤ ÑģÑı
Ð¾Ð´ Ð¾Ð»
Ð°Ð» ÑĤ
ĠÐļ ÑĥÐ±
Ð¾ÑĪ Ñĥ
ĠÐĶÑĥÐ¼ Ð°Ñİ
ĠÑģÐ¸Ð´ ÐµÐ»Ð°
ĠÐ´Ð² Ð¾ÑĢÐµ
ĠÑĦÐ¾ÑĢÐ¼ Ñĭ
ĠÐ»ÑİÐ± Ð¾Ð¼
Ð· Ð¸
ĠÑĩÐµÑģÑĤ Ð½Ð¾
Ð°Ð²ÑĪÐ¸Ð¹ ÑģÑı
ĠÐ± ÑĢÐ¾Ð´
ĠÐĽÑİ Ð´Ð¸
ĠÐ¿Ð¾Ð´ Ð¶
ĠÑħÐ¾Ð·Ñı Ð¸Ð½
ĠÐĽ Ð°Ð²
ĠÐ¼ Ð¾Ðº
ĠÑģÐ¼Ð¾ÑĤÑĢ Ð¸ÑĤ
ĠÐ¿Ð¾Ðº Ð¾ÑĢ
ĠÐŃ Ðº
ĠÐ¸Ñģ Ð¿ÑĢÐ°Ð²
2 7
Ñĥ Ð²ÐµÑĢ
ĠÐ¼Ð¸ÑĢÐ¾Ð² Ð¾Ð¹
Ð°ÑĤÐµÐ»ÑĮ Ð½ÑĭÐµ
ĠÐ¾ÑĤÑĩÐ°Ñı Ð½
ĠÐ² Ð¸Ð½Ð°
ĠÑĤ ÑĮ
2 1
Ð°Ð½ ÑģÐºÐ¾Ð¹
Ñĭ ÑĪÐµ
ÑģÑĤÐ²ÐµÐ½ Ð½ÑĥÑİ
Ð± Ð¾Ð¼
ĠÐ¿Ð¾ÑģÐ¿ ÐµÑĪ
Ðµ Ð¸
ĠÐ¿ ÐµÑī
ĠÐ´ÑĢÑĥÐ³ Ð°Ñı
Ð°Ñİ ÑīÐµÐµ
ĠÐĶ Ð¾Ðº
ĠÑĢÐµÐº Ð»Ð°Ð¼
ĠÐ²Ð¾ ÐµÐ½Ð½Ð¾
ĠÐ§ Ð°ÑĢ
ĠÐ°Ð²ÑĤÐ¾Ð¼Ð¾Ð± Ð¸Ð»ÑĮ
ÑģÑĤÐ² Ð°Ð¼Ð¸
ĠÑģÐ¾ÑĤ Ð½Ð¸
Ð½ Ð°Ð¼Ð¸
ĠÐ½Ð° ÑĢÑĥÐ¶
ĠÐº ÑĥÐ·
Ð½Ð¸ ÑĪÑĮ
ĠÐ¿Ð¸ÑģÑĮ Ð¼Ð°
ĠÑĩÐ»ÐµÐ½ Ð¾Ð²
ĠÑĥ Ñī
ĠÐº Ð¾Ð²
Ð¾ÑĢ Ð¸
Ð°Ð³ Ð°
ĠÐ¿ÑĢÐ¾ÑĨ ÐµÐ´
ĠÑıÐ·Ñĭ ÐºÐ°
ĠÐĽ Ð°Ð´Ð½Ð¾
ĠÐ¾ÑīÑĥÑī ÐµÐ½Ð¸Ðµ
ĠÐ¿ ÐµÐ½Ñģ
ĠÐ¿ Ð¾Ð»ÑĮ
ĠÑĢÐµÐº Ð¾Ð¼
ĠÐ»ÐµÑģ Ð°
ĠÐ¼ÐµÑĢ Ð¾Ð¿ÑĢÐ¸ÑıÑĤ
Ð± Ð°Ñģ
ĠÐ» Ð¾Ð¿
ĠÑģÑĤÑĢ Ð¾Ð³Ð¾
ĠÐ·Ð¾Ð² ÑĥÑĤ
ĠÐł Ð¸Ð¼
ĠÐ»ÐµÐ¶ Ð¸ÑĤ
ĠÐ¿Ð¾ÑģÐ»ÐµÐ´ Ð½Ð¸Ñħ
ĠÐ²Ð¾Ð· Ð³Ð»Ð°Ð²
Ð¸Ð» Ð¸Ð¹
Ð°Ð² Ð°Ð»Ð¸
Ð² ÑĮÑİ
ĠÐľ Ð¾Ð¹
ĠÐ½Ð°Ð³ ÑĢÐ°Ð´
Ð¾Ð¹Ð´ Ñı
Ð½Ñĥ ÑģÑĮ
ĠÐ¡Ðº Ð¾Ð»ÑĮÐºÐ¾
ĠÐļ ÑĢÐ¸ÑģÑĤ
ĠÐ² Ð½
ĠÐķ Ð´Ð¸Ð½
ĠÐ¶ÐµÐ» Ð°Ð½Ð¸Ñı
ĠÐĳ Ð¾Ð¶Ðµ
ĠÐ¿Ð¾Ñģ ÐµÑī
ĠÑĢÐ°Ð·Ð´ Ð°Ð»ÑģÑı
Ð»Ð¸ Ð¼Ð¿
Ð¿ÑĢ Ð¾
ĠÐ» Ð¸Ñħ
Ð» ÑĥÑħ
ĠÐ¿Ð¾ÑģÑĤ ÐµÐ»Ð¸
ĠÐ¾ÑĦÐ¸ÑĨ ÐµÑĢ
ĠÐ¼Ð°ÑĤÐµÑĢÐ¸ Ð°Ð»
ĠÐĳ Ð»
Ð» ÑĭÑħ
ĠÐ¿ÑĥÑĤ ÐµÐ¼
Ð½Ð¸ ÐµÐ¼
ĠÐ¸Ð´Ðµ Ñı
ĠÐ´Ð¾Ñĩ ÐµÑĢÐ¸
Ð¾Ð» Ð¾Ð¼
ĠÐ¿Ð¾ÑģÑĤÐ°Ð² Ð¸Ð»
ĠÐºÐ¾Ð½ÑģÑĤ ÑĢÑĥÐº
ÑĥÑģ Ð¾Ð²
ÑĭÑģ Ð»Ð°
ĠÐ½Ð°Ð·ÑĭÐ² Ð°ÐµÑĤÑģÑı
ÂłÐŁ Ð¾ÑĩÐµÐ¼Ñĥ
Ð¾ÑĢ Ð°Ñĩ
es s
e w
ĠÐĴ ÐµÐ½
ĠÐ¿ÑĢÐµÐ´ ÑĭÐ´ÑĥÑī
ĠÐ½Ð°ÑĪ Ð¸Ð¼
ĠÐº Ð¸Ð¿
ĠÐ² Ð²ÐµÐ´
ĠÐ´Ð² ÐµÐ½
ĠÐ± Ð¾Ð¶Ðµ
ĠÐ¾Ð±Ð¾ÑĢ Ð¾Ð½Ñĭ
ĠÐ¾Ð± Ð¾Ð·Ð½Ð°Ñĩ
ĠÐºÐ¾ÑĢ Ð¾Ð»
ÐµÐ² ÑĪÐ¸Ð¹
ĠÑĩÑĥÐ´ ÐµÑģ
ĠÑģÑĭ Ð³ÑĢ
Ñı Ñİ
ÑĢÑĥ ÑģÑĤ
2 8
ĠÐ¡ Ð¾Ð»Ð½
ĠÐ±ÑĥÐ´ ÑĮ
Ð°Ð»Ð° Ñħ
ĠÐ·Ð´ Ð°Ð½Ð¸Ñı
Ð¸Ð´ Ð¶
Ñģ ÐµÑĢ
Ð°ÐµÐ¼ ÑĭÑħ
Ð°ÐµÐ¼ ÑĭÐ¹
ĠÐ¸ÑģÐºÐ»ÑİÑĩ Ð¸ÑĤÐµÐ»ÑĮÐ½Ð¾
ÑĢ ÐµÑĪ
ÐµÐ» Ð»
ĠÐ¿Ð¾ ÑĨÐµÐ»Ð¾Ð²
ĠÐ²ÐµÑĢ Ð¾ÑıÑĤ
ĠÐ²ÑĭÐ½ÑĥÐ¶ Ð´
ĠÑĤÐµÑħÐ½ Ð¾Ð»Ð¾Ð³
ĠÐ´ÐµÑĢÐ¶ Ð°ÑĤÑĮ
ĠÐ±Ð¾Ð»ÑĮ Ð½Ð¾
Ð°Ð¹ Ð»Ð¾Ð²
Ð¼ ÐµÐ»
Ð· Ðµ
ĠÐ´ÑĥÑĪ Ð°
ĠÐ¼ ÑĢÐ°Ñĩ
ĠÐ°ÑĢÑĤ Ð¸Ð»Ð»ÐµÑĢ
ĠÑĢÐ¾ÑģÑģÐ¸Ð¹ ÑģÐºÐ¸Ñħ
ĠÐ±ÐµÑģÐº Ð¾Ð½ÐµÑĩ
ĠÐĳ Ð¾Ð»
ĠÐ¿ÑĢ ÑĭÐ³
ĠÐ¿ÑĢÐ¾Ð±Ð¾ÑĢÐ¼Ð¾ÑĤ Ð°Ð»
ĠÐ¿ Ð¸ÑĤÑĮ
ĠÐł Ð°Ð¹
ĠÐ½Ð°Ð·Ð² Ð°ÑĤÑĮ
ĠÑĩÑĢÐµÐ· Ð²ÑĭÑĩ
ĠÐ¡ Ð¾ÑĦ
âĢ ĳ
ĠÑĢÐµÐ±ÑıÑĤ Ð°
ĠÐ¿Ð¾ÑģÑĤ Ð°Ð½Ð¾Ð²
Ð°Ð»ÑĮ Ð´
ĠÐ¼Ð½Ð¾Ð³Ð¾ Ðµ
Ñĳ Ñģ
ĠÐĶÐ¼Ð¸ÑĤÑĢ Ð¸Ð¹
ĠÐ´ÐµÐ² ÑıÑĤ
Ð¸Ðº Ð¾
ĠÐł ÐµÐ¹
ĠÑģÐ¼Ð¾Ð³ Ñĥ
ĠÐºÐ°Ð¶Ð´ Ð¾Ð¼
ĠÐ¸Ð¼ ÑĥÑīÐµ
ĠÐ¿Ð¾ÑĤ Ñı
Ðł Ðŀ
ÑĤÐµÑĢÐµÑģ Ð½Ð¾
ĠÐ±Ð¾Ð¼ Ð±
Ð°Ð» ÐµÐºÐ¾
Ð¾Ñĩ Ð½Ð¾Ð³Ð¾
ĠÐ¼Ð³Ð½Ð¾Ð² ÐµÐ½Ð½Ð¾
ĠÐ¿ÑĢÐ¾Ð±Ð»ÐµÐ¼ Ð°
Ð¾Ð¿ ÑĢÐ¾Ñģ
ĠÐ¤ Ð¸Ð»Ð¸Ð¿
ĠÑĤÐµÐ¿ Ð»Ð¾
ĠÐµ Ð·Ð´
ĠÑĤÑī Ð°ÑĤÐµÐ»ÑĮÐ½Ð¾
ĠÐ·Ð½Ð°Ñĩ Ð¸ÑĤÐµÐ»ÑĮÐ½Ð¾
Ñī Ð¸Ð¹
Ġ201 6
ĠÐ½Ð°Ð¿ÑĢÐ°Ð² Ð¸Ð»ÑģÑı
ĠÐ¿ÑĢÐµÐ´ÑģÑĤÐ°Ð² Ð»ÑıÐµÑĤ
ÂłÐĴ ÑģÐµ
ĠÐ½Ð°ÑĩÐ°Ð»ÑĮ Ð½Ð¸Ðº
ĠÐ²Ð¾Ð· ÑĢÐ°Ð¶
ĠÑĥÐ¼ ÐµÐ½ÑĮÑĪ
ĠÐĶÐ¶ Ð¾
Ð¾Ñĩ Ð½ÑĭÐµ
Ð°Ð± Ñĭ
ĠÐ¼ Ð¾ÑĤÐ¸Ð²
ĠÐº Ð°Ð¶
ĠÑĢÐµÑĪ Ð¸ÑĤÐµÐ»ÑĮÐ½Ð¾
ĠÐ²Ð½ÑĥÑĤÑĢ ÑĮ
Ð¸ÑĤ Ð¸Ð²
ĠÑĤÐµÐ» ÐµÐ²Ð¸Ð·
ĠÑĢÐ°Ð·Ð± Ð¸ÑĢ
ĠÑħÐ²Ð°ÑĤ Ð°Ð»Ð¾
ÑĪÐµ ÐµÑģÑı
ĠÑĨ Ð¸ÑĤ
ĠÐ½ÐµÐ´Ð¾ ÑĥÐ¼
Ð½ Ð¾Ð¶
ĠÐ´Ð°Ð½ Ð½ÑĭÐ¹
Ð»ÑĥÑĪ Ð°Ð¹
ĠÐ¿ÑĢÐµÐ´ Ð²Ð°ÑĢ
Ð»Ð°Ñģ Ñģ
ĠÐ±Ð¾Ð» ÑĤ
ĠÐ´ÑĢ Ð°Ðº
ĠÐ¿ÑĢÐ¾ÑĪ Ð»Ð°
Ð¸ÑĢÑĥ ÑİÑĤ
ĠÐ´ÐµÑıÑĤÐµÐ»ÑĮ Ð½Ð¾ÑģÑĤÑĮ
ĠÐ² Ð¿ÑĢÐ¾ÑĩÐµÐ¼
ĠÐ¿ ÑĭÐ»ÑĮ
ĠÐ²Ð¾ Ð¾Ð±ÑĢÐ°Ð¶
Ð» ÑĭÐ¼
Ð¾Ð¹ ÑĩÐ¸Ð²
Ð»Ñı Ñİ
ĠÐ½Ð°Ñģ ÑĩÐµÑĤ
Ð¡ Ð¢
Ð´ Ð¾ÑĢÐ¾Ð²
ĠÐĶ Ð¸
Ð»Ñı Ð»Ð¸ÑģÑĮ
ĠÐĲÑĢ Ð¼
ĠÐ¾Ð´Ð¸Ð½ Ð°ÐºÐ¾Ð²
ĠÐºÐ°ÑĢ ÑĮ
ĠÐ¿ ÑĥÑģÐº
ĠÐĺÐ½ Ð¾Ð³Ð´Ð°
ĠÑģÐ¾Ð¼Ð½ ÐµÐ½Ð¸Ñı
ĠÐ²Ð¾Ñģ Ð¿ÑĢÐ¸Ð½Ð¸Ð¼
ĠÐºÐ¾Ð½ ÐµÑĩ
ĠÑģÐº ÑĢÐ¸Ð¿
ĠÐ¾ÑģÑĤÐ°Ð½ ÐµÑĤÑģÑı
Ð¸Ð² Ð°Ð½Ð¸Ðµ
ĠÐ¸ÑģÐ¿ Ð¾Ð»
ĠÑĤ Ð²ÐµÑĢ
ĠÐ³Ð¾ÑĢ Ð¸Ð·
ÑĪÐ¸Ðµ ÑģÑı
ĠÐ´Ð°Ð½ Ð½ÑĭÑħ
Ġ6 0
ĠÐľ Ð°ÑĢÑĤ
ĠÐ¿Ð¾Ð· Ð°Ð´Ð¸
ĠÑĢÑĥÑģ ÑģÐºÐ¾Ð¹
ĠÑĥÐ³ÑĢ Ð¾Ð¶
Ñį ÑĤÐ¾
Ð¾Ð²Ð°Ð½ Ð½ÑĭÐ¹
ÐĿ Ð¸Ðº
ĠÑģÑĤÐ¾ Ð¸Ð»Ð¾
ĠÐº Ð²Ð°ÑĢ
ĠÑģÐ¿ÐµÑĨÐ¸ Ð°Ð»ÑĮÐ½Ð¾
ĠÑĤÑĥÑĢ Ð½Ð¸
Ð¾Ð²Ð°Ð½ Ð°
ĠÐ°Ð² ÑĤÐ¾
ĠÐľÐ°Ð¹ Ðº
ĠÐľ ÑĥÐ¶
ĠÐľ Ð°ÐºÑģÐ¸Ð¼
Ð¸ÑĢ Ðµ
ĠÐ³Ð¾Ð»Ð¾Ñģ Ðµ
Ð¸Ð²ÑĪ Ð¸Ñħ
ĠÐľ Ð¾Ð»
Ð½Ð¾ÑģÑĤ ÑıÑħ
ĠÐŁÑĢ Ð¸Ð½
ĠÐ¸Ð·Ð± ÑĢÐ°Ð½
Ñı ÑīÐµÐµ
ĠÐĿÐ¸Ðº Ð°Ðº
ĠÐ¿ÐµÑĢÐ² Ð°Ñı
ĠÑĨ Ð¸Ð²Ð¸Ð»
Ð»Ð°Ð· Ð°
ĠÐĴÐµÑĢ ÑħÐ¾Ð²
ĠÐ½ÐµÑĤ ÐµÑĢÐ¿
ĠÐ½Ð°Ñħ Ð¼ÑĥÑĢ
ĠÐ¶ ÑĥÑĤ
ÐŀÐ´ Ð½Ð°ÐºÐ¾
ĠÑģÐ¾Ñĩ Ð¸Ð½
ĠÑĢ Ð¾Ð»Ð¸
ĠÑĤ ÐµÑĩ
ĠÑĢÐ°Ð· Ñĥ
Ñĩ Ð°Ð»
ĠÐ¿ ÑĥÐ»
Ġ $
ĠÐ½Ð°ÑħÐ¾Ð´ Ð¸Ð»Ð¸ÑģÑĮ
ĠÐ°Ñį ÑĢÐ¾Ð¿
Ġt h
ĠÐ°Ð´ Ð²Ð¾Ðº
ĠÑģÐ¾Ð·Ð´ Ð°ÑĤÑĮ
ĠÐķ ÐºÐ°ÑĤÐµÑĢ
ĠÑģÑĩÐ¸ÑĤ Ð°ÑİÑĤ
ÂłÐ¥ Ð¾ÑĢÐ¾ÑĪÐ¾
ÑĤ Ð¸Ð¼
ĠÐ¢ Ð°ÑĢ
Ð» ÐµÐ¿
Ġ201 3
ĠÐ·Ð°Ð± Ð»
ĠÐ¿ÑĢÐ¸Ð½ ÑıÑĤÐ¾
ÐµÐ¶ ÑĥÑĢ
ĠÑģÐ¼Ð¾Ð³ Ð»Ð¸
Ð± Ð¸Ð½
ĠÑģÐ¾Ð¿ ÐµÑĢ
ĠÐ¿Ð¾Ð´ÑĢÐ°Ð· Ð´ÐµÐ»
ĠÐ´ÐµÐ» Ð°ÑİÑĤ
ÑĢÐ¾ Ñħ
Ð¾Ð´ ÑĥÑĪ
ĠÐľÐ°ÑĢ Ð¸Ñı
Ð¾ÑģÐ»ÐµÐ´ ÑģÑĤÐ²Ð¸Ð¸
ĠÐ¿Ð¾ÑģÐ»ÐµÐ´ Ð½ÐµÐ³Ð¾
ĠÐ£ Ð¶
ĠÐ¿Ð¾Ð»ÑĥÑĩ Ð¸Ð»Ð°
ĠÐ½Ð°ÑħÐ¾Ð´ ÑıÑĤÑģÑı
ĠÑħÐ¾Ð´ Ñĥ
ĠÑĤÑĢ Ð¾Ðµ
ĠÐ³ Ð¸Ð¿
ĠÐ²Ð¾Ð·Ð´ÑĥÑħ Ð°
ĠÐ³Ð»Ð°Ð² Ñĭ
Ðµ ÑĤÐ¾
ĠÑģÐ¼Ð¾ÑĤÑĢ ÐµÐ»Ð¸
ĠÐ² Ð¸Ð´Ð°
Ð¾ÑĢ Ð´Ð¶
ĠÐĿ ÐµÐ¿
ĠÐ·Ð°ÑĢ Ð°Ð½ÐµÐµ
ĠÐ¸ ÑģÑĤÑĢÐµÐ±
ĠÐ¦ÐµÐ½ÑĤ ÑĢ
ĠÐ²Ð¾Ð· Ð¼ÑĥÑī
ĠÐ¾Ð±Ð¾ Ð¸Ñħ
ĠÐ¿Ð¾Ð²ÐµÑĢÑħ Ð½Ð¾ÑģÑĤÐ¸
ĠÐ¸ÑģÑģÐ»ÐµÐ´ Ð¾Ð²Ð°Ð½Ð¸Ñı
ĠÐ±Ð°ÑĤ Ð°Ð»ÑĮ
ĠÐ´ÐµÐ¹ÑģÑĤÐ² Ð¾Ð²Ð°ÑĤÑĮ
Ð¿ÑĢÐµÐ´ ÐµÐ»
ĠÐµÑģÑĤÐµ ÑģÑĤÐ²ÐµÐ½Ð½Ð¾
Ð°Ð´ Ð¾
ĠÐļÐ°Ð¶Ð´ ÑĭÐ¹
Ð°Ð½ ÑģÐºÐ¾Ð³Ð¾
ĠÑģÐ¾Ð± ÑģÑĤÐ²ÐµÐ½Ð½Ð¾
ĠÐ¿ÑĢÐ¾Ð¼ ÑĭÑĪÐ»ÐµÐ½
Ðļ Ð¾Ð¼
ÑĪÐ¸Ñħ ÑģÑı
ĠÐ¿ÑĢÐ¸Ð³ Ð¾Ð²Ð¾ÑĢ
ĠÐ¿Ð° ÑĨÐ¸
ĠÐ³ÑĢÑĥ Ð±
ĠÑĢÑĥÑģ ÑģÐºÐ¾Ð³Ð¾
ÑĥÑĪ ÐºÐµ
Ð°Ð½Ð´ Ð°ÑĢÑĤ
ĠÑģÐµÐ¼ ÑĮÑı
ĠÑħÐ¾ÑĢÐ¾ÑĪ Ð¸Ð¹
ÑıÑī Ð¸Ð¼
ĠÑģÐ¾Ð»Ð½ ÑĨÐ°
ĠÐ¿Ð¾Ð·Ð²Ð¾Ð» ÑıÐµÑĤ
ÑĢ Ð¸Ð½
ĠÐ¿ÑĢÐ¾ÑĪ Ð»Ð¸
= "
ĠÐ¿Ð¾Ð´ Ð²Ð¾Ð´
ĠÑģÐ¼Ð¾Ð³ Ð»Ð°
ĠÑĥÑĩ ÑĢÐµÐ¶Ð´
Ð¿ÑĢ ÐµÐ¶Ð´
Ð¸Ð²ÑĪ Ð¸ÑħÑģÑı
ĠÑĥÐ³ Ð»Ñĥ
ĠÐ¿ ÑĥÐ½Ðº
ÑĨÐ¸Ñı Ð¼Ð¸
ĠÐ·Ð° ÑħÐ¾Ð´
ĠÑĩÐµÐ»Ð¾Ð² ÐµÑĩÐµ
ĠÐ³ÐµÑĢ Ð¾
ĠÑĢÐ°Ð· Ð¾Ñĩ
ĠÐĿÐµÑģ Ð¼Ð¾ÑĤÑĢÑı
ĠÐ²Ð¾ÑģÑħ Ð¸Ñī
ĠN E
ĠÑģÐ» ÐµÐ¿
Ð°Ð½ Ð½ÑĭÐ¼Ð¸
Ã ©
ĠÑħÐ²Ð°ÑĤ Ð°ÐµÑĤ
Ð¾Ñĩ ÐµÑĤ
Ð°Ñİ ÑīÐµ
ÂłÐ¡ Ð¿
ĠÐ² ÐµÐ¶
ĠÐ¿ÑĢÐ¸ ÐµÐ·Ð¶
Ñ Ĺ
ĠÐ¢ Ð¸Ð¼
ĠÐ¿Ð¾Ð´ ÑħÐ²Ð°ÑĤ
ĠX I
ÑĤ Ð°ÑĢ
ĠÑĤÐ°Ð½ ÐºÐ¾Ð²
W S
ĠÐĶ ÐµÐ»Ð¾
ĠÑĩ ÑĳÑĢ
Ð¾ÑģÑĤ ÐµÐ¹
Ð´ Ð¾Ð¼
ÑĨÐ¸Ñı Ñħ
ĠÐ²ÐµÑĢ Ð½ÑĥÐ»Ð°ÑģÑĮ
ĠÐ¿ÑĢÐ¸Ñģ Ð»ÑĥÑĪ
ĠÐ¾ÑĤ ÑĢÐµÐ·
ĠÑĥ ÑĢÐ¾Ðº
ĠÐ´Ð¾ÑģÑĤ Ð°Ð»
Ð¾ÑĢÐ° ÑĤÐ¾ÑĢ
ĠÑĥ ÑģÑĤÑĢÐµÐ¼
ĠÐ¿Ð°ÑĤ ÑĢÐ¸
ĠÐ¿Ð¾ÑĩÑĥÐ² ÑģÑĤÐ²Ð¾Ð²Ð°Ð»Ð°
ĠÐ¿ÑĢÐ¾Ðº Ð»ÑıÑĤ
ĠÑģÐ¾Ð·Ð½ Ð°Ð½Ð¸Ñı
Ð°ÑİÑī ÑĥÑİ
ÐĻ Ð¾ÑĢ
ĠÐ·Ð°Ð± Ð¾Ð»ÐµÐ²
ĠÐ±ÑĥÐ´ ÑĥÑīÐµÐµ
Ð°ÑĤÐµÐ»ÑĮ Ð½ÑĭÐ¼
ĠÐ²ÐµÑģ ÐµÐ»Ð¾
ĠÐ»Ð°Ð´ Ð¾Ð½
ĠÐ¼ Ð°Ðº
Ð¸Ñı Ð¼
Ð¸ÑĢÐ¾Ð² ÐºÐ¸
ĠÐĴÑĤÐ¾ÑĢ Ð¾Ð¹
Ð· Ð°Ð¿
ĠÐĶÐ¶ ÐµÐº
ĠÐ´ÐµÐ² ÑĩÐ¾Ð½
ĠÐ¿ÑĢÐ¸Ð½Ð¸Ð¼ Ð°ÑĤÑĮ
ĠÐ¼ ÐµÑĢÑĭ
Ð´Ð° Ñħ
ĠÐ²ÑĭÑģÐº Ð°Ð·
Ð»ÐµÐ½ Ð½Ð°Ñı
ĠÑĪ Ð¿
ĠÐ¿ÑĢÐ¸ÑıÑĤ Ð½Ð¾
ĠÑģÐ¾ÑģÑĤ Ð¾Ð¸ÑĤ
ĠÐ²Ð¾ÑĢÐ¾ÑĤ Ð°
ĠÐ³Ð¾ÑģÑĤ ÐµÐ¹
ĠÐ¶Ð¸Ð²Ð¾ÑĤ Ð½ÑĭÑħ
ĠÑĥÐ³ÑĢ Ð¾Ð·
Ð¾Ð» Ð¸ÑĤ
ĠÑģÐ¿ÑĢÐ°Ð² ÐµÐ´Ð»Ð¸Ð²
ĠÑģÐ²Ð¾ Ñĳ
ĠÑĢÐ°Ñģ Ñĩ
ĠÐ¿ÑĢÐ¾Ð³ÑĢÐ°Ð¼ Ð¼Ñĭ
ĠÐŁ Ð¾ÑĢ
âĢĥ âĢĥ
ĠÐ¾Ð´ Ð¾Ð±ÑĢ
ĠÐºÐ¾Ð¼Ð¿ Ð»ÐµÐº
ĠÑħÐ¾Ð´ Ð¸ÑĤÑĮ
Ð½Ð¸ÐºÐ° Ñħ
ÑĥÐ¼ ÐµÐµÑĤÑģÑı
ĠÑĤÐµÐ¼Ð½Ð¾ ÑĤÐµ
ĠÐĶ Ð¾ÑĢ
ĠÑģÐ»Ð¾Ð² Ð¾Ð¼
ĠÐ¿ÑĢÐ¾Ð´Ð¾Ð»Ð¶ Ð¸Ð»
ĠÐ³Ð¾ÑĤÐ¾Ð² Ð°
ĠÐ±Ð»Ð°Ð³Ð¾ ÑĢÐ¾Ð´
ĠÐ£ Ð´
ĠÐ·Ð°ÐºÐ¾Ð½ Ð¾Ð´
ÂłÐĿ Ð°
ĠÐ¿Ð¸Ñģ Ð°ÑĤÑĮ
ĠÐ¾ Ð³Ð»ÑıÐ´
6 0
ĠÐ°ÑĢ Ð¼Ð¸
ĠÐłÐ¾ÑģÑģ Ð¸Ð¹ÑģÐºÐ¾Ð¹
ĠÐ¿Ð¾Ð» Ð¾ÑĤ
ĠÑģÐµÑĢÐµÐ± ÑĢÑı
ĠÐ´Ð°Ð² Ð°Ð¹
ĠÑħ Ð¾ÑĢ
Ñĥ ÐºÑĥ
ĠÐ¶ Ð¸Ð´
ĠÑĩÐµÑĤÐ²ÐµÑĢ ÑĤ
Ġ re
ĠÐ±Ð¾ÑĢÑĮ Ð±Ñĭ
Â» )
ĠÐ»ÑİÐ± Ð¾Ð³Ð¾
Ð¸ÑĢÑĥ ÐµÑĤÑģÑı
Ð¼Ð¾ ÐµÐ¼Ñĥ
2 9
ĠÐ±Ð¾Ð»ÑĮÑĪ Ð¸Ñħ
ĠÐ¿ÑĢÐ¾Ð¸Ñģ Ñħ
Ñī Ð¸ÐºÐ°
Ð² ÐµÑĩ
ĠÐ½Ð°Ð· Ð²Ð°Ð»
Ñĳ Ñħ
ÑĢ Ð¸ÑĤ
ÐµÐ³ Ð°
ĠÑģÐ² ÐµÑĩ
ĠÑĥÑģÐ¿ ÐµÐ»Ð°
ĠÑģÐ¸Ð´ ÐµÑĤÑĮ
ĠÑĥÐ» ÑĥÑĩ
Ð¾Ð¿Ð¾Ð» ÑĥÑĩ
Ð¿ Ð°Ð´
ĠÐ¡ ÐľÐĺ
ĠÐŁ Ð¾Ð³
ĠÑĥÐ´Ð° ÑģÑĤÑģÑı
Ð¾ Ð¸Ñħ
Ð³ÑĢ Ð¾Ð¼
ĠÐ·Ð°Ð² ÑĤÑĢ
ĠNE WS
o v
Ð¾Ð¶ Ð°
ĠÑģÐº Ð°Ð½Ð´
Ð¾ÑĢ Ð¾Ð´
ÑĮ ÐµÐ¹
ÐµÑĤ Ð¸
ĠÐ¾Ð± Ð¾ÑĢÐ¾ÑĤ
ĠÑģÐ¸ÑģÑĤ ÐµÐ¼Ñĥ
ĠÐºÐ¾Ð½ÑĤÑĢ Ð¾Ð»ÑĮ
ĠÐ¿Ð¾Ð¿ Ð°ÑģÑĤÑĮ
ĠÐ¾Ð¿Ð°Ñģ Ð½Ð¾ÑģÑĤÐ¸
ĠÑģ ÐµÐ²
ĠÐ¿Ð¾ÑĤÐµÑĢ ÑıÐ»
ĠÐ´ ÐµÑĪ
ĠÐĽ Ð¸Ð½
ĠÐ¾ÑĤÐ½Ð¾ÑĪ ÐµÐ½Ð¸Ð¹
ĠÐ´ÐµÑģÑı ÑĤÐ¸
Ñı ÐµÐ¼
ĠÐ¿Ð¾Ð² Ð¾Ð´
ĠÑħ Ð¸Ð¼
ĠÐ¿ÑĢÐ¸ÐµÑħ Ð°Ð»
ĠÐºÐ¾Ð» ÐµÐ±
ĠÐ¿ ÑĮÑı
ÐµÐ´ ÑĢ
ĠÑĢÑĥÑģ ÑģÐºÐ¸Ðµ
ĠNEWS ru
ĠÑģÐ² Ð¸Ð½
Ð°Ð½Ñĥ Ð½Ðµ
Ð°ÐµÑĤ ÐµÑģÑĮ
ĠÐ³ÑĥÐ± ÐµÑĢÐ½Ð°
ĠÐ·Ð½Ð°Ñĩ ÐµÐ½Ð¸Ñı
Ð½Ð¸ Ñİ
ĠÐ¾Ð±Ñī ÐµÐ³Ð¾
ĠÐķÐ²ÑĢÐ¾Ð¿ Ðµ
ĠÑĤ Ð²Ð°ÑĢ
ĠÑĤÑĢÐ°Ð´ Ð¸ÑĨÐ¸Ð¾Ð½
Ð³ ÐµÐ»
ĠÐ²ÐºÐ»ÑİÑĩ Ð°Ñı
Ð½ Ð°Ð¿
ÑĪ ÐºÐ°
Ðļ ÐĲ
ĠÐ½Ð°ÑģÐ» Ð°Ð¶Ð´
ĠÐ² Ð¿ÑĢÐ°Ð²
ĠÐ¿ÑĥÑģÑĤ Ñĭ
ĠÐ½ÐµÐ¼ Ð°Ð»Ð¾
ĠÐ¿Ð¾ÑĢ ÑĤÑĢ
ĠÐŁÑĢ ÐµÐ·
ĠÐ´Ð¾Ð¼ Ð¾Ð²
ÐµÑĢ Ð²Ð°
] ,
Ð» Ð¸Ð½Ð°
ĠÐ´Ð¾ÐºÑĥÐ¼ ÐµÐ½ÑĤÑĭ
ĠÐŁ Ð¾Ð·
ĠÐ¿Ð¾Ð»Ð¸ÑĤ Ð¸ÐºÐ¸
ĠÐµÐ´Ð¸Ð½ ÑģÑĤÐ²ÐµÐ½Ð½ÑĭÐ¹
ĠÐ¿Ð¾Ð»ÐºÐ¾Ð² Ð½Ð¸Ðº
ĠÐ¡ ÑĢÐµÐ´Ð¸
ĠÐ´Ð°Ð» ÐµÐº
ĠÐŁÐ°Ð² ÐµÐ»
ĠÐ²Ñĭ Ð»ÐµÑĤ
ĠÐ¿ ÐµÑħ
ĠÐķÐ² Ð³
Ð¾Ð² Ð°Ð»Ð¾ÑģÑĮ
ĠÐ¼Ð°Ð» ÐµÐ¹
Ð½Ð° Ñħ
ĠÑĢÐµÑģ ÑĥÑĢ
Ð¸Ð²ÑĪ ÐµÐ³Ð¾
ĠÐ´ÐµÐ¼ Ð¾ÐºÑĢÐ°ÑĤ
ĠÐ¿ÑĢÐ¾ÑĤÐ¸Ð² Ð¾ÑĢÐµÑĩ
ÑĢ Ð¾Ð³
ĠÐĳ ÐµÐ½
ĠÑĤ Ðº
ĠÐ·Ð°Ð± ÑĭÑĤÑĮ
ĠÑģÐµÑģÑĤ ÑĢÐ°
ĠÐ³Ð¾ÑģÑĤ Ð¸
Ð½ Ð°Ð¶
Ð´ ÑĮ
ĠÐĵÐ¾Ñģ ÑĥÐ´Ð°ÑĢ
ĠÐ¿ÑĢÐ¸ÑĪ Ð»Ð¾
ĠÐ°ÑĤ Ð¼Ð¾Ñģ
ĠÐ¿Ð¾Ñĩ ÑĤ
ÐµÐ½ÑĮ ÐºÐ¸Ð¹
ĠÐĿ ÐµÐ´
ĠÐµÑħ Ð°ÑĤÑĮ
âĢ ¢
ĠÐ¿Ð¾Ð»ÑĥÑĩ Ð°ÐµÑĤÑģÑı
ĠÑģÐµÑĢÐµÐ´ Ð¸Ð½Ðµ
ĠÐ°Ð½ Ð°Ð»Ð¾Ð³
ĠÐºÐ¸Ð»Ð¾Ð¼ÐµÑĤ ÑĢÐ¾Ð²
ĠÐľÐ°ÑĢ Ðº
ĠÐ¢ Ð¸Ñħ
ĠÐ¿Ð¾ÑģÐ» ÑĭÑĪ
ĠÐ¶Ð¸Ð² ÑĥÑĤ
ĠÐ¼Ð°Ð» ÑĭÑĪ
ĠÐ¿ÑĢÐ¾ÑģÑĤÑĢÐ°Ð½ ÑģÑĤÐ²Ð¾
ĠÐ¸ÑĤ Ð°Ð»ÑĮÑıÐ½
ĠÐ¾ÐºÐ°Ð·ÑĭÐ² Ð°ÐµÑĤÑģÑı
ĠÐĳ Ð¾Ð»ÐµÐµ
ĠÑĢÐ¾Ð´ Ð¸ÑĤÐµÐ»ÐµÐ¹
ĠÐ·Ð°Ñģ Ð¼Ðµ
Ñĩ ÐµÐ½ÐºÐ¾
ĠÐºÐ¾Ð¼Ð¿ Ð»ÐµÐºÑģ
ĠÑģÐ²ÐµÑĢ Ñħ
ĠÑĤ ÑĥÐ¼
Ð¸Ð²ÑĪ Ð¸Ðµ
ÑĪÐ¸Ð¹ ÑģÑı
Ð¼ Ñģ
ĠÐł Ð°Ð´
ĠÐ¿ Ð»Ñı
ÑĢÐ¾Ñģ Ð¸Ð»
ĠÑĤÐ°ÑĢ ÐµÐ»
Ð¸ÑĨ Ð¸Ð¹
Ð¸Ð½ ÑĤ
Ð»Ð¸Ð² ÑĭÐ¹
ĠÐ¾ÑĤ Ð»Ð¸ÑĩÐ½Ð¾
ĠÐ²ÑĭÑģ Ð¾ÐºÐ¾
Ð» ÐµÑģÐº
ĠÑĤÐ°Ðº ÑĤ
ĠÐ¾ÑģÐ» Ð°Ð±
ĠÐ² Ð°Ð³Ð¾
ĠÐ· Ð°Ð»Ðµ
ĠÐ¾Ð± ÑħÐ¾Ð´
ĠÐ³Ð¾ÑģÑĥÐ´Ð°ÑĢ ÑģÑĤÐ²Ð¾
ĠÐ¡Ð¿ Ð°ÑģÐ¸Ð±Ð¾
ĠÐ¿Ð¾ÑĤ ÐµÐ½ÑĨÐ¸
ĠÐ»Ð°Ð´ Ð¾Ð½Ð¸
ĠÑģÐ¼ Ðµ
ĠÐ²ÐµÑĢ Ð¸ÑĤÑĮ
ĠÐ¿ÑĢÐ¾Ð² Ð°Ð»
Ð°ÑĢ Ð¼
ĠÑĤÑĢ ÐµÐ½Ð¸ÑĢÐ¾Ð²
ĠÐºÐ¾ÑĢÐ¸Ð´ Ð¾ÑĢ
Ð· Ð°Ð´Ð¸
Ðº Ð¾Ð³
ĠÐ¡ÑĤ Ð°Ð»Ð¸Ð½
!! !
ĠÐ·Ð°Ð²Ð¸Ñģ Ð¸ÑĤ
ĠÐ¿ÐµÑĢ ÐµÑħ
Ð¾Ñı Ð²
Ġ e
ĠÐ¸Ð´ ÑĥÑĤ
ÐµÑħ Ð°Ð»Ð°
Ð¸Ð¹ ÑģÐºÐ¸Ñħ
ĠÐ·Ð°Ð¼ÐµÑĤ Ð½Ð¾
ĠÑĨÐµÐ½ÑĤ ÑĢÐ°
ĠÐŁÑĥÑĤ Ð¸Ð½
Ð³ Ð°Ð»
ĠÑĤÐ²Ð¾ ÐµÐ³Ð¾
ĠÑģÑĥÐ´ Ñı
ÑĤÐµ ÑĦ
ĠÐºÑĢÐ°Ñģ Ð°Ð²
ĠÐ·Ð°Ð´ÑĥÐ¼ ÑĩÐ¸Ð²Ð¾
ĠÑĦ Ð»Ð¾ÑĤ
ĠÐ¿Ð¾Ð´Ð¾ÑĪ Ð»Ð°
a p
ĠÐºÑĥÐ¿ Ð¸ÑĤÑĮ
ĠÐ¿ÑĢÐµÐº ÑĢÐ°Ñī
ĠÐ²Ð½Ñĥ ÑĪ
Ð¾ÑģÐº Ð¾ÑĪ
ĠÐ·Ð°Ð¼ Ð¾Ðº
ĠÐ²ÐµÑī ÐµÐ¹
Ð°Ñī Ð¸Ñħ
Ð°ÑİÑīÐ¸Ñħ ÑģÑı
ÐŁ ÐµÑĢÐ²
ĠÑĢÐ¾Ð´ Ð¸ÑĤÐµÐ»Ð¸
ÑĥÐ´ Ð¸ÑĤÑĮ
ĠÐ¿ÑĢÐ¸Ð¼ ÐµÑĢÑĥ
ÑĤ Ñı
ĠÐ¿ÑĢÐ¾Ñĩ ÑĮ
ĠÐ½ÐµÐ¿Ð¾Ð´ Ð²Ð¸Ð¶
ÐĶ Ð»Ñı
ĠÐľ Ð°Ð½
ÑĤÐ¸ Ñİ
ĠÑĢÑĥÑģ ÑģÐºÐ¸Ð¹
ĠÐ¿ÑĢÐ¾Ð¸Ð·Ð²Ð¾Ð´ ÑģÑĤÐ²Ð°
ĠÐ¾ÐºÐ°Ð· Ð°ÑĤÑĮÑģÑı
ĠÐ¼ÐµÑĤÐ°Ð» Ð»Ð¸ÑĩÐµÑģÐº
ĠÐ±ÑĥÐ´ÑĥÑī ÐµÐ¼
o c
ĠÐ¸ Ð½Ð¾Ð¹
Ð½Ð¾Ð² ÐµÐ½Ð¸Ñı
ĠÑĩÑĥÐ² ÑģÑĤÐ²Ð¾Ð²Ð°Ð»Ð°
ĠÐ½Ð¸Ñĩ ÐµÐ¼
ĠÐ»Ð°Ð³ ÐµÑĢ
Ð°ÑĢ Ð´Ð°
ÑĥÑī Ð¸Ð¹
ĠÑĤÐµ Ð°ÑĤÑĢ
ĠÐ¿Ð¾Ð» Ð½ÑĭÐ¹
ĠÐ¢ ÑĢÐ¸
ÑĥÐ» Ñĭ
ĠÐĹ Ð°Ð¼
ĠÑģÐº ÑĢÑĭ
ĠÐ¡ ÑĢÐµÐ´
ĠÐ²Ð¾ÑģÑĤ Ð¾ÑĢ
ĠÐ¸Ð¼ ÐµÐ»Ð°
ĠÐ¼Ð¾Ð· Ð³
ĠÐ¿ÑĢÐµÐ´ Ð¿ÑĢÐ¸Ð½Ð¸Ð¼
ĠÐ¿Ð¾ÑģÐ»ÐµÐ´ Ð½ÐµÐ¹
ĠÐ²Ð°ÑĪ Ð¸Ñħ
ĠÑģÐ¿Ð¸Ñģ Ð¾Ðº
ĠÐ·Ð°Ð¼ ÐµÐ½
Ð°Ð» Ð¸ÑĤ
ĠÑĤÑĢ Ð¾Ð½
Ð»ÐµÐ½Ð½Ð¾ Ðµ
ĠÑģÐºÐ¾ÑĢ Ð¾ÑģÑĤÑĮ
Ð°Ð¶ Ð¸ÑĤÐµ
Ð¾Ð¼ Ð°ÑĤ
ĠÐĿÐ¾Ð² Ð¾ÑģÑĤÐ¸
ĠÐ· ÑĢÑı
ĠÐ½Ðµ Ð¾Ð´
Ðľ Ð½Ðµ
ĠÑģÑĩÐ°ÑģÑĤ ÑĮÐµ
Ð¸ÑĢ Ñĭ
Ð¾Ð´ Ð¸
ĠÐ±Ð¾Ð»ÑĮÑĪ ÐµÐ¹
ĠÐ´ÑĢ Ð°Ð³Ð¾
ĠÐ¿Ð¾ ÑĨÐµÐ»
ĠÐ°Ð½ Ð°Ð»Ð¸Ð·
is t
ĠÐ½Ð°ÑģÑĤ Ð°
ĠÑİ Ð½Ð¾ÑĪ
ĠÐ¿ÑĢÐ¸Ð² ÐµÑģÑĤÐ¸
ĠÐ¿Ð¾Ð´ Ð·ÐµÐ¼
4 5
ĠS t
ĠÐ¿ÑĢÐ¾Ð´Ð¾Ð»Ð¶ Ð°Ð»Ð°
Ð½Ð¾Ð´ ÑĥÑĪ
ĠÑĢÐµÐ³ ÑĥÐ»ÑıÑĢ
Ð± ÑĥÑĢ
ĠÑĪÐ°Ð³ Ð¾Ð²
ĠÐºÐ¾Ð» ÐµÑģ
ĠÑĢ Ð²Ð°Ð½
ĠÐ¡ÑĤ ÑĢÐ°Ð½
ĠÐŁÑĢÐµÐ´ ÑģÑĤÐ°Ð²
ĠÐ¿Ð¾ ÐµÐ´
ĠÐ²Ñĭ Ð²
ĠÐºÐ°Ð¶Ð´ ÑĭÐ¼
ĠÐ±Ð¾Ð»ÑĮÑĪ Ð¾Ð³Ð¾
ĠÐ£ÐºÑĢÐ° Ð¸Ð½Ð°
Ðķ Ðł
Ð¾Ð· Ð³
Âł Ð½Ðµ
ĠÐ¾Ð± Ð¾ÑĢÐ¾Ð½
ĠÑģÑĤÐµÐ½ Ñĥ
ĠÐº ÑĥÑģÐº
ÑĤÐ¸ Ð½Ñĭ
ÐµÐ²Ð¸Ñĩ Ð°
ÐµÐ² ÑĭÐµ
ĠÐ¿ ÑĥÑĪ
ĠÐ¾Ð³ Ð½
Ðĵ Ð°Ð·
ÐĿ Ðł
ĠÐ½Ð°Ð´ ÐµÑı
ĠÑģ Ð¾Ð¶
ĠÐ¿Ð¾Ð¶ Ð°ÑĢ
ĠÐ¯ Ð¿
ĠÐº Ð°ÑĪ
ĠÑħÑĥÐ´ Ð¾Ð¶Ðµ
Ð½ Ð°Ð´ÑĨÐ°ÑĤ
ĠÐ³Ð°Ð· ÐµÑĤ
Ð°Ð± Ð¾Ñĩ
ÐµÑĢ ÑĤÐ°
ĠÑģÐ¿Ð¾ÑģÐ¾Ð± ÐµÐ½
ĠÑģÐ¾Ð¾ÑĤÐ²ÐµÑĤ ÑģÑĤÐ²Ð¸Ð¸
ÐµÐ½ÑĤ Ð¾Ð¼
Ð¾Ð¿ ÑĢÐµÐ´
Ñı Ð¿
ĠÑģÑĤ ÑĭÐ´
ĠÐĿ ÐµÐ±
ĠÑģÐ¿ÑĢÐ¾Ñģ Ð¸ÑĤÑĮ
Ð¸Ð¼ ÑĭÐµ
ĠÑĥÐ»ÑĥÑĩ ÑĪ
ĠÐ·Ð°Ðº Ð»Ð¸Ð½
ĠÑĩÐµÑĢ ÐµÐ¿
ĠÑĥÐ´Ð¾Ð²Ð¾Ð»ÑĮ ÑģÑĤÐ²Ð¸ÐµÐ¼
ĠÐ¿Ð¾Ñģ ÑĢÐµÐ´
ĠÐĴ Ð°Ð½
er s
ĠÐ´ÐµÑĢÐµÐ² ÑĮÐµÐ²
ĠÐ¾Ð±ÑĢÐ°Ð· Ð¾Ð²Ð°Ð½Ð¸Ñı
Ð¸Ð²ÑĪ Ð¸ÐµÑģÑı
ĠÐ¿Ð¾ÑĢÑıÐ´ ÐºÐ°
ĠÐŁÐµÑĢÐ² ÑĭÐ¹
ÐµÑĤ Ð¾Ð²
ĠÐºÐ¾ÑĢÐ¿ ÑĥÑģ
ĠÐºÐ²Ð°ÑĢ ÑĤÐ¸ÑĢÑĥ
ĠÐ¸Ð½Ð´Ð¸Ð² Ð¸Ð´Ñĥ
ĠÐºÐ¾Ð¼Ð°Ð½ Ð´Ð°
ÂłÐļ ÑĤÐ¾
ÂłÐļ Ð¾Ð½ÐµÑĩÐ½Ð¾
ĠÐ¾Ð±Ð½Ð°ÑĢÑĥÐ¶ Ð¸Ð»
Ð» Ð¸ÑĤ
ĠÐºÐ½Ð¸ Ð³Ðµ
ĠÐ²Ð¾ ÐµÐ½Ð½Ð¾Ð¹
Ð¾Ð²Ð°Ð½ Ð½ÑĭÑħ
ÐĿ Ðŀ
ÐĽ ÐĲ
ĠÐ±ÑĥÐ¼ Ð°Ð¶
ĠÑģ Ð»Ð¾
ÑģÑĤ ÐµÑĢ
ĠÐ²Ð· Ð±
ĠÐº Ð¾Ð´
ĠÑĦÐ¸Ð»ÑĮ Ð¼
ĠÐ¾Ð´ ÐµÐ¶Ð´Ñĥ
Ð¸ÑĢÐ¾Ð²Ð°Ð½ Ñĭ
ĠÐ± Ñĥ
ĠÑĦ Ð¾Ð½Ðµ
ĠÑĥÑģÐ» ÑĥÐ³
ĠÐ¿Ð¾Ð²ÑĤÐ¾ÑĢ Ð¸Ð»
ÑģÑĤÐ²ÐµÐ½ Ð½Ð¾Ð¼
ĠÐ´ Ð½ÐµÐ²
ĠÐ±ÑĭÐ² ÑĪÐ¸Ð¹
ĠÐ¾ÑĤÐ²ÐµÑĩ Ð°Ð»
ĠÐ¾ Ð³Ð»Ñı
ĠÐ¿Ð¾Ð½Ð¸Ð¼ Ð°ÑĤÑĮ
Ñģ Ð¸Ñı
ĠÑģÐ¸Ð´ Ð¸ÑĤ
ĠÐ½Ð°Ð¼ Ð½Ð¾Ð³Ð¾
ĠÐ¡ Ð¾Ð³Ð»Ð°ÑģÐ½Ð¾
ĠÑįÐºÑģÐ¿ ÐµÐ´
ĠÐºÑĢÐµÑģ Ð»Ð¾
ÑĭÐ² Ð°Ð½Ð¸Ñı
ĠÐ¤ÐµÐ´ ÐµÑĢÐ°ÑĨÐ¸Ð¸
ĠÐ¸Ð½Ð¶ ÐµÐ½ÐµÑĢ
ĠÐ²Ð½Ð¸Ð· Ñĥ
ĠÐĿ Ð°Ð²
ĠÐĶ Ð¾Ð¼
3 5
ĠÑģÐ¸Ð»Ð° Ñħ
ĠÐŁÐ°ÑĢ Ð¸Ð¶
Ð³ Ð¾Ð»
ĠÐ¡ ÐµÐ²
ĠÑī ÐµÐ»
Ñħ Ð¸
ĠÐ¸Ð·Ð¼ÐµÐ½ ÐµÐ½Ð¸Ñı
ĠÐ·Ð°Ð² Ð¾ÐµÐ²
ÐµÑĤÐµ ÑģÑĮ
ĠÑĤÐµÐ» ÐµÐ³
ĠÐ¿Ð°Ð¿ Ð°
ĠÐº Ð½Ð¾Ð¿
ĠÐ²ÐµÐ» Ð¸ÑĩÐµ
ĠÐĿÐµÐºÐ¾ÑĤÐ¾ÑĢ ÑĭÐµ
ĠÐ±ÐµÐ¶ Ð°ÑĤÑĮ
ĠÐ´Ð² Ð¾Ð¹
____ ____
ĠÑĢÐ°ÑģÑģÐ» Ð°Ð±
ĠÐ²Ð¿ Ð»Ð¾ÑĤ
ĠÐ¿ÑĢÐ¸ Ð½Ð¾Ñģ
Ð½ ÐµÐ½Ð¸Ñı
ĠÐĲÐ½Ð³Ð»Ð¸ Ð¸
ĠI n
ĠÑį Ð»ÑĮÑĦ
ĠÑĪÐºÐ¾Ð» Ñĥ
ĠÐºÑĢÐ¾Ð² ÑĮÑİ
ĠÐľ ÑĥÑĢ
ĠÐĺ Ð¾
ĠÐ¿Ð¾Ð» ÐºÐ°
ĠÐºÐ°ÑĤ Ð°ÑģÑĤÑĢÐ¾ÑĦ
ĠÐ²ÑģÑı ÐºÐ¾Ð³Ð¾
ĠÐ¶ÐµÐ½ Ð¾Ð¹
ĠÐ» Ð°Ð¼Ð¿
ÑĮ ÑıÐ²
ĠÑĢÐ°Ð·Ð²Ð¸ÑĤ Ð¸Ðµ
ĠÐ¾ÑĤÐºÑĢÑĭ ÑĤÑĮ
ĠÐ²ÑĢÐ°Ð³ Ð°
ĠÐ´ Ð¾Ð¶
ĠÐ¿ÑĢÐ¸Ñĩ Ð¸Ð½Ðµ
ĠÐ¿Ð¾Ð¼ Ð¾Ð¶ÐµÑĤ
ĠÐ¿ÑĢÐ¸Ð´ ÐµÑĤ
ĠÐ¾Ð± ÑĢÐ°Ð´
Ð¾Ð²Ð°Ð½ Ð½ÑĭÐµ
ĠÑģÐ±Ð¾ÑĢ Ð½Ð¾Ð¹
ĠÐ²ÐµÐ´ ÐµÑĤ
Ð¸Ð½ Ð°Ñħ
ĠÑģÐ¼ Ð¸ÑĢ
Ð± Ð¾Ð»ÑĮ
ÂłÐŁ Ð¾
ĠÑģÐ¿Ð°Ñģ Ð¸Ð±Ð¾
ĠÐ²Ð·Ð´ÑĢ Ð¾Ð³
ĠÐ¿ÑĢÐ¾ÑĨ ÐµÐ½ÑĤÐ¾Ð²
ĠÐ¡ Ð¸Ð´
Ñİ Ð½
Ð¸Ñģ Ð»Ð°Ð²
ĠÑĢ Ð¾ÑģÐºÐ¾ÑĪ
ÑĢ Ð¸Ñħ
Ð¸Ð» Ð¾Ð²
Ð¾Ð²Ð°Ð½ Ð¾
ĠÑģ Ð½ÑıÐ»
ĠÐ¿Ð»Ð°Ð½ Ñĭ
Ġ i
ĠÐ¿ÑĢÐ¾ÑĦÐµÑģÑģ Ð¾ÑĢ
Ñı ÑİÑī
ĠÐ¾ÑĤÐºÐ°Ð· Ð°Ð»ÑģÑı
Ð» Ð¾Ð³Ð¾
ĠÐ²Ð· ÑıÐ»Ð¸
ĠÐ¡ Ð°Ð²
ĠÑģÐ¿Ð¾ÑĢÑĤ Ð¸Ð²
Ð¸Ð» Ñĭ
ÑĤÐµÑĢ Ð°
ĠÐ²ÑĭÑħÐ¾Ð´ Ð°
ĠÐ¿ÑĢÐ¾ÑĪ Ñĥ
ĠÐ¾Ð±ÑĬÑıÑģÐ½ Ð¸Ð»
Ð°ÑĤ Ð¾Ð¹
ĠÐ¿Ð¾Ð¸Ð½ÑĤÐµÑĢÐµÑģ Ð¾Ð²Ð°Ð»ÑģÑı
Ð¢ ÐµÐ¿ÐµÑĢÑĮ
ĠÑģÑĤÐ°Ðº Ð°Ð½
ĠÑĢÐ°Ñģ ÑģÐµ
ĠÐ· ÐµÐ»
ĠÑĤÑĢ ÐµÐ½ÐµÑĢ
ĠÐ·Ð°Ñī Ð¸ÑĤÑĭ
ĠÑĦ Ð¾ÑĤÐ¾
ÐµÑģÐ¿ Ð¾Ð½Ð´
ĠÐŀÑģ Ð½Ð¾Ð²
ÑĢ Ð¸Ð²
Ð°Ð»ÑĮ Ð½Ð¾Ð¼Ñĥ
8 0
Ð¾Ñĩ ÐºÐ¾Ð¹
Ð¸Ð¼ Ð¾Ð¼Ñĥ
ĠÐĲÐ½ Ð½Ð°
ĠÑģÑĥÐ¼ ÐµÐ»
Ð¾Ð± ÐµÐ´
ĠÐ¸ÑĤ Ð¾Ð³
ÑĢ Ð°Ð±Ð¾ÑĤ
Ð»Ð¸ Ð¿
ÑģÐº Ñĥ
ĠÐ¢ ÐĲ
Ñĩ Ñĥ
ĠÑĢÐ¾ÑģÑĤ Ð°
ĠÑĢÐ°Ð±Ð¾Ñĩ Ð¸Ñħ
ÑĨÐ¸Ð¾Ð½ Ð½ÑĭÑħ
ĠÐ¾Ð± ÑĭÐº
ĠÑģÐ¾ Ð¾Ð±ÑĢÐ°Ð·
ÑĨÐ¸Ð¾Ð½ Ð½Ð¾Ð³Ð¾
ĠÐĴÑģ Ñĳ
ĠÑıÑĢ ÐºÐ¾
ĠÐ¿Ð¾Ð¾Ð± ÐµÑī
es t
Ð½ Ð°Ð²
ĠÐŁ Ð°
ĠÐ¸Ð½ÑĤÐµÑĢ Ð²ÑĮÑİ
ĠÐ·Ð°Ð» Ð¾Ð¶
ĠÐµÐ² ÑĢÐµ
Ð¾Ñĩ Ð¸
ĠÐ´Ð¾Ð± ÑĢÐ¾Ð²
Ð» Ð°Ñı
ĠÐ³ÑĢ Ð°Ð´
ĠÐ¾Ð¿ÐµÑĢ Ð°ÑĤÐ¸Ð²
ĠÐ¾ÑĤÑģÑĥÑĤ ÑģÑĤÐ²Ð¸Ðµ
ĠÐł Ð¾Ð·
ĠÐ¤ Ð¸Ð½
ĠÐ¿ÑĢ Ð¾Ð»ÐµÑĤ
ĠÐ³Ð¸Ð³ Ð°Ð½ÑĤ
ĠÐºÐ¾Ð¼Ð°Ð½ Ð´Ñĥ
ĠÐ½Ð°Ð½ ÐµÑģ
Ð°ÐµÐ¼ ÑĭÐµ
ĠÑģÐ¾Ðº ÑĢÐ°Ñī
ĠÐĲ ÑĤ
ĠÐ¿Ð¾ÑģÑĤÐ°Ð² Ð¸ÑĤÑĮ
ĠÑįÑĦÑĦ ÐµÐºÑĤ
Ð°ÑĤÑĮ Ñı
ĠÐĶÐ°Ð² Ð°Ð¹
Ð¸Ð½Ñĥ Ð»Ð°ÑģÑĮ
ÐµÑģÑĤ Ð°
ĠÐŀÑĤ Ðº
ĠÐ½Ð°Ð·ÑĭÐ² Ð°ÑİÑĤ
ĠÐ¼ÑıÐ³ ÐºÐ¾
ĠÐ¿ÑĢÐ¾ ÐµÐºÑĤÐ°
r i
ĠÐĿ ÐµÑģÐºÐ¾Ð»ÑĮÐºÐ¾
Ð¾Ð» Ð·
Ð°Ð² ÐºÐ°Ð·
ĠÐ½Ð° ÑģÑĤÐ°Ð²
ĠÐ¡Ð¾Ð² ÐµÑĤÐ°
ĠÑģÑĤÐ°ÑĢ Ð°Ð»ÑģÑı
ĠÑĥ ÑĪÐ¸
ĠÐ´ ÐµÐ¶ÑĥÑĢ
ĠÑĢÐ°ÑģÑģÐºÐ°Ð·ÑĭÐ² Ð°Ð»
ÐµÑģÑĤ Ð½Ð¾
ĠÐ¾Ð´ ÐµÑĤ
Ðļ Ð¾Ð½
Ð¾Ð´ Ð¾Ð±
ĠÐļ ÑĥÐ·
ĠÐľ ÐµÑĢ
Ð¸Ð¼ ÑĭÑħ
ĠÑĢÑĥ Ñħ
ĠÐĹ Ð°Ð±
ĠÐ½ÐµÐ² Ñĭ
ĠÐ³ÑĢ Ð¾Ð±
ĠÑģÐ°Ð¼ ÑĥÑİ
ĠÐ½Ð¾Ð² Ð°Ñı
ĠÑģÐ¿ Ð¸ÑģÐº
ĠÐ´ÐµÑĢÐ¶ Ð°Ð»
Ð² ÑıÑĤ
Ð² ÑıÐ·
ĠÐ¿Ð¾Ð´Ð¾Ð± Ð½ÑĭÑħ
ĠÐ¿Ð°Ð» ÑĥÐ±
ĠÑģÐº Ð°Ð¼
ĠÐ¼Ñĭ ÑģÐ»Ñı
ĠÐ³ Ð³
ĠÐĺÐ²Ð°Ð½Ð¾Ð² Ð¸Ñĩ
Ð¸Ð½ Ð°Ð¼Ð¸
ÑģÑĤÐ² Ð¸Ð¹
Ð¡ Ð°Ð¼
Ðº ÐµÑĢ
ĠÐ¸ÑģÐºÑĥÑģ ÑģÑĤÐ²Ð°
ĠÐ²Ð¾ ÑĪÐ»Ð¸
ĠÐ¾ ÑĢÐ¸
ĠÑĢÐµÐ²Ð¾Ð»Ñİ ÑĨÐ¸Ð¸
ĠÐ¼Ð¸Ð½ Ð¸ÑģÑĤÑĢ
ĠÐ±ÑĢ Ñİ
o p
Ð½Ñĥ Ð»Ð¾ÑģÑĮ
ĠÐº Ð¸ÑĢ
ÐµÐ¶ Ð´Ðµ
Ð½Ðµ ÑĪÑĮ
ĠÐľÐ¾ÑģÐº Ð²Ð°
e b
ĠÑģÐ¾Ð·Ð´ Ð°Ð½Ð¸Ñı
ĠÐ¼ Ð¸ÑĤ
ĠÑĥÐ± Ð¸Ð»
ĠÐ¾ÑģÑĤÐ°Ð² Ð°ÑĤÑĮÑģÑı
Ð» Ð¸Ð»
ĠÐ¼Ð°Ñģ ÑĪÑĤÐ°Ð±
ĠÐºÐ²Ð°ÑĢÑĤÐ¸ÑĢ Ðµ
ĠÐ¿ÑĢÐ¸Ð· Ð½Ð°
ĠÐ²ÑĭÑģÐº Ð°Ð·ÑĭÐ²
a v
Ñ ŀ
ĠÐ¿ÑĢ Ð¸Ð¹
ĠÐ¾Ð±ÑĬ ÑıÑĤ
ĠÑģÑĤÐ¾ ÑıÐ²
ĠÐ²Ð¾Ð» Ð½Ñĥ
ĠÐ¸Ð¼Ð¿ÐµÑĢ Ð¸Ð¸
Ð°Ð²ÑĪ Ð¸Ð¼
ĠÐºÑĢÐ° Ñİ
ĠÐ¿ÑĢÐ¸Ð²Ð¾Ð´ Ð¸ÑĤ
ĠÐ¾ÑĤ ÑĬ
ĠÐ§ ÐµÐ³Ð¾
ĠÐ²Ð· Ð´
ĠÐ¾ÑĤÐ½Ð¾ÑĪ ÐµÐ½Ð¸Ñİ
ĠÐ¿ÑĢÐµÐ· ÑĢ
Ð¸ÑģÑĤ Ð°Ð½
ÑĦ ÑĢ
ĠÐ² Ð±
Ð¸ÑĢÐ¾Ð²Ð°Ð½ Ð½ÑĭÑħ
ĠÐ¾Ð±Ñī ÐµÐ¹
ĠÑģÐ¼ ÐµÐ»
ÑĦÐ¸ÑĨ Ð¸
ĠÐ»ÐµÐº Ð°ÑĢ
Ð²ÑĤÐ¾ÑĢ ÑĭÑħ
Ð¸ÑĤ Ð»
ĠÐ¿ÑĢÐ¸ÑĢ Ð¾Ð´
ĠÑĤÐ¾ Ð½Ð¾Ð¼
Ð´ Ð²Ð°
ĠÐ¶ÐµÐ½ Ñĥ
ĠÐºÑĢ Ð¾Ð²Ð°ÑĤÑĮ
Ġ201 0
ÐµÑĢ Ð½
ĠÑĤÐ¾Ð½ Ð½
Ð° Ð¸
ĠÐŀÑģÐ¾Ð± ÐµÐ½Ð½Ð¾
Ð² Ð¾ÑĤ
ĠÑĩÐ¸Ñģ Ð»Ð°
Ð´ Ñı
ĠÐºÐ¾Ð½ÑĤ Ð°ÐºÑĤ
ÐµÐ´ ÐµÐ»ÑĮ
ÐµÐº ÑĢÐµÑĤ
ĠÐ ©
ĠÐ·Ð°Ð¿ Ð»Ð°ÑĤ
ĠÐ¶ Ð°Ð»ÑĮ
ĠÐĹ Ð°ÑĤÐ¾
Ðº Ð¾ÑģÑĤÐ¸
ĠÑĢÑĭ Ð¶
ĠÐ¸Ð¼Ð¿ÐµÑĢÐ° ÑĤÐ¾ÑĢ
ĠÐĿÐ°Ð¿ Ð¾Ð¼Ð½Ð¸Ð¼
ĠÑģÑĢÐ°Ð²Ð½ ÐµÐ½Ð¸Ñİ
ĠÐ¾ Ð³Ð»ÑıÐ´ÐµÐ»
ĠÐ½ÐµÐ´ ÐµÐ»ÑĮ
ĠÑģÐ¼ ÑĭÑģÐ»Ð°
ĠÐ¿Ð¾Ð»Ð¾Ð¶ ÐµÐ½Ð¸Ð¸
ĠÑĢÐ°Ðº ÐµÑĤ
ĠÐ½ÐµÐ½Ð°Ð² Ð¸Ð´
ĠÐ¿ Ð¾Ð³Ð¾
ĠÐĿ ÑĥÐ¶Ð½Ð¾
ĠÐ²Ñĭ ÑħÐ¾Ð´Ð¸ÑĤ
ĠÐ·Ð°Ðº Ð¾Ð½Ð°
ĠÑī ÐµÐº
ĠÐ¾Ð±ÑĭÐº Ð½Ð¾Ð²
ĠÐŁ Ð¾ÑħÐ¾Ð¶Ðµ
Ġ201 2
ĠÑĢÐ°Ð´ Ð¾ÑģÑĤÐ¸
ĠÑħ ÑĢÐ¸Ð¿
ĠÐ±Ð¾ÑĢÑĮ Ð±Ðµ
ĠÐ¿Ð¾Ð´ Ð¾Ð¶Ð´
ÑĢÑĥ Ð½
ĠÑģÑĥÐ´ÑĮ Ð±Ð°
ĠÐ¼ÐµÑģÑĤ Ð½ÑĭÑħ
ĠÐ´ÐµÐ¼Ð¾Ð½ ÑģÑĤÑĢ
ĠÐºÐ½Ñı Ð·Ñı
ĠÐ£ Ð±
ĠÐļÐ°Ðº Ð¾Ð¹
ĠÐļ ÑĥÐ´Ð°
ĠÐł Ð¸Ñĩ
ĠÐº Ð¾Ð·
ĠÐ¿ÑĢÐµÑģÑĤÑĥÐ¿ Ð»ÐµÐ½Ð¸Ñı
ĠÑģÐ²Ð¾Ð±Ð¾Ð´ Ñĭ
ĠÐ¿ÑĢÐ¾ÑĤÑıÐ¶ ÐµÐ½Ð¸Ð¸
ĠÑĢÐ¾Ð´ Ð¸Ð»ÑģÑı
ĠÐĽ Ð¾ÑĢ
Ð¸ÑĢ Ð°ÐµÑĤ
Ð½Ñı ÐµÑĤÑģÑı
ĠÑĦÐµÐ´ ÐµÑĢ
ĠÐ²Ð»Ð¸Ñı Ð½Ð¸Ðµ
ĠÐ¿ÑĢÐ°Ð² Ð¸Ð»Ð°
ĠÐ´ÑĥÐ¼ Ð°ÐµÑĤ
ÂłÐ¢ Ð¾Ð³Ð´Ð°
ĠÐ³Ð»Ð°Ð² Ð½Ð¾Ð³Ð¾
ĠÐ¾Ð¶ Ð¸Ð²
ĠÐ²Ð¾Ð·ÑĢÐ°ÑģÑĤ Ðµ
ĠÐ¿Ð°ÑĢ Ð°
ĠÑĢÐ°Ð·Ð¼ ÐµÑī
ĠÐ±Ð¾Ð»ÐµÐ· Ð½Ð¸
Ð³Ð¾ ÑĤ
t h
Ð°ÑĤÐµÐ»ÑĮ Ð½Ð¾Ðµ
ĠÐ¿ÑĭÑĤ Ð°Ð»Ð¸ÑģÑĮ
ÐµÑģÑĤ ÑĢ
ÐµÐ¹ ÑĤ
Ð°Ð´ Ð¸Ð¼
ÐĿ ÐĲ
ĠÑģÑĥÐ´ ÐµÐ±
ĠÐ¿Ð¾Ð´Ð¾Ð± Ð½ÑĭÐµ
ĠÐ»Ð°Ð± Ð¾ÑĢÐ°ÑĤÐ¾ÑĢ
ĠÑĢÐ° ÑģÑĤÐ²
Ð¸Ð½ Ð³Ð°
ĠÑģÑħÐ²Ð°ÑĤ Ð¸Ð»
ĠÐ²ÐµÑĢ Ð½ÑĥÑĤÑĮ
ĠÐ·Ð°ÑıÐ² Ð¸Ð»Ð°
ÑĤÐµÑĢ Ð½
ĠÐ¿ÑĢÐµÐ´Ñĥ Ð¿ÑĢÐµÐ¶Ð´
ĠÐµ Ð´Ð¸
Ð°ÑİÑīÐ¸Ðµ ÑģÑı
ĠÐ¿Ð¾Ð¼ ÐµÑģÑĤ
Ð¸Ð» ÐµÐ¹
ĠÑĤÑĢ ÐµÐ¿
ĠÐ¿Ð¾Ð¹ Ð´ÐµÑĤ
ĠÑĤÐ° Ð¸Ð½
ĠÑģÑĤÐ¾Ð» Ñĥ
ĠÐ¸Ð· Ð¾Ð±ÑĢ
ĠÐ²Ñĭ Ð´Ð¾Ñħ
Ð¾ÑĢ Ð°Ð´
ĠÑĤÐ¾ÑĤ ÑĩÐ°Ñģ
ĠÐĶÐ¶ Ð¾ÑĢÐ´Ð¶
ĠÑĥÐ¿ Ð¾Ð¼
Ð°Ð´ ÑĢÐ°ÑĤ
ĠÐ±ÐµÑģ Ð¿ÑĢ
ĠÐ¿ÑĢÐ¾Ð·Ð² ÑĥÑĩ
ĠÐ¿Ð¾Ð´ ÑģÐº
ou r
ĠÐ¿Ð¾ÑıÑģÐ½ Ð¸Ð»
ĠÐ¿Ð¾Ðº ÑĢÑĭÐ²
ÐµÐ² ÑĭÐ¼
ĠÐŀÑĤ ÐµÑĨ
ÐµÐ½ Ð´Ð°
ĠÐ½Ð¸Ðº ÑĥÐ´Ð°
ĠÐ²Ð¾Ð·Ð² ÑĭÑĪ
ĠÑĤÐ² Ð¾Ðµ
ĠÐ¿ÑĢÐ¸ÑĢ Ð¾Ð´Ñĭ
ĠÑĤÐ°Ð» Ð°Ð½ÑĤ
ĠÐĳÐ¾Ð³ Ñĥ
Ġ3 1
ĠÑĥÑģÐ¿ ÐµÐ»Ð¸
ĠÑģÐ²ÐµÐ´ ÐµÐ½Ð¸Ñı
ĠÐ·Ð°Ðº Ð°Ð½ÑĩÐ¸Ð²
ĠÐ² ÐµÐ·
ĠÑı Ð¹
ĠÐ¡ÐµÑĢÐ³ Ðµ
Ð°Ñģ Ð¾Ð²
ĠÐ¿ÑĢÐ¸Ð» Ð¾Ð¶
ĠÑĤÑĢÐµÐ² Ð¾Ð¶
ĠÐ¿Ð¾Ð´Ð¾Ð± Ð½Ð¾Ð³Ð¾
ĠÐ¡ ÐµÐ½
Ð¾ÑĪ ÐµÐ»
ĠÐºÑĥÑĢ ÑĤ
ĠÐĶ ÐµÐ¼
ĠÐ²ÑĭÐ³Ð»ÑıÐ´ Ð¸ÑĤ
ĠÐ¾Ð± Ð¸Ð¶
ĠÐ½ÐµÐ· Ð°Ð¼ÐµÑĤ
ĠÑĩÐµÑĢ Ð½ÑĭÐµ
ĠÑģÐ¾Ð²ÐµÑĢÑĪ ÐµÐ½
ĠÐ½ÐµÐ² Ð¾Ð»ÑĮÐ½Ð¾
qu ot
ĠÑĥ ÑĪÐ»Ð°
ĠÑģÐ¿ Ð¸Ð½Ðµ
o d
ĠÐ±ÐµÑĢÐµÐ³ Ð°
ĠÑģÐ¾ Ð¾Ð±ÑĢÐ°Ð¶
ĠÐ¿Ð¾Ð»ÑĥÑĩ Ð¸ÑĤÑģÑı
Ð°Ñħ Ð°
ĠÐ¼ÐµÑĢ Ð·
Ð¾Ð¼Ð½ ÐµÐ½Ð½Ð¾
Ð¸Ñĩ ÑĮ
ĠÑĥÑĩ Ð¸ÑĤÐµÐ»ÑĮ
ÐµÑĪ ÐµÐ½
ĠÐ´ Ð¸Ñģ
ÑĮÑİ ÑĤ
Ð¾Ð² ÑĭÐ¼Ð¸
ĠÐ¼ Ð¸ÑĢÑĥ
ÑĥÑİÑī ÐµÐ³Ð¾
ĠÐ³ÑĢÐ°Ð½ Ð¸ÑĨÑĭ
ĠÐ¿ÐµÑĢÐµÐ´ Ð°ÑĤÑĮ
Ġ <
Ð¸Ð² Ð°Ð»Ð¾
ĠÐ¿Ð¾Ð´ Ð½ÑıÐ»Ð°
ĠÐ»ÐµÐ¹ ÑĤÐµÐ½Ð°Ð½ÑĤ
ĠÑĥÐ²ÐµÑĢ ÐµÐ½Ð°
ĠÐ¼Ð¾Ð»Ð¾Ð´ ÑĭÑħ
ĠÐ¡ Ð°ÑĢ
ĠÐ³ Ð²Ð°ÑĢÐ´
Ð½ÐµÐ¹ ÑĪÐ¸Ñħ
ĠÐ´ÐµÐ² ÑıÑĤÑĮ
ÑĥÐ³ Ð¾Ð»ÑĮ
ĠÑĤÑĢ Ð¾Ð³
ĠÑĢ Ð¸Ð¼
ĠÐ¸Ð· Ð³Ð¾ÑĤÐ¾Ð²
ĠÐ¾Ð± Ð½Ð°Ð¶
ĠÐ¿Ð¾Ð´Ð±Ð¾ÑĢ Ð¾Ð´
ĠÑģÑĤÐ°ÑĤ Ð¸ÑģÑĤ
ĠÑģ Ð°ÑĢ
Ġ7 0
ĠÑįÐ»ÐµÐºÑĤÑĢ Ð¾Ð½
ÑĳÐ½ Ð½ÑĭÑħ
ĠÐ² Ð½ÐµÑģ
ĠÑģÐ»ÑĥÐ¶ Ð±Ñĥ
âĢĿ ,
ĠÐĴÐ°Ð» ÐµÐ½ÑĤ
ĠÑģÑĤÑĢ Ð¾Ð³
ÑģÐ» Ð°Ð²
ĠÐ°ÑĢÑħ Ð¸ÑĤ
ĠÐ¿Ð¾Ð² ÑĢÐµÐ¶Ð´
ĠÐ¶ Ð¸ÑĤÐµÐ»Ð¸
ĠÐ½ÐµÐ¸Ð·Ð²ÐµÑģÑĤ Ð½Ð¾
ĠÑĤ ÑĥÐ¼Ð°Ð½
ÐµÐ» Ð»ÐµÐº
ĠÐ´Ð¾ÑĢÐ¾Ð³ Ð°
ĠÐ¾Ð±ÐµÑĢ Ð½ÑĥÐ»ÑģÑı
ĠÐ¸Ð½ÑĦÐ¾ÑĢÐ¼Ð° ÑĨÐ¸Ñı
ĠÑĤÑĢÐµÐ± Ð¾Ð²Ð°Ð½Ð¸Ñı
ĠÑĥÐ² Ð»ÐµÐº
ĠÑİ Ð±
Ð¾Ð¿ ÑĢÐ¾
ĠÑģÐ² Ð°Ð´ÑĮ
ĠÐ³Ð°Ð· ÐµÑĤÑĭ
Ġ Y
ĠÐ²Ðº Ð»Ð°Ð´
ĠÐ¿ÑĭÑĤ Ð°Ð»Ð°ÑģÑĮ
ĠÐ¿Ð» Ð¾Ð´
ÑĤÐ¾ÑĢ Ð¾Ð¿
ĠÐ½ ÐµÐ³Ð¾Ð´
ĠÐ² ÐµÐ·Ð´Ðµ
ĠÐ¿ÑĢÐ¸Ð¹ ÑĤÐ¸
Ð¿ Ð°Ð½Ð¸Ð¸
ĠÑĥÐ²Ð¸Ð´ ÐµÐ²
ĠÐ´ÐµÑĢÐµÐ² ÑĮÑı
ĠÐĺÐ· ÑĢÐ°
ĠÑģÐ»ÑĭÑĪ Ð°Ð»Ð°
ĠÐ¸Ð´Ðµ Ð¸
Ðł Ð¾ÑģÑģ
ĠÐ¾Ð¿ ÑĥÐ±Ð»Ð¸Ðº
ĠÑĥÐ´ Ð°ÑĢÐ°
ĠÐ²ÑģÐ¿Ð¾Ð¼Ð½ Ð¸ÑĤÑĮ
ĠÐºÑĢ Ð¾ÑĪ
Ġ &
ĠÐ¾Ð´ ÐµÑı
ĠÑģ Ð»Ð¸Ð²
ĠÑģÑĥÑĤ Ð¸
ĠÐŁ ÑĥÑĪ
ĠÑģÑĤÑĢ ÐµÐ»Ñı
ĠÑģÑĤÑĢÐ°Ð½ Ñĥ
ĠÐ¸ÑģÑĤÐ¾Ñĩ Ð½Ð¸Ðº
ÐŁ ÑĢÐ°Ð²
Ð½ ÐµÐ»
ĠÐŁÐµÑĤ ÐµÑĢÐ±ÑĥÑĢ
ĠÐĽ Ð°ÑĢ
ĠÑģÐ¾ÑĤÑĢÑĥÐ´ Ð½Ð¸ÑĩÐµ
Ñģ Ð¸Ð½
Ð¾Ð¼ Ð¾Ñī
ĠÐĴÑģ ÐµÐ³Ð¾
ĠÑĥÐ´Ð°ÑĢ Ð¸Ð»
ĠÐ¿ÑĢÐ¾ÑĪÐµÐ¿ÑĤ Ð°Ð»
ĠÑĢÐ°Ð´ Ð¾ÑģÑĤÑĮ
Ð°Ð¶ ÐµÑĤ
ĠÑģÐ¾ÑĤÑĢÑĥÐ´ Ð½Ð¸ÐºÐ¾Ð²
ĠÑĤÑĢÐµÐ± ÑĥÐµÑĤ
Ġ âĢ¦
ĠÐĲÐ² ÑģÑĤÑĢ
ĠÐ½Ð°Ñģ Ð¼ÐµÑĪ
ĠÐ²Ð»Ð°Ð´ ÐµÐ»ÑĮ
ĠÐ¸Ð·Ð± Ð¸ÑĢ
ĠÐ¶Ð¸Ð² ÑĭÑħ
ÑıÑī Ð°Ñı
ĠÐ²ÑģÑĤÑĢÐµÑĩ Ðµ
ĠÑģÐ¾Ð±Ð¸ÑĢ Ð°ÐµÑĤÑģÑı
Ð¸Ñĩ Ð½Ð¾Ð¹
ĠÐ¿Ð°ÑĢ Ð½Ñı
ĠÑıÐº Ð¾Ð±Ñĭ
ÑĦ ÐµÐ»ÑĮ
ĠÐ½Ð¾Ð² Ð¾ÑģÑĤÐ¸
ĠÑĢÐµÐ¶ Ð¸ÑģÑģ
ĠÑģ Ð°Ð¹ÑĤÐµ
ĠÐľÐ¸Ñħ Ð°Ð¹Ð»Ð¾Ð²
ĠÐ´Ð¸Ð²Ð¸Ð· Ð¸Ð¸
ĠÑģÐº ÑĢÑĭÑĤ
ĠÑģÐ»ÐµÐ´ Ñĭ
ĠÑĢÐ°Ð·Ð½Ð¾ Ð¾Ð±ÑĢÐ°Ð·
ĠÐ³Ð¾ÑĢ ÑĮ
ĠÐºÐ¾ÑĢÐ°Ð± Ð»ÐµÐ¹
ĠÐĿ Ð°Ð·
ĠÑĩÐµÐ¼Ð¿Ð¸Ð¾Ð½ Ð°ÑĤÐ°
ÐµÐ² Ð°Ñı
ĠÐ²ÑĤÐ¾ÑĢ Ð¾Ð¼
ÑĢÐ¾Ð² Ð°
ĠÐ´ÐµÐ» Ð°Ð»Ð¸
ĠÑģ Ð°Ð½
ĠÐ·Ð´ Ð°Ð½Ð¸Ðµ
ĠÐ´Ð¾Ð½ ÐµÑģ
ĠÑģÐ¸Ð³ Ð½
ÐµÐ½ ÑĨÐµÐ²
Ð°ÑĤ ÑģÑı
ĠÐ³ ÑĥÐ»Ñı
ĠÐ½Ð¾Ð² ÑĭÐ¼
ĠÐ¾ÑĤÐ½Ð¾Ñģ Ð¸ÑĤÑģÑı
ĠÑģÐµÑĤ Ð¸
âĢĿ .
ĠÐ¿ Ð°ÑģÑĤ
ĠÐ¿ÑĢÐ¾Ð²ÐµÑĢ Ð¸ÑĤÑĮ
Âł Â«
ĠÐ¿ÑıÑĤÑĮ Ð´ÐµÑģÑıÑĤ
ÐµÐ½ÑĮ Ñı
ĠÐ°ÑĢÐ¼ Ð¸Ñı
ĠÑĢÐ°Ñģ ÑģÑĤÐ°Ð²
Ð°Ñĩ Ðµ
Ð¡ Ðº
ĠÑĢÐ°Ð´Ð¸ Ð¾
ĠÐºÐ¾ÑĢÐ°Ð± Ð»Ð¸
ĠÐ¿Ð¾Ð´ Ð°Ð»ÑĮÑĪÐµ
ĠÐ¸Ð½Ð¾ÑģÑĤÑĢÐ°Ð½ Ð½ÑĭÑħ
Ð¾Ð± Ð¾ÑĢ
ĠÐ¿ÑĢÐ¸ Ð±Ð¾ÑĢ
ĠX X
ĠÐ·Ð°Ð³ Ð¾Ð²Ð¾ÑĢÐ¸Ð»
ĠÐ»Ð¸Ñĩ Ð½Ð¾ÑģÑĤÐ¸
ĠÑĢÐµÐ·ÑĥÐ»ÑĮÑĤ Ð°ÑĤÑĭ
ĠÐ¸Ð³ ÑĢÑĥ
ĠÑģÐ°Ð¼ Ð¸Ð¼
ÐµÐº Ð°Ð½
ĠÑģÐ¾Ð± Ð°Ðº
Ð½Ðµ ÑĨ
ĠÐ²Ñĭ Ð¼
ĠÐ²Ð¾Ð» Ð¸
ĠÑı Ð´ÐµÑĢ
ĠÐ²Ð¾Ð² ÑĢÐµÐ¼Ñı
ĠÑĩÐ¸ÑģÑĤ Ð¾
ĠÑħÐ¾Ð·Ñı Ð¸Ð½Ð°
ĠÐ¿ÑĢÐ¾Ð³ÑĢÐ°Ð¼ Ð¼
ĠÐ¿ÑĢÐ¸Ð½ ÑıÐ»Ð¸
ĠÐ¿ÑĢÐ¸Ð½Ð°Ð´Ð»ÐµÐ¶ Ð¸ÑĤ
ÑĩÐ°Ñģ Ð°
ĠÐ¾Ð´Ð¸Ð½Ð¾ ÑĩÐµ
ĠÑģÐ¾Ð² ÐµÑĤÐ°
ĠÐ³Ð»ÑĥÐ± Ð¸Ð½Ðµ
ÑĢÐ°Ñģ Ð½Ð¾
ÑĥÐ± Ð¸Ð¹
ĠÐ¿Ð¾Ð¹ Ð´
ĠÐĸ ÐµÐ»
ÑĭÐ² Ð°ÑİÑĤÑģÑı
ĠÐ¼Ð°ÑĤ ÐµÐ¼Ð°ÑĤ
Ġ- -
Ð°ÑĤ Ð¾Ðº
Ðķ Ð³Ð¾
ĠÐ°Ð´Ð¼Ð¸Ð½Ð¸ÑģÑĤ ÑĢÐ°ÑĤÐ¸Ð²
ĠÑĢÐ°Ð·Ð¾Ñĩ Ð°ÑĢ
ĠÐĴ Ð¸ÑĤ
ĠÐ¾Ð¿ Ð¿Ð¾Ð·
ĠÐ¾ÑĤ ÑĭÑģÐº
ÑģÑıÑĤ ÑģÑı
ĠÑĢ Ð²
ÑĢÐ°Ð½ Ð°
ĠÐ¡ Ð°Ð»
ĠÐ³ Ð¸Ð¼
ĠÑĥÑĤ ÐµÑĪ
ÑģÑĤÐ²Ð¾Ð² Ð°Ð»Ð¾
ĠÐ¿Ð¾ÑģÐ»ÐµÐ´ ÑģÑĤÐ²Ð¸Ñı
ĠÑĤÐ²Ð¾ Ñİ
Ð¸ÑĢ Ð°Ð»
ĠÐ¸Ð½Ð¸ÑĨÐ¸ Ð°ÑĤÐ¸Ð²
ĠÑģÑĤÑĢ ÐµÐ»ÑĮ
Ñĭ Ð³ÑĢ
ĠÑĤÐ¸ÑĪ Ð¸Ð½Ð°
ĠÐ½Ð°ÑĪ Ð»Ð°
ĠÐ¿ÑĢÐ¾ ÑīÐµ
ÐµÐ² ÑģÐºÐ¸Ð¹
al l
ĠÐ±Ð¾ÐµÐ² ÑĭÑħ
ĠÐ¿ÑĢÐµÐ¼ÑĮ ÐµÑĢ
ĠÑģÐ¿ Ð°ÑģÑĤÐ¸
ĠÑĨÐµÑĢÐºÐ¾Ð² ÑĮ
ĠÑĪÐ»Ñı Ð¿
ĠÑĩÐ¸ÑĤ Ð°Ð»
ĠÑģÑĤ ÑĥÐ»
ĠÑģÐ¾Ð¾Ð±Ñī Ð¸Ð»Ð°
ĠÑģÑĤÐ¾ÑĢÐ¾Ð½ Ð°Ð¼
ĠÐ¼Ð¸Ð½Ð¸Ð¼ ÑĥÐ¼
ĠÐ¿ ÑĥÐ»ÑĮ
ĠÐ¿Ð¾Ð»Ð¾Ð¶ ÐµÐ½Ð¸Ñı
ĠÐ½Ð¾ÑĢÐ¼ Ð°Ð»ÑĮÐ½Ð¾
Ð°Ð²ÑĪ Ð¸ÑħÑģÑı
ĠÑģÑĩÐ°ÑģÑĤ ÑĮÑİ
ĠÐ½Ð°Ð·Ð²Ð°Ð½ Ð¸ÐµÐ¼
ĠÐ¿ÑĥÐ» ÐµÐ¼
Ð¾Ð·Ñı Ð¹
Å ĥ
Ð¸ÑĢÑĥ ÐµÐ¼
Ñĭ ÐºÐ°
ĠÐ¾ÑĤ Ð¼ÐµÐ½
Ð°Ð¶ Ð½Ð¾
ĠÐ± Ð¾Ð´
ĠÐºÐ»Ð°Ñģ ÑģÐ°
ĠÐ¾Ðº ÑĢÐµÑģÑĤ
ĠÐ´Ð¾ Ð½Ð¾Ñģ
ĠÐ´ÐµÐ¹ÑģÑĤÐ² Ð¸Ðµ
ĠÐ¸Ð· Ð¾
ĠÐ¾Ð±ÑĬÑıÐ² Ð¸Ð»
ÑĥÐ´ Ñĥ
ĠÐ·Ð°ÑģÑĤÐ°Ð² Ð¸ÑĤÑĮ
ĠÐľ Ð½Ð¾Ð³Ð¸Ðµ
ĠÐ´ ÐµÑģ
ĠÑĦ Ð»Ð°Ð³
ÐµÐ½ Ð¾Ð²
ĠÐ³Ð¾Ð²Ð¾ÑĢ Ð¸ÑĪÑĮ
Ñĭ Ð·
ĠÐ²ÑĭÑģÐ¾Ðº Ð¸Ð¹
oo k
ĠÐĴ ÑģÐºÐ¾ÑĢÐµ
ĠÐ¿Ð¾Ð²ÐµÐ· Ð»Ð¾
Ð¸Ñĩ Ð½ÑĭÐµ
Ð¸Ð´ Ñĭ
ĠÑĢÐ°Ð· ÑĢÑĭÐ²
ĠÐ· Ð¼Ðµ
ĠÐ² ÑĢÑĥÑĩ
ĠÐ²Ð¾ ÐµÐ½Ð½Ð¾Ð³Ð¾
Ð¸Ð½Ñĥ Ð»Ð¸ÑģÑĮ
ĠÑģ ÑĨ
ĠÐ°Ð³ÑĢ ÐµÑģÑģ
Ġ18 9
ĠÐ´ÐµÐ½ ÐµÐ¶
Ð³ Ð¾Ð²Ð¾ÑĢ
ĠÐŁ Ð¾Ð¶Ð°Ð»ÑĥÐ¹
Ð¾Ð½ÑıÑĤ Ð½Ð¾
Ð¸ÑĢÐ¾Ð² Ð°ÑĤÑĮÑģÑı
ĠÐ¾Ð¿ ÑĥÑģÐº
ĠÐ¿Ð¾Ð¿ÑĭÑĤ ÐºÐ¸
ĠÐ²Ñĭ ÑıÐ²
ÑĨ Ð¸Ðº
ĠÐ¾ÑĤÐºÑĢÑĭ Ð»Ð°
ĠÐ¿Ð¾Ñħ Ð¾ÑĢÐ¾Ð½
Ð¿Ð¾Ð» ÐµÐ·
ĠÐĳ Ð¾Ð»ÑĮÑĪÐµ
ĠÐ¾Ð³ÑĢÐ¾Ð¼ Ð½ÑĭÐ¹
Ð¾ÑĤ Ñı
ĠÑħ Ð°Ð»
ĠÐ¾ÑĤÐ¾Ð·Ð² Ð°Ð»ÑģÑı
Ð°Ð½Ð¾Ð² Ð°
ĠÑĩ ÑĳÐ¼
ĠÐ¿ÑĢÐµÐ´ÑģÑĤÐ°Ð² Ð¸ÑĤÐµÐ»Ð¸
Ġf or
ĠÐŁÐ¾Ð» ÑĥÑĩ
ĠÑģ Ð·Ð°Ð´Ð¸
Ð¾Ð»ÑĮ ÑĦ
ĠÐł Ð°Ð±Ð¾ÑĤ
ĠÑģÐ»Ð¾Ð¶ Ð½Ð¾
ĠÑģÑĤÐ°ÑĢ ÑĪÐ¸Ð¹
ĠÐ¿Ð»Ð°Ð½ ÐµÑĤÑĭ
ĠÐ»ÐµÐ¶ Ð°Ð»Ð°
Ð°Ð¿ Ð°
ĠÐ¡ Ð²Ð¾
Ð¿ÑĢ Ð¾Ð¼
ĠÑĢÐ°Ð² Ð½Ð¾Ð´ÑĥÑĪ
ĠÐ§ ÐµÐ»Ð¾Ð²ÐµÐº
Ñĭ Ð»Ð¾
ĠÐ¿Ð°ÑĢÑĤ Ð½
ĠÐ¼ ÑıÑĩ
ĠÐ¿ÑĢÐ¾ ÑħÐ¾Ð´Ð¸ÑĤ
ĠÐ¢ Ð°Ð¹
ĠÑĤÐµÐ» Ð¾Ð¼
ĠÐ¿Ð¾Ð±ÐµÐ´ Ñĥ
Ð¸Ð½ Ð¾Ðº
Ð§ ÐµÑĢÐµÐ·
ĠÐ¼ Ð¸ÑĦ
ĠÐ¿ÑĢÐ¾ÑģÑĤ Ð¾Ð¹
ĠÐ¾ÑģÑĤÑĢ Ð¾Ð²Ð°
ÐµÑĢ ÐµÐ¼
ĠÑĢÐ¾ÑģÑģ Ð¸Ñı
Ð¸ÑĨ Ð¾
Ð°Ð² Ð°Ð»Ð¾ÑģÑĮ
ĠÑĢÐ°Ñģ ÑĩÐµÑĤ
ĠÐŀ ÑģÑĤÐ°Ð²
ĠÐ·Ð² ÐµÐ·Ð´Ñĭ
ĠÑĥÐ´Ð¾Ð²Ð¾Ð»ÑĮ ÑģÑĤÐ²Ð¸Ðµ
ĠÑģÐ¾Ð±ÑģÑĤÐ²ÐµÐ½ Ð½Ð¾Ð³Ð¾
ĠÐ´Ð²ÐµÑĢ ÑĮÑİ
ĠÐĶ Ð¾Ð±
ĠÐ´Ð°Ð½ Ð½Ð¾Ð¼
ĠÐ» Ð¸Ð¼
Ð¸Ð²ÑĪ ÐµÐ³Ð¾ÑģÑı
ĠÑģÑĤÐ°ÑĢ Ð¾Ð³Ð¾
ĠÑĢÐ°Ð·Ð³Ð¾Ð²Ð¾ÑĢ Ð°
ĠÐ± Ð°Ð³
ĠÐ·Ð°Ð²Ð¸Ñģ Ð¸Ð¼Ð¾ÑģÑĤÐ¸
ĠÐºÑĥÑģ Ð¾Ðº
ĠÑĢÐ¾ÑģÑģÐ¸Ð¹ ÑģÐºÐ¾Ð³Ð¾
ĠÑĦ ÐµÑĢ
ĠÐ¿ÑĭÑĤ Ð°ÐµÑĤÑģÑı
ĠÐ¿ Ð»Ð°Ñĩ
ĠÐ½ÐµÐ¿ Ð»Ð¾ÑħÐ¾
ĠÑģÐ¾Ð¾Ð±Ñī ÐµÐ½Ð¸Ðµ
Ġ201 1
ĠÐ¿ÑĢÐ¸Ð¼ ÐµÐ½Ñı
ĠÐŁ ÑĢÐ¾Ð²
ĠÐ» Ð°Ð·
ĠÑģÐ¸Ð» Ð°Ð¼Ð¸
ĠÐ²ÑĭÑģ Ð¾ÐºÐ¾Ð¹
Ñĳ Ð´
ĠÑĥÑĩÐ°ÑģÑĤ Ð½Ð¸ÐºÐ¾Ð²
ĠÐŁ Ð°Ð»
ĠÐ¾ ÑĦÐ¾ÑĢÐ¼
ĠÐ± Ð¾ÑĤ
Ð¸Ð¼ ÐµÑĤ
Ð½Ð¾ ÑĤ
Ð± ÑĥÑĢÐ³
ĠÐĶ Ð¾Ð½ÐµÑĨ
Ð¡ÑĤ Ð°ÑĢ
ĠÐºÐ¾ÑģÑĤ Ñİ
Ñĭ Ñī
ĠÐ¾Ð±ÑīÐµ ÑģÑĤÐ²Ð¾
ĠÐ¿ ÐµÐ´
ĠÐ¡Ð°Ð½ ÐºÑĤ
ĠÐ¾ ÑĨÐµÐ½Ð¸Ð²
ĠÐ² Ð¸ÑĤ
ĠÐļ Ð°
ĠÐ· Ð°Ð·
ĠÐ²Ñĭ ÑģÐ»ÑĥÑĪ
Ð°Ð¶ ÐµÐ¹
ĠÐ²ÑģÑı ÐºÐ¸Ñħ
ĠÐ²Ð¸Ð´ Ð¸ÑĪÑĮ
ĠÑģ Ð½Ðµ
Ð»Ð¸ ÑĨ
ĠÐ·Ð°Ð´Ð°Ñĩ Ð°
% .
ĠÐ¿ÑĢÐµÐ´Ð¿Ð¾Ñĩ Ð¸ÑĤ
ĠÐ¿Ð¾Ð³ ÑĢÑĥÐ·
ĠÐ´ÐµÑĢÐµÐ² Ð°
ĠÐ¾ÑĤ ÑĨÐ¾Ð¼
Â» :
ĠÐ±ÑĢÐ¾Ñģ Ð¸Ð»ÑģÑı
ĠÐ¿Ð¾Ð´Ð¾Ð± Ð½Ð¾
ĠÐ±ÐµÐ· Ð·
ÐµÐ»ÑĮ Ñı
ĠÐĵ Ð°Ð±
ĠÐ± ÑĥÑħ
ĠÐ¿Ð¾Ð² ÐµÑģ
ĠÐ²Ð¾Ð·Ð² ÑĢÐ°ÑĤ
ĠÐ¿ÐµÑģ Ð½Ð¸
ĠÐļÐ°ÑĢ Ð»
ĠÐ½ÐµÐ¸Ð· Ð±ÐµÐ¶
Ð°Ð½ ÐµÑĤ
ĠÐºÐ°ÑĢ ÑĤÐ¾
ĠÑģÑĥÐ± ÑĬ
ĠÐºÐ¾Ð½ÑĤÑĢ Ð°ÐºÑĤ
ĠÑģÐµÐº ÑģÑĥ
Ð°ÑĪ ÐºÐ°
ĠÐ¿Ð¾Ð½Ð¸Ð¼ Ð°ÐµÑĤ
ĠÐºÐ»ÑĥÐ± Ð°
ĠÐĿ Ð°ÑĪ
ĠÐ½Ð°ÑĩÐ°Ð»ÑĮ Ð½Ð¸ÐºÐ°
ĠÐ½ÐµÐ² Ð¾Ð·Ð¼Ð¾Ð¶
ÐµÑģÑĤ Ðµ
ĠÐ½ÐµÑĢ Ð°Ð·
ĠÑĥÐ¶Ð°Ñģ Ð½Ð¾
Ðº Ð°ÑĢ
ĠÑģÑĤÐ¾ ÑıÑĤÑĮ
ĠÐ¿Ð°ÑĢÑĤ Ð¸Ð¹
Ð¾ ÑħÐ¾Ð´
7 0
ĠÐĴ Ð¿ÐµÑĢ
Ð´ Ð°Ð»
Ð¸ÑĤ ÑĭÐ¹
ĠÑģÐºÐ°Ð· Ð°Ð½Ð¾
ĠÑģÐ¸ÑģÑĤÐµÐ¼ Ðµ
Ð»Ð¸ ÐºÑĤ
Ġ9 0
ĠÑģÐ² ÐµÑĢÐº
Ð¸ÑģÐº Ñĥ
ĠÐ¿ÑĢÐ¾Ð· ÑĢÐ°Ñĩ
ÑĢÐ¸Ð³ Ð¸Ð½
ĠÐ·Ð½ Ð°Ð½Ð¸Ñı
ĠÐ½Ð°ÑĢ ÐºÐ¾ÑĤ
3 4
ÑıÑĤ ÐµÐ¶
ĠÐºÐ² Ð°Ð´ÑĢÐ°ÑĤ
ĠÑģÑĤÑĢÐ°Ð½ Ð°Ñħ
ĠÐ³ÐµÑĢ Ð¼Ð°Ð½
ĠÐľ ÐµÐ»
ĠÐ¿Ð¾ÑĤ Ð¾Ðº
ĠÑĦÑĢÐ¾Ð½ ÑĤÐ°
ĠÐ¿ÑĢÐ¸Ñģ Ð»
ĠÐ·Ð² ÑĥÐºÐ¸
Ġ( )
ĠÐ¿Ð¾ Ð½ÑıÐ»Ð¸
Ð°ÑĤÑĥ ÑĢÑĥ
ĠÐ±ÑĥÐ´ ÑĥÑĩÐ¸
ĠÐ²ÐµÑĢ ÑĪ
ĠÐ¾Ð± ÑĢÑĥÑĪ
ĠÐ¿ÐµÑĢ ÐµÑĢ
ĠÐºÐ°ÑĢ ÑĤÐ¸Ð½Ñĭ
ĠÐ·Ð°Ð¼ÐµÑĤ Ð¸ÑĤÑĮ
ÄĲ Å
ÂłÐł Ð°Ð·
ĠÐ½Ð¾Ñģ Ð¾Ð¼
ĠÐ¸Ð½ ÑģÐ¿
ĠÐ¿ÑĢÐ°Ð² Ð¾ÑģÐ»Ð°Ð²
ĠÐĸ ÐµÐ½Ñī
Ðļ Ð°ÑĢ
ĠÐ° ÑĤÐ¾Ð¼
ĠÐĶ Ð²Ð°
ĠÐ´Ð¾Ð¿ ÑĥÑģÐº
ĠÑĢÐ°ÑģÑĤÐµÑĢ ÑıÐ½
ĠÑĥÐ± ÐµÐ¶
ĠÑģÐ¾ÑħÑĢÐ°Ð½ Ð¸ÑĤÑĮ
ĠÐ¿ÑĢÐ¸Ð· ÑĭÐ²
ÑĢ Ð¾ÑĤ
ĠÐ¿ÑĢÐ¸Ñĩ Ð¸Ð½Ñĭ
ÑıÐ´ Ð¾Ð¼
ĠÐ·Ð°Ð¿ Ð¾Ð¼Ð½
ĠÑģÐ»ÑĥÑĪ Ð°ÑĤÑĮ
ĠÐ²Ð·Ð³Ð»Ñı Ð´Ð°
ĠÐºÐ°Ð¶Ð´ ÑĥÑİ
ĠÐ»ÐµÐ´ Ñı
ĠÑĢÑĥ Ð³
Ð²Ñĭ ÑĢ
ĠÐ¿Ð¾Ð²ÐµÑĢ Ð¸ÑĤÑĮ
ÑģÐº Ð¾Ð»ÑĮÐ·
ĠÐ¡ÑĤ Ð°Ð»
ĠÐĹ Ð²
Ð¸ÑĦ Ð¸ÐºÐ°
Ð¸Ð» Ñĥ
ĠÐºÐ¾Ð½ ÑĨÑĥ
Ð¸ÑĢÑĥ Ñı
ĠÐŁÑĢÐ¸Ñĩ ÐµÐ¼
Ð¿ÑĢ ÑĭÐ³
Ð²ÐµÑĢ ÑĤ
ĠÑģÑĥÐ± Ð±
ĠÐ¼ Ð°Ð´
ĠÐ¾Ð± Ð»Ð°ÑģÑĤÑĮ
Ð°ÑĤ ÑĭÐµ
ĠÐł Ð¾ÑģÑĤ
ÐĶ ÐµÐ²
ĠÐ½Ðµ Ð¾ÑĤ
ĠÐ¡ Ð°
ĠÐ¿ÑĢ Ð¾Ð½Ð·
ÑĥÐ¹ ÑĤÐµ
ĠÐ°ÑĤÐ¼Ð¾Ñģ ÑĦ
ĠÐŃ Ð»ÑĮ
ĠÐ¿ÑĢÐµÐ´ÑģÑĤÐ°Ð² Ð¸ÑĤÐµÐ»ÐµÐ¹
Ð²ÐµÐ´ Ð¾Ð¼
ÑĭÐ² Ð°Ð»Ð°ÑģÑĮ
Ġ '
ĠÐ³ ÑĢÐ¸
ĠÑĥÐ²Ð¸Ð´ ÐµÐ»Ð¸
ĠÑģÑĥÐ¼ Ð°Ñģ
ÐµÑĩ ÐºÐ°
ĠÐ¼Ð¸Ð½ Ð¸ÑģÑĤÐµÑĢ
Ð¸Ñĩ Ð½ÐµÐ²
ĠÐľ Ð¾Ð»Ð¾Ð´
ĠÐ¿ÑĢ Ð¾Ð¹Ð´ÐµÑĤ
Ð² Ð¾Ð»ÑĮ
ĠÐ²ÐµÐ» ÐµÐ»
Ð¾Ð² ÐµÑĢÑĪ
Ð°Ð´ Ð°Ñĩ
ĠÐ¾Ð¶Ð¸Ð´ Ð°Ð»
ĠÑĢÐ¾ÑģÑģÐ¸Ð¹ ÑģÐºÐ¾Ð¹
ĠÑĩÐµÑĢ Ð½ÑĭÐ¹
ĠÐ¿ÑĢÐ¸Ðº Ð»ÑİÑĩ
ĠÐ½Ð°Ñĩ Ð°Ð»Ð°ÑģÑĮ
ĠÐ¶Ð¸Ð² Ð¾Ð¹
ÂłÐľ Ð¾Ð¶ÐµÑĤ
ĠÐ²ÐµÑī ÑĮ
ÑĨÐ¸ Ð¾Ð½Ð¸
ĠÑģÐ¸Ð¼ Ð¿Ð°ÑĤ
Ð½ ÐµÐ½Ð¸Ðµ
ĠÐ¸Ð·Ð¼ÐµÐ½ Ð¸ÑĤÑĮ
ÐµÐ½ Ð½Ð¸
ĠÐ¿Ð¾Ð´Ð¾Ð± Ð½Ð¾Ðµ
ar d
ĠÐ¶ ÐµÑĢÑĤ
ĠÐ²ÑĭÐ½ÑĥÐ¶ Ð´ÐµÐ½
ĠÑĤÐµÑħ Ð½Ð¸ÐºÐ¸
ĠÐ¿Ð¾Ð½ÑıÑĤ Ð¸Ñı
ĠÐ²ÐµÑĢ ÐµÐ²
a b
ĠÐ» ÑĥÐº
Ð¸Ð½ ÑĮ
ÑĢÐ¾Ð² Ð°ÑĤÑĮ
ĠÑħ Ð¸ÑĤÑĢ
ĠÐ¿Ð°ÑĢ Ð°Ð´
ĠÐ¿Ð¾Ð²ÐµÐ´ ÐµÐ½Ð¸Ðµ
ĠÐ¾Ð¿Ð°Ñģ Ð½Ð¾ÑģÑĤÑĮ
Âł ÑģÑĤ
ĠÑĢÐµÐ»Ð¸ Ð³
ĠÑģÑĤÐ¾ ÑıÑĤ
ĠÐ½Ð°Ð´ ÐµÐ»
ĠÐ²Ð· Ð²
ĠÐľÐ°ÑĢ Ð¸
ĠÐ½ÐµÐ» ÐµÐ³
ĠÐ¿ÐµÑĢÐµÑħ Ð²Ð°ÑĤ
ĠÐ¼ÑĥÐ¶ Ðµ
ĠÑĥÐºÐ°Ð· Ð°Ð»
ĠÐĹÐµÐ¼ Ð»Ð¸
ĠÐ³ÑĢÑĥÐ· Ð¾Ð²
ĠÐļ Ð¸
ÐµÐ½ ÑĨÐ¸Ð¸
ĠÑĢÐ¸Ñģ ÑĥÐ½
Ð½ ÐµÑģÑĤÐ¸
ĠÑĤ ÐµÐ½ÑĮ
Ð³Ð¾ Ð½
ĠÑĤÐ¾Ð» Ðº
ĠÐ´ÑıÐ´ Ñı
ĠÐ¾ÑĢÐ³ Ð°Ð½Ð¾Ð²
Ð¾Ñĩ ÐµÑĪÑĮ
ĠÐ¿Ð¾Ð³Ð¸Ð± Ð»Ð¸
Ð°Ð²ÑĪ Ð¸ÐµÑģÑı
ĠÐ¿Ð¾ÑĢ Ð¾Ð¹
ĠÑĤÐ²Ð¾ÑĢ ÑĩÐµ
Ðļ Ðŀ
ĠÐĺ ÑĤÐ°Ðº
ĠÑĤÑĢ Ð°ÑĤ
ĠÐ¸Ð¼ÐµÐ½ ÐµÐ¼
ĠÐ¿ ÑĮ
ÑĦ Ð¸Ð½
ĠÑĥ ÑģÐºÐ¾ÑĢ
ĠÑģÐ¾Ð¾Ð±Ñī Ð°Ð»Ð¾ÑģÑĮ
ĠÐ¿ÑĢÐµÐ¿ ÑıÑĤ
Ð²ÐµÑĢ ÑĮ
ÐĴ Ðŀ
ĠÐ¿ÑĢÐµÐ´ÑĥÑģ Ð¼Ð¾ÑĤÑĢ
ÑĪ Ð¸Ð²
ÑĭÐ² Ð°Ð»Ð¾
Ð½Ð°ÑģÑĤ Ð¾ÑıÑī
ĠÑį ÑĦ
Ð¾ÑģÑĤ Ð¾Ñı
ĠÐ¾Ð¿ÑĢÐµÐ´ÐµÐ» Ð¸ÑĤÑĮ
ĠÑĢÐ°ÑģÑģ Ð²ÐµÑĤ
ĠÐ¿Ð¾Ð´ ÑģÑĤÐ°Ð²
Ð¸Ð¼Ð¸ ÑģÑı
Ð»Ñı ÑıÑģÑĮ
ĠÐµÐ² ÑĢÐµÐ¹
ĠÐ³Ð¾ÑĢ Ð»Ð¾
Ð°Ð»Ð¸Ð· Ð¼Ð°
ĠÑħÐ¾Ð»Ð¾Ð´ Ð½Ð¾
ĠÐ¶ Ð¸Ð»ÑĮ
ĠÐļ Ð°Ð¶ÐµÑĤÑģÑı
! "
ĠÑħ Ð¸Ñī
o g
ĠÐ¡Ð¾Ñİ Ð·Ð°
ĠÑĩÑĥÐ²ÑģÑĤÐ² ÑĥÑİ
ÐºÐ° Ñĩ
ĠÑħÐ²Ð°ÑĤ Ð¸Ð»Ð¾
ĠÐ²Ð¾ ÐµÐ½Ð½ÑĭÐµ
ĠÐ²ÐµÑĤ ÑĢÐ°
ĠÐºÐ²Ð°ÑĢÑĤÐ¸ÑĢ Ñĭ
Ġ +
Ð°ÑĤ ÐµÐ»Ñİ
ÑĳÐ½ Ð½ÑĭÐ¹
ĠÐ»Ð°Ð´ Ð¾Ð½ÑĮ
ÑĥÑģÑĤ Ð¸Ð»Ð¸
ĠÐ³ Ð½
ĠÐ°Ð²ÑĤÐ¾Ð± ÑĥÑģ
Ð»Ñı Ð»Ð°ÑģÑĮ
ĠÐ½Ñĭ Ð½Ðµ
ĠÐ´ Ð¾Ð±Ñĭ
ĠÐµ Ð¿
ĠÐľ Ð°Ð»ÑĮ
ĠÐ»ÑİÐ± ÐµÐ·
ĠÑģÐ»ÐµÐ´ Ð¾Ð¼
Ð¸ÑģÑĤ Ð¾
ĠÑģÑĤ ÑĥÐº
ĠÐ²ÑģÑĤ Ð°Ð»Ð°
ĠÐ¼Ð¾Ð»Ð¾Ð´ Ð¾Ð³Ð¾
ĠÐ²Ð¾ÑģÐ¿Ð¾Ð¼Ð¸Ð½ Ð°Ð½Ð¸Ñı
ĠÑįÐ½ÐµÑĢÐ³ ÐµÑĤ
ĠÐ½ÐµÐ²ÐµÑĢ Ð¾ÑıÑĤ
ĠÑĪÑĤ ÑĢÐ°ÑĦ
Ð½ ÐµÐ¶
ĠÐºÐ¾Ð½ÑĦ Ð»Ð¸Ðº
ĠÑĦ Ð°ÑĢ
Âł Ð±Ñĭ
ĠÑĤÐ²ÐµÑĢ Ð´Ð¾
ĠÐ¿Ð¾ÑĤÐµÑĢ Ð¿
ĠÐºÐ¾Ð¼Ð½ Ð°ÑĤ
ĠÐ±Ð°Ð½ ÐºÐ¾Ð²
ĠÐĴ ÑģÑı
ĠÐł ÐµÑĪ
ĠÐĶ ÐµÐ½Ð¸
ĠÐ°Ð²Ð¸ Ð°
Ñĩ ÑĥÐ²
Ð² Ð°Ð»Ð°
ÑİÑī ÐµÐ¹
Ð°Ð½ Ð½
Ð» Ð¸ÑĤÑĮ
ĠÑģÐºÐ°Ð¶ ÐµÑĤ
ĠÐ´Ð¾Ð»Ð¶ Ð½Ð¾ÑģÑĤÑĮ
ĠÑĤ Ð°Ñī
Ðŀ Ñģ
Ġ8 0
ĠÑģ ÐµÑĢÐ¶
ĠÑģÐ¾Ñĩ ÑĥÐ²
ĠÑĢÐ°ÑģÑģÐºÐ°Ð·ÑĭÐ² Ð°ÑĤÑĮ
ĠÐ±ÑĥÐ´ÑĥÑī ÐµÐ³Ð¾
Ð¸ÑĤ ÐµÐ»Ñİ
Ð»Ð¸ Ñģ
ĠÐ¿ÑĢÐ¸ÑħÐ¾Ð´ Ð¸ÑĤ
ĠÐ¿Ð»Ð¾Ñī Ð°Ð´ÑĮ
ĠÐ»Ð¾ÑĪ Ð°Ð´ÑĮ
ĠÑģÑģÑĭÐ» ÐºÐ¾Ð¹
3 3
ĠÐ¿ÑĢÐ¾ÑĪÐµÐ¿ÑĤ Ð°Ð»Ð°
ÑĨÐ¸Ð¾Ð½ Ð½ÑĭÐµ
ĠÐ¢Ð¾Ð» ÑģÑĤ
ĠÐ¼Ð°ÑĤ ÑĩÐµ
ĠÐµ Ð»Ðµ
ĠÐ¿Ð¾Ð» ÑİÐ±
ĠÐ¿Ð¾Ð» ÑĩÐ°ÑģÐ°
ĠÑĤÐµÑĢ Ð¼Ð¸Ð½
ĠÑİ Ð³Ð¾
ĠÐ¿Ð¾Ð³ Ð»ÑıÐ´
ĠÐ¾ÑĢÑĥÐ¶ Ð¸ÐµÐ¼
ĠÐ½ÐµÐ¿ ÑĢÐµÐ¼ÐµÐ½Ð½Ð¾
ĠÑĪ ÐºÐ°ÑĦ
ĠÐĽ Ð°
ĠÐ²Ð¾ ÑĪÐ»Ð°
ÐºÐ¾Ð² Ð¾Ð¹
ĠÐ¿ÑĢÐ¾Ð²Ð¾Ð´ Ð¸ÑĤÑĮ
ĠÐ¿ÐµÑĢ ÐµÐ¹
Ð² Ð¸ÑģÑĤ
ĠÐķ Ð¡
ĠÑģÐ¼Ð¾Ð³ ÑĥÑĤ
Ð¾Ð½Ð¸ Ñı
ĠÐļÐ°Ð· Ð°Ð»Ð¾ÑģÑĮ
ĠÐ°Ð½Ð³ Ð»Ð¸Ñĩ
Ð¸Ñĩ Ð½ÑĭÐ¼
ĠÐ²Ð¾Ð» Ð½Ð¾Ð²
ĠÐ·Ð°ÑģÑĤÐ°Ð² Ð¸Ð»
ĠÑĥÐ» Ð¾Ð²
ĠÐ² ÐµÑĩÐ½Ð¾
Ð°Ð½ Ð°Ð²Ð»Ð¸Ð²
ĠÐ´ÑĢ Ð°Ð¼
ĠÑģÐ¿ Ð¸ÑĢ
ĠÐºÐ°Ð¿Ð¸ÑĤ Ð°Ð½Ð°
ĠÐ»ÐµÑĤ Ð¾Ð¼
Ð¸Ð½Ð³ÑĢ Ð°Ð´
ÐµÑĢ Ð°Ð¼Ð¸
Ð¸ÑĤÐµÐ»ÑĮ Ð½ÑĭÐ¼Ð¸
Ð½Ð¾Ð² Ð¸Ð´
ĠÐ¿Ð¾ÑģÑĤ ÐµÐ»ÑĮ
ĠÐ¿ ÐµÑģÐº
ÑĨÐ¸Ð¾Ð½ Ð½ÑĭÐ¹
Ð¼Ñĥ Ð½
ĠÐ´Ð¾Ð± Ð¸ÑĤÑĮÑģÑı
ĠÐ´Ð² Ð°Ð¶Ð´Ñĭ
Ð»ÐµÐ½ Ð½ÑĭÐ¼Ð¸
Ð¿ Ð¾Ð¼
ĠÑĢÑĭÐ½ ÐºÐµ
ĠÑĥÑĩ Ð¸Ð»Ð¸
Ð»Ð¾Ð¶ Ð¸Ð»
ÑĥÑī Ð¸Ñħ
ĠÐ¿ÑĥÐ±Ð»Ð¸ ÐºÐ°
ĠÐ»ÑĥÑĩ ÑĪÐ¸Ñħ
ĠÑģÑĭ Ð½Ð¾Ð²
ĠÐ½Ð°Ð» Ð¾Ð³
Ð°ÑĢ Ð¾Ð´
Ð´Ð° ÐµÐ¼
Ñĩ Ð°Ð½
ĠÑĥÐ»ÑĭÐ± ÐºÐ°
ĠÑģ ÑİÐ¶
ĠÐ² ÑĢÐ°Ð¶
ĠÐ¶ Ð¸Ð»Ð°
Ð°ÑĢ Ð¾Ð¼
ĠÐļ ÑĢÐµÐ¼
ÑıÑĤ Ð°
ĠÐ±Ð¾ ÑİÑģÑĮ
ĠÐ´Ð¾Ð¶Ð´ ÑĮ
ĠÐ¾Ð±ÑīÐµ ÑģÑĤÐ²Ðµ
ĠÐ¿ ÐµÑĪ
ĠÐ£ ÑĢ
ĠÐ²ÐµÑĢ Ð½ÑĥÐ»Ð¸ÑģÑĮ
ar t
ÑĢ Ð°Ð¼Ð¸
ÑĢ ÐµÑĨ
ĠÐ½Ð°Ð¿Ð¸Ñģ Ð°Ð½Ð¾
Ð¾ÑĤ ÑĮ
ÑĪ ÐºÐ¸
ĠÐ·Ð°Ð± ÑĭÐ²
Ð¾ Ð¾Ð±ÑĢÐ°Ð·
Â» [
ĠÐ¶ÐµÐ» Ð°Ñı
ÑĤ Ð°Ð½
Ð»ÐµÐ½ Ð½ÑĥÑİ
Ð°ÑİÑīÐ¸Ð¹ ÑģÑı
ĠÑĢÑĥÐº Ð°Ð²
Ð¾Ð²Ð°Ð½ Ð½Ð¾Ð¹
ĠÑĨÐ°ÑĢ Ñı
ĠÐ±Ð»Ð°Ð³ Ð¾Ð¿Ð¾Ð»ÑĥÑĩ
ĠÐ²Ñĭ Ð½ÐµÑģ
ĠÐ¿ÑĢÐ¸Ð·Ð½ Ð°ÑĤÑĮ
Ð°Ð» ÐµÑĤ
ĠÐ¸Ð½ÑĤ ÐµÐ»Ð»ÐµÐº
Ð¼ Ð¾Ð·
Ð¸Ð½ ÑĥÑĤ
ÑĩÐ¸Ðº Ð¾Ð¼
ĠÐ¾ÑĤÐ´ Ð¾Ñħ
ĠÐ²Ð°ÑĪ Ñĥ
ĠÐ½Ð° ÑĥÐºÐ¸
ĠÐ¿Ð¾Ð´ÑĤÐ²ÐµÑĢÐ¶ Ð´
ĠÐ» ÐµÐ¿
Ð¸ÑĢÐ¾Ð²Ð°Ð½ Ð½ÑĭÐ¹
Â» ).
ĠÐºÑĢÐµÐ´ Ð¸ÑĤ
ĠÐºÐ½Ð¸ Ð³Ð°
Ð»Ñı Ð²
ÐµÐ´ Ð½ÐµÐ²
ĠÐĳ ÑĭÐ»
ĠÐºÐ°Ð¶Ð´ Ð¾Ðµ
ĠÑģÑĥÐ¼ Ð¼Ñĥ
ĠÐ¿ÑĢÐµÐ´ÑģÑĤÐ°Ð² Ð»ÐµÐ½Ð¸Ñı
ĠÐ¿ÑĢÐ¾Ð´ Ð°Ð²
Ð°ÑĤÐµÐ»ÑĮ Ð½Ð°Ñı
ĠÐ½Ð°Ð´ ÐµÑİÑģÑĮ
ĠÐ¿Ð¾Ð½Ð¸Ð¼ Ð°Ð»Ð°
ÑĥÑİÑī Ð¸Ð¼
ĠÑĢÐ°Ñģ Ñħ
ĠÑģÑĤÐ°ÑĢ Ð¸Ð½
ĠÑģÑĤ Ð°Ð±
ĠÐ·Ð°ÐºÑĢÑĭ Ð»
ĠÐĵÐ¾ÑģÐ¿Ð¾Ð´ Ð¸
ĠÐ»Ð¾ÑĪ Ð°Ð´Ð¸
ĠÐĳ Ð°Ð±
ĠÐ¿Ð¾ÑĢ ÑĭÐ²
ĠÐ¿ÑĢÐ¾Ð¸Ñģ ÑĪÐµ
ĠÑĪ ÐµÑģÑĤÐ¸
ĠÐ½ ÐµÐ»Ð¾Ð²
Ð¾Ð²Ð° ÑĤÐ¾
ĠÐ¢ÐĲ Ð¡Ð¡
Ð¿ Ð¾Ñģ
ĠÐ¾ÑĤ Ð·
ÂłÐĿ Ð¸ÑĩÐµÐ³Ð¾
Ð¸Ð» Ð»Ð°
ĠÐĺÐ¸Ñģ ÑĥÑģ
ĠÐĽ Ð¸
ĠÐ´ ÐµÐ±
ĠÑĢÐ¾Ð¼ Ð°Ð½
ĠÐ¿ÑıÑĤ Ð½Ð°Ð´ÑĨÐ°ÑĤÑĮ
ĠÑģÑĤ Ð°Ð½Ð´Ð°ÑĢÑĤ
ĠÑģÐº ÑĢÑĭÑĤÑĮ
Ð»Ð¾ Ð½Ð¸Ð²
Ð´Ð° ÑİÑĤÑģÑı
ÐµÐ»Ñı Ñħ
ĠÐŀÐ´ Ð½Ð°
Ð»Ð¾ ÑĪ
ĠÐ´ÐµÑĢÐµÐ² Ð½Ð¸
ĠÐ´ Ñĭ
ĠÐ± ÑĢÐ¾
ĠÐ¼Ð¾Ð± Ð¸Ð»ÑĮ
Ġ3 5
ĠÐ¾Ð´ÐµÐ¶ Ð´Ñĭ
= =
Ð· Ð¾ÑĢ
ĠÐ½Ð¾Ð³ Ð°Ñħ
Ñĳ Ð³
Ð²Ð¸Ð´ Ð¸Ð¼Ð¾Ð¼Ñĥ
ĠÐ½Ð°ÑĢÑĥÐ¶ Ñĥ
ĠÐ° ÑģÑĤÑĢ
Ð¸ÑĤ Ð¾Ð¹
ĠÐ¯ Ð½
ĠÐ¡ Ð¾Ð»
ĠÐļ ÐŁ
ĠÐ´ÑĥÑĪ ÐµÐ²
Ðº Ð¾Ð»
Ð°Ð· Ð°
ÑģÑİ Ð´Ñĥ
ĠÑĤ Ð¸ÑĤ
ĠÐ¸Ð·Ð± ÐµÐ¶Ð°ÑĤÑĮ
ĠÑĪ ÐµÑĢ
ĠÐ³ÐµÑĢÑĨ Ð¾Ð³
ĠÐĶ ÐµÐ»
ĠÐĽ ÑĮ
ĠÐ¿ÑĢÐ¾Ñĩ Ð¸Ð¼
ĠÑģÑĭ ÑĢ
ĠÐ¿Ð¾Ð´ Ð»Ð¸Ð½
ĠÑģÐ¾Ð² ÐµÑī
ĠÐ¾ÑģÑĤÐ°Ð½Ð¾Ð² Ð¸ÑĤÑĮ
ĠÐ±Ð¾Ð»ÐµÐ· Ð½
ĠÐ¿ÑĢÐµÐ´ Ð¼
Ð°Ð´ Ð¾Ð»Ð³Ð¾
ĠÐ²ÑĢÐ°Ð³ Ð¾Ð²
Ð»Ñİ ÑģÑĮ
ĠÐ¼ Ð½Ð¾Ñİ
ĠÐ± ÑĥÐ»ÑĮ
ĠÑģÐ¾Ñĩ ÐµÑĤ
Ñħ Ð¾Ð·
ĠÐŁ Ð¾Ð»ÑĮ
ĠÐ·Ð°Ð¿ Ð¾Ð»Ð½
ĠÐ¡Ð¸ÑĢ Ð¸Ð¸
ĠÐ¿ÑĢ ÑıÑĤ
ĠÐ¿ÑĢÐ¾Ð¿ ÑĥÑģÐº
ĠÑĥÐ¶ Ð¸Ð½
ĠÑĢÐ°Ð·Ð»Ð¸Ñĩ Ð½ÑĭÐµ
Ð¾Ð¹Ð´ ÐµÐ¼
ÐµÑĢÐ° ÑĤÐ¾ÑĢ
ĠÐ¿ÐµÑĢÐµÑģ ÐµÐº
Ġ 000
ĠÐ»Ð¾ÑĪÐ°Ð´ ÐµÐ¹
ĠÐĽ Ð¸ÑĤ
ĠÐŁÐµÑĤ ÑĢÐ°
ĠÐ±ÐµÐ» ÑĭÐµ
ĠÐ²Ð¾Ð¿ÑĢÐ¾Ñģ Ð°
ĠÐ¼Ð°Ð»ÑĮÑĩ Ð¸ÐºÐ°
ĠÐ½Ð°Ð¼ ÐµÐº
ĠÐ³ÑĢÑĥÐ¿Ð¿ Ñĥ
ĠÐ¿Ð¾Ð´Ð½Ñı Ð»Ð°ÑģÑĮ
ĠÐ¿ÑĢÐ¸Ðº ÑĢÑĭÐ²
ĠÐ´ÑĢÑĥÐ³ Ð¾Ð¼Ñĥ
ĠÐ¿Ð°Ð»ÑĮ ÑĨÐµÐ²
Ð¸Ð¼ Ð¾Ð³Ð¾
ĠÑģÐ¿ Ð°Ð»
ĠÐ¿ÑĢÐµÐ´ ÑĬÑıÐ²
ĠÐ¥ Ð¾ÑĢ
ĠÑģÑĥÑĤ ÐºÐ¸
ĠÐ¿Ð°Ð» ÐµÑĨ
ĠÐ¿Ð¾Ð» Ð°
ĠÐ´ÐµÑĢÐµÐ² Ð½Ðµ
Ð¾ÑĪ Ð»Ð¸
ÑıÐ± ÑĢÑĮ
ÐµÐ½ ÐºÐ°
ĠÐ¿ÐµÑĢÐµÐ³Ð¾Ð²Ð¾ÑĢ Ñĭ
ĠÐŁ ÑĢÐ¾Ð´
ĠÑģÑĥÑīÐµ ÑģÑĤÐ²Ð¾
ĠÐ²Ð¾Ð·ÑĢÐ°Ð· Ð¸Ð»
ĠÐ°ÐºÐºÑĥ ÑĢÐ°ÑĤÐ½Ð¾
ĠÐ¼Ð¾Ð½ Ð°Ñħ
ĠÑģÐ¿ ÐµÐºÑĤ
ĠÐĽÑĥÑĩ ÑĪÐµ
ĠÐ³Ð¾Ð²Ð¾ÑĢ Ð¸ÑĤÐµ
ĠÐ¾ÑĤÐ´ÐµÐ» Ð°
ĠÐľ Ð°ÑĪ
ĠÐ²Ð¾Ñģ ÑģÑĤ
ÑĤÐ¾Ñĩ ÐºÐ¸
Ġ200 8
ĠÐ¾ÑĤÐ²ÐµÑĤÑģÑĤÐ²ÐµÐ½ Ð½Ð¾ÑģÑĤÑĮ
ĠÐ¥ÑĢÐ¸ÑģÑĤ Ð°
ĠÑģÐ»ÐµÐ´ ÑĥÑİÑīÐµÐµ
ĠÐł ÐµÐ±
ĠÐ¿Ð¾Ð±ÐµÐ´ Ñĭ
ĠÐ³ÑĢ ÐµÑĩÐµÑģÐº
ÐµÐ½ ÑģÐ°
ÐµÐ² ÑĪÐ¸Ðµ
ĠÑĦÐ» Ð¾ÑĤÐ°
ĠÐ» Ð¾ÑĢÐ´
ÑĥÐ» Ð¾Ð²
ĠÐ´ÐµÐ¹ÑģÑĤÐ² Ð¸ÑĤÐµÐ»ÑĮÐ½Ð¾ÑģÑĤÐ¸
ĠÐ¼Ð°Ð»ÐµÐ½ÑĮ ÐºÐ¾Ð¹
3 6
ĠÐºÐ°Ð¼ Ð½Ñı
ÑĢÑĥ ÐµÑĤ
ĠÑģÐ²Ð¾Ð±Ð¾Ð´ Ñĥ
ĠÐ¾ÑĤÐº Ð»ÑİÑĩ
Ð¾ÑĢ Ð¸Ñı
ĠÐ±ÑĢÐ¾Ð² Ð¸
ĠÐ´ Ð°Ð»Ð°
ĠÑģÐ¾ÑģÑĤÐ¾Ñı Ð½Ð¸Ñı
Ð¿ÑĢ Ð¸
Ð¸Ñģ Ðµ
ĠÐ¾ÑĤÑĩ ÐµÐ³Ð¾
ĠÐ½ ÐµÐ±Ðµ
Ð°ÑĤÐµÐ»ÑĮ ÑģÑĤÐ²
ĠÐ¾ÑģÑĤÐ°Ð½Ð¾Ð² Ð¸Ð»Ð°ÑģÑĮ
ĠÐ¿ÑĢ Ð¾Ð²Ð¾ÑĢ
ĠÑģÑĤÑĢÐ°Ð½ Ð°
ĠÑĢÐ°Ð±Ð¾ÑĤ Ð°ÑİÑĤ
ĠÐ½Ð°ÑĩÐ¸Ð½ Ð°ÐµÑĤÑģÑı
ĠÐ²Ñģ Ð»ÑĥÑħ
Ð± ÐµÐ»
ÐµÐ½ Ð¾Ðº
ĠÐ°Ðº ÑĤÐµÑĢ
ĠÑįÐº Ñģ
ĠÐ¼Ð¾Ð»Ð¾Ð´ ÐµÐ¶
Ð°ÑĢ Ñĥ
ĠÑģÑĤÐ°ÑĤÑĮ Ð¸
ĠÐºÐ¾Ð¼Ð¿ Ð¾Ð·
ÐµÐ½ÑĮ ÐºÐ°Ñı
ĠÐĴ Ð¸Ð½
Ð½ Ð¸ÑĤÑĮ
Ðł Ðĺ
ĠÑģÐ² Ð¸ÑģÑĤ
Ð¾ÑĤ Ð½Ð¾ÑĪ
ĠÐ¾ÑĤÐ´ Ð°ÑĤÑĮ
Ð°Ð¹ Ð»
ĠÐ²Ð· Ð»ÐµÑĤ
ĠÐ¿Ð¾Ð± ÐµÑĢÐµÐ¶
ĠÐ¿ÑĢÐ¾Ð¸ÑģÑħÐ¾Ð´ Ð¸Ð»Ð¾
ĠÐ¾ÑĤÐ²ÐµÑĩ Ð°ÐµÑĤ
ĠÑĢÐ¾Ð² Ð½Ð¾
ĠÐ³ÑĢ Ð°Ð±
ÑĤ ÑĥÑĢ
Ñĩ Ð¸Ð½Ð°
Ñı ÑİÑĤÑģÑı
ĠÐ¾Ð´ ÐµÑĢÐ¶
ĠÐµÐ² ÑĢÐ¾
3 7
Ð¸Ð½Ñĥ Ð»Ð¸
ĠÑĥÐ²ÐµÑĢ ÐµÐ½Ð½Ð¾
ĠÐ±ÑĭÐ² ÑĪÐµÐ³Ð¾
ĠÐĴ ÐµÑĤ
ĠÐł Ð°Ð½
ĠÐ¿ÑĢÐ¸Ð´ ÐµÑĢÐ¶
ĠÑģÑĩÐ°ÑģÑĤ ÑĮÑı
ĠÐĲÐ»ÐµÐºÑģÐ°Ð½Ð´ ÑĢÐ¾Ð²
ĠÐ¿ÑĢ ÐµÐ»
ĠÐ² Ð²Ð¾Ð´
ĠÑħ Ð¼Ñĭ
ÑģÑı Ñī
Ð°Ð± Ð¶
ĠÐ¾ÑģÑĤÐ°Ð² Ð¸Ð²
ĠÑģÑĩÐ¸ÑĤ Ð°Ñİ
ĠÐ½Ð°ÑħÐ¾Ð´ Ð¸Ð»Ð°ÑģÑĮ
ÑĢÐ°ÑĤ Ð¸ÑĤÑĮ
ĠÐ¿Ð¾Ñģ Ð¾Ð²ÐµÑĤ
ĠÑĢÐµÑĪ Ð¸ÑĤÑĮ
ĠÐĳ ÑĥÑĢ
ĠÐ¼Ð°Ð»ÐµÐ½ÑĮ ÐºÐ°Ñı
ÑĢ Ð¾Ð·
Ð¾Ð¿ ÑĢÐ¾Ð²
ÑĦ Ð¾Ð½
ĠÐ¿Ð¸Ñģ Ð°ÑĤÐµÐ»ÑĮ
ÐµÐ² Ñĥ
ÑĪ Ñĥ
ĠÑĨ ÐµÐ½Ñĭ
ĠÐºÐ¾Ð¼ Ð¸ÑĤÐµÑĤÐ°
Ð»Ñı Ð»Ð¾
ĠÐ¾Ñģ ÑĥÐ¶Ð´
ĠÐ°Ð» ÐºÐ¾Ð³
ÑĦ Ñĥ
ĠÑįÐ»ÐµÐ¼ ÐµÐ½ÑĤ
Ð¾Ð»Ð¾ ÑĤÐ¾
ĠÐ¿Ð¾Ð½Ð¸Ð¼ Ð°ÐµÑĤÐµ
ĠÐ¾ÑĤ ÑĢÐ°Ð²
ĠÐ¿Ð¾Ð´ÑĤÐ²ÐµÑĢÐ´ Ð¸Ð»
Ñĩ ÐµÑģÑĤ
ĠÐ¦ Ð°ÑĢ
ĠÑĢÐµ ÑĦÐ¾ÑĢÐ¼
ĠÐ½Ð° ÑĥÐº
ĠÐĽ Ð¸Ð´
ÐµÐ½Ñı Ñħ
ÑĤÐ¾ÑĢ Ðµ
ĠÐºÐ¾Ð»Ð»ÐµÐº ÑĤÐ¸Ð²
ĠÐ½Ð°ÑĢÐ¾Ð´ Ñĥ
ĠÑģÑĤÐ°ÑĢ Ð¾Ð¹
Ġ200 9
ĠÐ¿ÑĢÐµ Ð¾Ð´Ð¾Ð»
ĠÐ´ÑĥÐ¼ Ð°ÐµÑĤÐµ
ÑģÐ» Ð°Ð¼
ĠÐ¾ÑĤÐ² Ð»ÐµÐº
ĠÑĤÑĢÐ°Ð½ Ñģ
Ð°ÐºÑĤ Ð¸Ð²
ĠÑĪ Ð°Ð¿
an t
Ð½Ð¾Ð´ Ð¾ÑĢÐ¾Ð¶
Ñį Ð´
ĠÐ¿Ð°ÑĢÐ»Ð°Ð¼ ÐµÐ½ÑĤ
ĠÑİ ÑĢÐ¸Ð´
ĠÐ±Ð¾ÐµÐ² Ð¾Ð¹
ĠÐ²ÐµÑĢ ÑģÐ¸Ð¸
ÑĳÑĢ ÑĤ
ĠÑģÑĤÐ°ÑĢ ÑĭÐµ
ĠÐ±ÐµÐ» ÑĭÐ¹
Ð¾Ð² ÑģÐºÐ¸Ð¹
ĠÐ²Ð¿ Ð¾ÑģÐ»ÐµÐ´ÑģÑĤÐ²Ð¸Ð¸
ĠÑģÐ¾Ð² Ð¿Ð°Ð´
ĠÐ¿ÐµÑĢÐµÐ½ Ð¾Ñģ
Ð½Ð¸ ÑĨÐ¸Ð¿
ĠÐŀÑĤ ÐºÑĥÐ´Ð°
ĠÐºÐ¾Ð½ÑĦ Ð»Ð¸ÐºÑĤ
ĠÐ¿Ð¾Ð²ÐµÑĢ Ð½ÑĥÐ»Ð°ÑģÑĮ
Ð¾ ÑĨ
ĠÑĤÐµÐ¾ÑĢ Ð¸Ð¸
ĠÐ¿Ð¾Ð´Ð´ÐµÑĢÐ¶ ÐºÑĥ
ĠÑģÐ»ÑĭÑĪ Ð½Ð¾
ĠÐ¿ÑĢÐ¾Ð²ÐµÐ´ ÐµÐ½Ð¸Ñı
ÑİÑī Ð¸Ð¼
ĠÑĢ Ð¾Ðº
ĠÑĤÐµÐ» Ðµ
ĠÑįÑģÐº Ð°Ð´
Ð¾Ð¼ Ð°Ð½Ð´
ĠÑĢÐ°ÑģÑģ ÑĥÐ¶Ð´
ĠÑģÐ¾Ð»Ð´ Ð°ÑĤÑĭ
Ð¾Ñģ Ð¿Ð¾Ð´
ĠÐºÑĥÑħ Ð½Ñİ
Ð¾Ñİ Ð·
ĠÐºÐ¾Ð¼Ð¼Ñĥ Ð½Ð¸ÑģÑĤ
Ð¾Ñĩ Ñĥ
ĠÐ² Ð¾Ð¶Ð´
ĠÐĿÐ°Ð´ ÐµÑİÑģÑĮ
Ð°Ñī Ð¸Ðµ
il l
ĠÐ¿ÑĢÐ¾Ð´Ð¾Ð»Ð¶ Ð°ÑĤÑĮ
ĠÑĢ ÑĥÐ¶
ĠÐ·Ð°ÑıÐ² Ð»ÐµÐ½Ð¸Ðµ
ĠÑĨ Ð¸Ðº
Ð± Ð¸ÑĤ
ĠÐ¾Ð± ÑĢÑĭÐ²
ĠÐĶ ÐµÐ¹ÑģÑĤÐ²
ĠÑģÑĤÐ¾Ð» ÐµÑĤ
ĠÐ¾Ð± ÑģÐ»ÑĥÐ¶
ĠÑĤÐµÐ¼ Ð¸
Ð» ÑĥÐ¿
ÑĤÐ¸ ÐµÐ¼
ĠÑģÐºÐ°Ð¶ Ð¸
ĠÐ¾ ÑĢÐ¸Ð³Ð¸Ð½
ĠÑģÑĤÐ°ÑĤ ÑĥÑģ
ĠÐ½Ð¸Ñĩ ÑĤÐ¾
ĠÐ±Ð¾Ñı Ð»ÑģÑı
ĠÐ¿Ð¾Ð´ Ð¾Ð±ÑĢ
ÐµÑĤÑĮ Ð¼Ð¸
Ð· Ð°Ðº
ĠÐ¾ÑĤ ÑħÐ¾Ð´
Ð¾Ñĩ Ð½Ð¸Ðº
ĠÑĨÐ°ÑĢ ÑĮ
ĠÑĢÐµ Ð°Ð»Ð¸Ð·
ĠÐĺÐ½ ÑĤÐµÑĢÐµÑģÐ½Ð¾
ĠÑĥ ÑħÐ¾
Ð¸Ð²ÑĪ ÐµÐ¹ÑģÑı
ĠÐ´Ð² Ð°Ð´ÑĨÐ°ÑĤÐ¸
ĠÑĥÑģÐ»ÑĭÑĪ Ð°Ð»Ð°
ĠÐ´ Ð°ÑĤ
ÐµÐ² Ð½Ð¾Ð²
ĠÑĥÐ½Ð¸Ð²ÐµÑĢÑģ Ð¸ÑĤÐµÑĤÐ°
ĠÐŀÐ»ÑĮ Ð³Ð°
ĠÐ¼ÑĭÑģÐ» ÐµÐ½Ð½Ð¾
ĠÐ½ÐµÐ± Ð°
Ðľ Ðŀ
ĠÐĺ Ð»
ĠÐ¿Ð¾Ð·Ð´ Ð½ÐµÐµ
ĠÑģÐ¸Ð³ Ð½Ð°Ð»
Ð¸ÑĢ Ð°ÑĤÑĮÑģÑı
ĠÐ²ÑĤÐ¾ÑĢ Ð°Ñı
ĠÐ´Ð¾Ð¿ ÑĢÐ¾Ñģ
ĠÐ¾ÑĤ ÑĨÑĥ
ĠÐ¾Ð³ Ð½ÐµÐ¼
ĠÐ²ÐµÑĢ Ñİ
ĠÐ´Ð¾Ð±ÑĢ Ð°ÑĤÑĮÑģÑı
ĠÐķ Ð³Ð¸Ð¿
ĠÐ½Ð°Ñĩ Ð°Ð»Ð¾ÑģÑĮ
ĠÑģÐ½ ÑıÑĤÑĮ
ĠÐĵÐ¾ÑģÐ¿Ð¾Ð´ ÑĮ
ĠÐ¿ÑĢÐ¾Ñģ Ð¸Ð»
ĠÑĥÐ¿ÑĢ ÑıÐ¼
ÂłÐŀ Ð½Ð°
ĠÐ¿Ð¾Ð²Ð¾ÑĢ Ð°Ñĩ
ĠÐ² Ð»Ð°Ð¶
ÑĥÑħ Ð¸
Ð°Ð» ÐµÐºÑĥ
ĠÑģÐ¾Ðº ÑĢÐ¾Ð²
ĠÑĥ ÑĪÐ»Ð¸
ĠÐľ Ð°Ð´
ĠÑĢÐ°Ð´Ð¾ÑģÑĤ Ð½Ð¾
ÂłÐ¡Ð¿ Ð°ÑģÐ¸Ð±Ð¾
ĠÐ¿Ð¾Ð´ Ð¼
ĠÐĵÐµÑĢ Ð¼Ð°Ð½
Ð°Ð½ ÑģÐºÐ¸Ð¹
Ð¿ Ð¸ÑģÑĮ
ĠÐł ÐµÐ·
ĠÐĴ ÐĴ
ĠÐĴ Ð¸Ð»ÑĮ
ĠÐĶ Ð¾Ð»
ÂłÐĹ Ð½Ð°ÑĩÐ¸ÑĤ
ĠÐ¿Ð¾Ð½Ð¸Ð¼ Ð°Ñı
ĠÑĤ ÐµÑģÑĤ
ÑĤ ÑĢÐ¾
ĠÐ¸ÑģÐºÑĢÐµÐ½ Ð½Ðµ
Ð°ÑĤÐµÐ»Ñı Ð¼Ð¸
ĠÑĢ ÐµÑģÐ¿ÑĥÐ±Ð»Ð¸ÐºÐ¸
ĠÐ½Ð°ÑģÑĤ Ð¾ÑĢÐ¾Ð¶
ĠÑĢÐ°ÑģÑģÐºÐ°Ð· Ð°Ð»Ð°
ĠÐĶÐµÐ² ÑĥÑĪÐºÐ°
ĠÐ±Ð¾ÑĢÑĤ Ñĥ
Ð¾Ðº Ð¾Ð½
ĠÐ²Ñģ Ð°Ð´
ĠÐ¾ÑģÑĤÐ°Ð² Ð°Ð»ÑģÑı
Ð¾Ñĩ Ð¸Ð»Ð°
Ð½Ñİ Ð´ÑĮ
ÑĢ Ð°Ð¹
Ð¾Ð¶ Ð´Ðµ
ĠÑĪÐ°Ð³ Ð¸
ĠÐ±ÐµÑģ Ð¿Ð¾Ð»ÐµÐ·
ĠÐ´ ÑĮÑıÐ²
ĠÐ´ÐµÐ½ÑĮ Ð³
ĠÐ³Ð°ÑĢ Ð°Ð½ÑĤ
ĠÐļÐ¾Ð½ÑģÑĤÐ°Ð½ÑĤ Ð¸Ð½
Ð¸ÑĢÐ¾Ð²Ð°Ð½ Ð½ÑĭÐµ
Ð°Ð² Ð°Ð¹
ĠÐ¶Ð´ Ð°Ð»Ð¸
Ð¾Ð» ÐºÐ¾Ð²
ĠÐ¥ Ð°
Ð¸ÑĤ Ð°Ð½Ð¸Ð¸
ĠÐĴ ÑģÐµÐ¼
ĠÐ¾ Ð³Ð¾ÑĢ
ĠÐ¿ÑĢ Ð¸ÑĨ
ĠÐĳ Ð¾Ð±
ĠÑĩÑĢÐµÐ·Ð²ÑĭÑĩ Ð°Ð¹Ð½Ð¾
ÂłÐĽ Ð°Ð´Ð½Ð¾
ĠÑĢÐ°ÑģÑģÑĤÐ¾Ñı Ð½Ð¸Ð¸
ĠÐ²ÑģÑĤÑĢÐµÑĩ Ð°
, -
ĠÐºÐ°Ðº Ð¸Ð¼Ð¸
ĠÑĥÐ±Ð¸Ð¹ ÑģÑĤÐ²Ð°
ĠÐļÐ°Ðº Ð°Ñı
ĠÑĥÑģÐ¿ ÐµÑĪ
Ñĥ ÑģÐ¿
Ð¾Ð³ Ð¾Ð²Ð¾ÑĢ
ÐµÐ¹ Ð·
ĠÐ½Ð°Ð´ÐµÐ¶ Ð´Ñĭ
ĠÐ±ÑĢ Ð¾ÑĪ
ĠÐº Ð»Ð°Ð²
Ð°ÑĤ Ð¾Ð»
ĠÐºÑĢÑĥÐ¿ Ð½ÑĭÑħ
ĠÐ¿Ð¾Ðº ÑĢÐ¾Ð²
ĠÑĥÐ·Ð½ Ð°Ð»Ð°
ĠÑĢ Ð¾Ð¶Ð´
ÑĪÐ¸ Ð½Ñĭ
ĠÐºÐ¾ÑĢÐ¿ ÑĥÑģÐ°
Ð¸Ð² Ñĭ
Ð´ ÐµÐ½Ð°
ĠÑįÑĤ Ð°Ð¶
ĠÐ»Ð¸ ÑĦ
ĠÑĢÐ°Ð·Ð´ ÑĥÐ¼
Ð¾ÑĢÐ¾ÑĪ ÐµÐ½ÐºÐ¾
Ð¼ ÐµÐ¹
ĠÐºÐ¾Ð¶ Ð¸
R u
ĠÐ¿Ð¾ÑĤ ÐµÑĢÐ¸
ĠÑģÑĤÑĢÐ°Ð½ Ð¸ÑĨÐµ
ĠÑįÐºÐ¾Ð½Ð¾Ð¼ Ð¸ÐºÐ¸
ĠÐ´ Ð¾Ð·
ĠÐĴÐµÐ»Ð¸Ðº Ð¾Ð±ÑĢ
Ð¶ ÐµÐ»
ĠÑĪ Ð»Ñİ
ĠÑģÐ¾Ð± Ð»Ð°Ð·
Ð³ ÑĥÐ¼
ĠI II
ĠÑĦÐ¾ÑĤÐ¾Ð³ÑĢÐ°ÑĦ Ð¸Ð¸
ĠÑģÐ¿Ð¾ÑģÐ¾Ð± Ð½Ð¾ÑģÑĤÐ¸
ĠÐ²ÑĭÑĪ Ð»Ð¾
ĠÐ¾ÑĢ Ð´ÐµÐ½
ĠÑĥÐ¿ Ð°Ð»Ð°
ĠÐ½Ð°Ð¿ÑĢÑı Ð³
ĠÑģÐºÐ¾ÑĢ Ð¾ÑģÑĤÐ¸
ĠÐľ Ð¾Ñı
ĠÐ¿ÑĢÐ¾Ñĩ Ð¸ÑĤ
ĠÐľ Ð¸ÑĤ
) )
ĠÑĥÐ±Ð¸Ð¹ ÑģÑĤÐ²Ð¾
ĠÐ¢ ÑĢÐ¾
ĠÐ¿Ð¾Ð¹ Ð´Ñĥ
ĠÐ° Ñģ
ĠÐ²Ð¾Ð· ÑĮÐ¼Ð¸
ĠÐ¤ Ð¸Ð»
Ðº ÐµÑĤ
ĠÑģÐ¾Ð± Ð»ÑİÐ´
ĠÐĴÐ¼ÐµÑģÑĤ Ðµ
ĠÐ´Ð»Ð¸Ð½ Ð½ÑĭÐµ
ĠÑģÐ¾Ð±ÑģÑĤÐ²ÐµÐ½ Ð½ÑĭÑħ
ĠÑĩÑĥÐ´Ð¾Ð² Ð¸Ñī
ĠÐ¿ÑĢÐ°Ð² Ð¾Ð¹
ĠÐ¼ÐµÑģÑĤ Ñĥ
ĠÐ»ÐµÐ¶ Ð°Ð»Ð¸
ĠÐ² ÑħÐ¾Ð´Ð¸ÑĤ
ĠÐĶ Ð°Ð»
ĠÐ¿ÑĢÐ¾Ð´Ð¾Ð»Ð¶ Ð°ÐµÑĤ
ĠÐ³Ð¾ÑĢÐ¾Ð´ Ð¾Ð²
ĠÐ¸Ð·Ð¾Ð±ÑĢ ÐµÑĤ
ĠÑģÐ¾Ð·Ð´ Ð°Ð½Ð¸Ðµ
ĠÐ² Ð»Ð¸
Âł Ð½Ð°
ĠÐ¡ÐºÐ¾ÑĢ ÐµÐµ
Ðķ ÑīÐµ
Ð°ÑĤÐµÐ»Ñı Ð¼
ĠÐ¿Ð¾Ð·Ð²Ð¾Ð» Ð¸ÑĤÑĮ
ĠÐ°ÐºÑĤÐ¸Ð² Ð½Ð¾
ĠÐ½Ð°Ð¿ÑĢÐ°Ð² Ð»ÐµÐ½Ð¸Ñı
ĠÑĢÐµÐº Ðµ
ÑĢ Ñİ
ĠÑģ ÑĥÑĤÑĮ
ĠÐļ Ñģ
ĠÐºÐ°Ð¼ Ð½Ð¸
Ð²ÐµÐ¹ ÑĨÐ°ÑĢ
ĠÑĢÐµÐ· ÐµÑĢÐ²
ĠÑĥÑģÐ¿ ÐµÑĪÐ½Ð¾
ÐµÑĢ ÐµÐº
Ð¸Ð¼ ÐµÐ½
ĠÐ¿Ð»Ð° Ñī
ĠÐ·Ð°Ð½Ð¸Ð¼ Ð°Ð»ÑģÑı
Ð°Ð´ ÑĥÑĤ
ĠÐ¿Ð¾Ð´ ÑĢÑıÐ´
ĠÐµÐ¿ Ð¸ÑģÐºÐ¾Ð¿
ĠÑģÐ½Ð°ÑĢ ÑıÐ´
ĠÐ¿ÑĢÐ¸Ñĩ Ð¸Ð½Ð¾Ð¹
ĠÐĵÐ¾Ñģ Ð¿
ĠÐ¿Ð¾Ð»Ð¾Ð² Ð¸Ð½Ñĥ
ĠÐ¿Ð¾Ñģ ÑĢÐµÐ´Ð¸
ĠÑĦ Ð°ÑĪ
ÐµÑĢÑĮ ÑĳÐ·
Ð¾Ð²Ð¾ÑĢ Ð¸Ð»Ð°
ĠÐ¿ÑĢÐµÐ´ÑģÑĤ Ð¾Ð¸ÑĤ
ĠÑģÐºÐ°Ð¶ ÐµÐ¼
ÐµÐ½ Ð´Ñĥ
Ð´Ð° Ñİ
ĠÑĢÐ°Ð· Ð¾ÑĢ
ÑĦ Ð¸
ĠÑģÐµÐ²ÐµÑĢ Ð¾
ĠÑĦÐ°Ð½ÑĤ Ð°ÑģÑĤ
Ðº Ð¾ÑģÑĤÑĮÑİ
ĠÐ¾Ð±ÐµÑī Ð°Ð»
ĠÐ¿Ð¾Ð´ ÑĢÐ¾ÑģÑĤ
ĠÐ½ÐµÑĥÐ´Ð° Ñĩ
ĠÐ´ Ð°ÑģÑĤ
ĠÐºÐ¾Ð½ Ñı
Ð¾ÑĤ ÐµÑĢ
ĠÑģ Ð½Ð°
ĠÐ¼ÑĭÑģÐ» ÐµÐ¹
ĠÐ¸Ð³ÑĢ Ð°Ð»
ĠÐ¼Ð°Ð¹ Ð¾ÑĢ
ÑĢ ÐµÐ³
Ð¸Ð·Ð° ÑĨÐ¸Ñı
ĠÐ½Ð°Ð²ÐµÑĢ Ñħ
ĠÑģÐ²ÑıÐ· Ð°Ð½Ð¾
ĠÐĴÐ°Ñģ Ð¸Ð»Ð¸Ð¹
ĠÐ³ÑĢÑĥÐ¿Ð¿ Ðµ
ĠÐ½Ð°Ðº Ð¾Ð¿
ĠÐ²ÑĭÑıÑģÐ½ Ð¸ÑĤÑĮ
ÑģÑĤÐ²ÐµÐ½ Ð½Ð¾ÑģÑĤÐ¸
ĠÐ¼Ð¾Ð· Ð³Ð°
Ð¸Ð¹ ÑģÐºÐ¸Ðµ
ĠÑĥÐ´Ð° Ñĩ
Ġ194 1
ĠÐºÐ¾Ð¶ Ð°Ð½
Ġ20 00
ĠÐ¿ÑĢÐ¸Ð±Ñĭ Ð»Ð¸
ĠÑģÐ¸Ð»ÑĮ Ð½ÑĭÐ¹
) :
ĠÐ¼Ð°Ð³Ð°Ð· Ð¸Ð½
ĠÐ¢ Ð°Ð½
ĠÐ± Ð¾Ð³Ð¾
ĠÐ¿Ð¾Ð¿ÑĭÑĤ Ð°Ð»Ð°ÑģÑĮ
ĠÐ²Ð¾ Ð¸Ð½Ð¾Ð²
ĠÑĢÐ°ÑģÑĤÐ² Ð¾ÑĢ
ÐºÐ¾ ÑĤÐ¾ÑĢ
ĠÑĥÐ½Ð¸Ð²ÐµÑĢÑģ Ð¸ÑĤÐµÑĤ
ĠÑħ Ð¼ÑĥÑĢ
ĠÐ½ÐµÐ· Ð°ÐºÐ¾Ð½
ĠÐ´ Ð°ÑİÑĤ
ĠÐĶ ÐµÐ½ÑĮ
ÑĭÐ² Ð°ÐµÐ¼
ĠÐ¿ÑĢÐ¾Ñħ Ð»Ð°Ð´
ĠÑĦ ÑĥÑĢ
ĠÑĥÑģÐ»ÑĭÑĪ Ð°ÑĤÑĮ
ĠÐ²Ð¸Ð´ Ð¸ÑĤÐµ
ÑģÑĤÐ²ÐµÐ½ Ð½ÑĭÐ¼Ð¸
ĠÐ½Ð°Ðº Ð°Ð½ÑĥÐ½Ðµ
ĠÐ²Ð¾ÑģÐºÐ»Ð¸Ðº Ð½ÑĥÐ»Ð°
ĠÐĲÐ½ ÑĤÐ¾Ð½
ĠÐ²ÑģÑĤÑĢÐµÑĤ Ð¸ÑĤÑĮÑģÑı
Ð¸ÑĤÐµÐ»ÑĮ ÑģÑĤÐ²Ð¾
Ð»Ð¾ Ðµ
ĠÐ¼Ð¾Ðº ÑĢ
ĠÐ¾ÑĤÐºÐ°Ð· Ð°ÑĤÑĮÑģÑı
ĠÑĤÐ¾Ñĩ ÐºÑĥ
ĠÐ¾Ð² Ð»Ð°Ð´
ĠÐ¿ÑĢÐµÐ² ÑĭÑĪ
ĠÐ¸Ð³ ÑĢÑĥÑĪ
ĠÐºÑĢÐµÑģ Ð»Ð°
ĠÐ·Ð°Ðº ÑĢÐµÐ¿
ÂłÐĺ Ð·
ÑİÑī ÐµÐ³Ð¾
ĠÐ¾ÑģÐ» ÐµÐ¿
Ð½Ð°ÑģÑĤÐ¾ÑıÑī ÐµÐ¼Ñĥ
ĠÐĿÐ¸Ðº Ð¾Ð³Ð´Ð°
ĠÐ½Ð°ÑĢÐ¾Ð´ Ð¾Ð²
ĠÑĥÐ´Ð¸Ð² Ð»ÐµÐ½Ð½Ð¾
ĠÐ½ ÑĳÐ¼
ĠÐ½ Ð¸Ð³
ĠÐ» Ð°ÑĤ
ĠÐĿÐ° ÑĨÐ¸Ð¾Ð½
ĠÑĥÑģÐ¿ ÐµÐ²
ĠÐ²Ð°Ð¼ Ð¿
ĠÐºÐ¾ÑĢÐ¾ÑĤ ÐºÐ¾
ĠÐºÑĢ ÐµÐ¹Ñģ
ĠÑħÐ¾ÑĢÐ¾ÑĪ ÐµÐ³Ð¾
ÑĤ ÑĢÐ¸
ĠÐ½Ð°ÑģÑĤÑĢÐ¾ ÐµÐ½Ð¸Ðµ
Ð»Ð¸ ÑģÑĤ
ĠÐ±ÐµÐ· Ð¼
ĠÐ´ÐµÐ» Ð°Ð¼
Ð¸Ñģ Ð¸
ĠÐºÐ°Ð¶Ð´ Ð¾Ð¼Ñĥ
ĠÐºÐ°ÑĢÑĤ Ð¸Ð½Ñĥ
Ð°Ð½ Ð½Ð¾ÑģÑĤÐ¸
ĠÐ½Ð°Ð¿ Ð¸ÑĤ
ĠÐ·Ð´Ð¾ÑĢÐ¾Ð² Ð¾
ĠÐ¼ ÑĥÑĤ
ĠÑĤÐµÑĢÑĢÐ¸ÑĤÐ¾ÑĢ Ð¸Ñİ
ÐµÑĢ ÐµÐ³
ÑĤÐ¾Ñĩ ÐºÑĥ
ĠÑĥ Ð´ÐµÐ»
Ð¾ Ð¸
Ð» Ð¾Ðº
ĠÐĵ ÐµÐ½ÐµÑĢ
ĠÐĴÐ»Ð°Ð´Ð¸Ð¼ Ð¸ÑĢÐ°
ĠÐ¿Ð¾Ð³ ÑĢÑĥÐ¶
ÐµÐ½ Ð½
ĠÐ¿ÑĢÐ¸Ñĩ Ð¸Ð½Ð°
ĠÐºÐ°Ð±Ð¸Ð½ ÐµÑĤÐµ
ĠÐĴÐ¾ Ð¾Ð±ÑīÐµ
ĠÑģÐ»ÑĭÑĪ Ð°ÑĤÑĮ
ĠÐŁÐ¾ ÑģÐº
ĠÐ½Ð°Ð·ÑĭÐ² Ð°Ð»Ð¸
ĠÐºÐ¾Ð» Ð´Ñĥ
ÐµÐº Ð¾Ð²
Ñį ÑĢÐ°
ĠÐ¿Ð¾Ð» Ð½Ð¾Ðµ
ĠÐ» ÐµÐ²Ð¾Ð¹
ĠÐ¾ÑĩÐµÑĢÐµÐ´ Ð¸
ĠÐ³Ð¸Ð± ÐµÐ»Ð¸
ĠÐŁ Ð¾Ð½
ĠÐ²ÑĭÑĤÐ°Ñī Ð¸Ð»
ĠÐľ ÐĴÐĶ
Ð¸ÑĢÐ¾Ð²Ð°Ð½ Ð¾
ĠÐºÑĢÐµÑģ Ð»Ðµ
ĠÑģÐ¾Ð± ÑĢÐ°ÑĤÑĮ
ĠÐ²Ð¸Ð½Ð¾Ð² Ð°ÑĤ
Ð² Ð¸ÑĤ
ĠÑĢÑı Ð´Ð°
Ð¾Ñĩ Ð½Ð°Ñı
ĠÐľ Ð¾Ð³
ĠÑĥÐ± Ð¸Ð»Ð¸
3 8
ĠÐ·ÐµÐ¼ ÐµÐ»ÑĮ
ĠÐĲÑĢ Ñħ
ĠÐ±Ð¾ Ñİ
ĠÐ¾Ð± Ð¼ÐµÐ½
ĠÐ³ÐµÐ½ÐµÑĢ Ð°Ð»Ð°
Ð¸Ð·Ð½ ÑĮ
ĠÐ²Ð· Ð¾ÑĢÐ²
Ð¾ ÑĪÐµÐµ
ÐµÐ» Ð¸Ð²Ð¾
ĠÐ²ÑģÑĤÑĢÐµÑĤ Ð¸Ð»
ĠÐ²ÑĭÐ¹ Ð´ÐµÑĤ
ĠÐ·Ð°Ð´Ð°Ñĩ Ð¸
ĠÐ²ÑģÑĤÑĢÐµÑĩ Ñĥ
ĠÐ´Ð¾Ð± ÑĢÐ¾Ð´
ĠÐ± Ð°ÑģÑģ
ĠÐ´Ð¾Ð»Ð¶ Ð½Ð¾ÑģÑĤÐ¸
ĠÐ´ ÐµÑĤÑĮÐ¼Ð¸
ÐĺÐ½ ÑĤÐµÑĢ
ĠÐ´ÐµÑĢÐµÐ² Ð¾
ĠÐ¸Ð½ÑĤÐµÑĢ Ð½ÐµÑĤ
Ð°ÑĢ ÐµÐ¹
ĠÐĽÑİ Ð´
ĠÐĴÐ¸Ð´ Ð¸Ð¼Ð¾
ĠÐ¿ÑĢÐ¾ÑĨ ÐµÑģÑģÐµ
ĠÐº Ð°Ð²Ð°Ð»
Ð¸ÑĤ ÑĢÐ¸
ÑĥÑī ÐµÐ³Ð¾
ĠÐ¿ÑĢÐ¾Ð¿ Ð°Ð³
ĠÐ½ÐµÐº Ð¾Ð³Ð´Ð°
Ñİ Ñħ
ĠÐĲÐ½ ÑĤÐ¾
ĠÐĴ ÐµÐ»
Ñģ Ð°Ð¼
ĠÐ²Ð°Ð» ÑİÑĤ
ĠÐ¿Ð¾Ñģ ÑĭÐ»
ĠÐ·Ð´Ð¾ÑĢÐ¾Ð² ÑĮÐµ
Ð» Ð¾Ð±
ĠÐ°Ð´Ð¼Ð¸Ð½Ð¸ÑģÑĤ ÑĢÐ°ÑĨÐ¸Ð¸
ĠÐ±ÑĢ Ð°Ðº
ĠÑĪ Ð°ÑĤ
ĠÐ¢Ð°Ðº Ð¾Ðµ
ĠÐ²ÐµÐ»Ð¸Ðº Ð¸Ð¹
ĠÐºÐ°ÑĢÑĤ Ñĭ
ĠÑģÐ¾ Ð¾ÑĢÑĥÐ¶
ĠÐ·Ð°Ð¼ÐµÑĤ Ð¸Ð»Ð¸
Ñģ Ð¸Ð²
ĠÐ½ÐµÐ» ÐµÐ¿
ĠÑĥÑĩÐ°ÑģÑĤ Ð¸Ñı
ĠÑģÐ¿ÑĢÐ°ÑĪ Ð¸Ð²Ð°ÐµÑĤ
ĠÑģÐ°Ð¼Ð¾Ð» ÐµÑĤÐ°
ĠÐ¿ÑĢÐµÐ¿Ð¾Ð´ Ð°Ð²
ĠÑģÐ»ÑĥÐ¶ Ð¸ÑĤÑĮ
Ð°Ð³ Ð¸
Ðļ ÑĤÐ¾
ĠÐ¸ÑģÐºÐ»ÑİÑĩ ÐµÐ½Ð¸ÐµÐ¼
ĠÐ¾ÑģÑĤ Ð°Ð»ÑĮÐ½Ð¾Ðµ
ĠÑģÑĥÐ´ÑĮ Ð±Ñĭ
ĠÐº Ð¾ÑģÑĤÐ¸
ĠÐ½Ðµ ÑģÐ¿
ĠÐºÐ¾Ð½ ÑĨÐµÐ¿
9 0
ĠÐ²Ð¸Ð½ ÑĤÐ¾Ð²
un d
. ),
ĠÐ´ÐµÐ² Ð¾ÑĩÐºÐ¸
ĠÐ½Ðµ ÑĥÐ¼
ĠÐ¿Ð¾Ð¸ÑģÐº Ð°Ñħ
Ð¸Ð·Ð¼ Ð¾Ð¼
ĠÐ²Ð·Ð³Ð»ÑıÐ´ Ñĭ
ĠÐ¿Ð¾ÑıÐ² Ð¸Ð»Ð¾ÑģÑĮ
ĠÐ¡ÑĤ Ð¸Ð²
ĠÐ¡ Ð°Ð¹
ĠÑĦ Ð°Ð½
ĠÑĩÐµÑĢ Ð½Ð¾Ð¹
ĠÐŁÐ¾ Ð½Ð¸Ð¼
ĠÑĢÑĥÐ± ÐµÐ¶
ĠÐ¿ÐµÑĢÐµÐ² ÐµÑĢ
ĠÐ¼ ÐµÐ±
ĠÐ±Ñĭ ÑĤ
ĠÐ° ÑĥÐ´Ð¸
Ġ Â
ĠÐ¿Ð¾Ðº ÑĢÐ°Ñģ
ĠÑĤÐµÐ»ÐµÑĦ Ð¾Ð½Ñĥ
ĠÐ² ÑĢÐ°Ñī
ĠÐ¿ Ð¸Ðº
Ð¸ÑĢÐ¾Ð²Ð°Ð½ Ð½Ð¾Ð¹
ĠÐ¾ÑĤÑģÑĤ ÑĢÐ°Ð½
ĠÐ·Ð°ÐºÐ¾Ð½Ñĩ Ð¸Ð»
ĠÑĪÑĤÐ°Ð± Ð°
ĠÐ²ÑħÐ¾Ð´ Ð°
Ð°Ñī Ð¸ÑĤ
ÐµÐ» ÐµÐ½Ð½Ð¾Ð¹
ĠÐ¿ÑĢÐ¸Ð± ÑĭÐ»
ĠÐ³ Ð½Ð¾Ð¼
ĠÑģÑĤÑĥÐ¿ ÐµÐ½ÑĮ
Ð¸Ð´ÐµÑģÑı ÑĤÐ¸
ĠÐ¿ÐµÑĢÐµÐ² Ð¾Ð·
ĠÑįÐ¿ Ð¸Ð·
ĠÐ¸Ð· ÑĬ
ÐĽ Ð¬
ĠÐ» Ñĥ
ĠÐ²Ð¾Ð·ÑĢÐ°ÑģÑĤ Ð°
ÑĤÑĮ ÑģÑı
ĠÑģÐ» ÑĥÐ³
ĠÐ½ÐµÐ´ Ð°Ð»ÐµÐºÐ¾
ĠÑĤÐ²Ð¾ Ð¸Ñħ
ĠÐ¾Ðº Ð°Ð¶ÐµÑĤÑģÑı
ĠÑĥÐ¿ÑĢÐ°Ð² Ð»ÐµÐ½Ð¸Ðµ
Ð¾Ð¿ Ð¾Ð»ÑĮ
Ġ( "
ĠÐ·Ð°ÐºÑĢÐ¸Ñĩ Ð°Ð»
ĠÐ² ÐºÑĥ
ĠÐµÐ¶ ÐµÐ´Ð½ÐµÐ²
ĠÐ¾Ð³ÑĢÐ¾Ð¼ Ð½ÑĭÐµ
Ð½Ð°Ñĩ Ð°Ð»Ðµ
ĠÐ³ÐµÑĢ Ð¾Ð¹
ĠÐ¾ÑĤ ÐµÑĩÐµ
Ðº Ð²
ĠÑĤÐ¾ÑĢ Ñĩ
ĠÐĽ Ð¸ÑĪÑĮ
ĠÐ¿Ð¾Ð´ Ð²Ð¸Ð³
ĠÐ¿ ÐµÐ²
ĠÐ¸Ð· Ð¼ÐµÑĢ
ĠÐłÐ¾ÑģÑģ Ð¸ÐµÐ¹
ĠÐ¶ÐµÐ½Ñī Ð¸Ð½Ð¾Ð¹
Ð½ Ð°Ð´ÑĨÐ°ÑĤÐ¸
Ð¿ Ð¾ÑģÑĤ
ĠÐ´Ð¸Ð¿Ð»Ð¾Ð¼ Ð°ÑĤ
ÑĢÑĥÐ´ Ð½Ð¾
ĠÐ´ Ð°Ð¹
ĠÐºÐ¾ÑĢÑĢ ÐµÑģÐ¿Ð¾Ð½Ð´
Ð¸Ð²ÑĪ ÐµÐ¹
ĠÐ¾ÑĦÐ¸ÑĨ ÐµÑĢÐ¾Ð²
ĠÐ¼Ð¸Ð½Ð¸ÑģÑĤ ÑĢÐ°
ÐµÐ¹ Ð½Ð°
ĠÐ ¹
ĠÐĴ ÑĢÐµÐ¼Ñı
ĠÐĵ ÑĢÐ°Ð½
ĠÐ¸Ð¼Ðµ ÐµÑĤÑģÑı
Ð¸ÑĤÐµÐ»ÑĮ Ð½Ð¾Ð¼
ĠÑģÐµÑģÑĤ ÑĢÑĭ
ÐµÐ² Ð¾Ð³Ð¾
ÐµÑĩ ÐµÐ½
ĠÑĪ ÐµÐµ
ĠÐ²Ð¾Ð» Ð½Ñĭ
ĠÑĥ ÑĢÐ¾Ð´
ĠÑģÐ¾Ð±ÑģÑĤÐ²ÐµÐ½ Ð½ÑĭÐµ
ÑģÐ» ÑĭÑĪ
ĠÐ¢Ð°Ðº Ð¸Ðµ
ĠÐ° ÑģÐ¿
% ,
ĠÑģÐ»Ð¾Ð² Ð°Ñħ
ĠÐ°Ð´ Ð¼Ð¸ÑĢ
Â» ),
ĠÐ±ÐµÑģÑģ Ð¼ÑĭÑģÐ»
u b
ĠÑģÑĤ Ð°
ĠÐ¿Ð¾ÑģÐ» Ð°Ð»
Ñĩ ÐµÐ»
ĠÐ½Ðµ Ñħ
ĠÐºÐ°ÑĩÐµ ÑģÑĤÐ²Ð°
3 1
Ð» ÐµÑģ
ĠÐ¿ÑĢÐ¾Ð³ ÑĥÐ»
ĠÐºÑĥÑħ Ð½Ðµ
ĠÐ¿ÑĢÐ¾Ñģ Ð¿
ĠÑģÐ¾ÑģÑĤ Ð¾
ĠÑĦÐ¸Ð»ÑĮ Ð¼Ð°
ĠÑĤÑĢÐµÐ± ÑĥÐµÑĤÑģÑı
ĠÑģÑĥÐ¼Ð°Ñģ ÑĪÐµÐ´
Ð»Ð¾Ð¶ Ð¸ÑĤÑĮ
Ð¾ÑĢÐ¾ÑĤ ÑĮÑģÑı
ĠÑħ ÑĢÑĥÑģÑĤ
ÐŁ ÑĢÐµÐ´
ĠÐ²Ð·Ð³Ð»Ñı Ð½ÑĥÐ»Ð°
ĠÑĥ ÐµÐ·Ð¶
ĠÐ¿Ð¾ÑģÑĤ Ð¾ÑĢÐ¾Ð½
ĠÐ±Ð¾ÑĢ Ð¾Ð´
ĠÐ·Ð°ÑĢ Ð¾Ñģ
ĠÑĩÐ»ÐµÐ½ Ñĭ
ĠÐ°Ð½ ÑĤÐ¸
ĠÐ¶ Ð¸ÑĢ
ĠÑĢÐ°Ð±Ð¾ÑĤ Ð°Ð»Ð¸
ĠÐŁÐµÑĤÑĢÐ¾Ð² Ð¸Ñĩ
ĠÐ³ÑĢ ÐµÐ±
ĠÐ¸Ð¼Ð¿ÐµÑĢÐ° ÑĤÐ¾ÑĢÐ°
Ð°Ñī Ð¸Ð¹
ÑĳÐ½ Ð½ÑĭÐµ
ĠÐ¿ ÐµÑĩÐ°ÑĤ
ĠÐ¿ÑĢÐ¾ÑĪ ÐµÐ´
ĠÑĨÐµÑĢ ÐµÐ¼
ĠÐ´Ð²Ð¾ÑĢ ÑıÐ½
ĠÐĴ Ð´ÑĢÑĥÐ³
ĠÐ»ÑİÐ± Ð¸Ð»Ð°
ĠÑĪ Ð¸Ð¿
ĠÐ± ÑĢÐµÐ´
Ðĺ ÐĶ
ĠÐ¿ÑĢÐµÐ´ÑģÐµÐ´ Ð°ÑĤÐµÐ»ÑĮ
ĠÑĦÐ°ÐºÑĤ Ð¸ÑĩÐµÑģÐºÐ¸
ĠÐ² Ð¸Ð½Ð¾
Ð°ÑģÑĤ ÐµÑĢ
ĠÐ¿ÑĢÐ¾Ð´ ÐµÐ»
ĠÐºÐ°ÑĦ Ðµ
Ð°Ð¶ ÐµÐ¼
ĠÐ¿Ð°Ðº ÐµÑĤ
ĠÑĤÐ²Ð¾ÑĢ ÑĩÐµÑģÐº
ĠÐ²Ð¾Ð¹ ÑĤÐ¸
ÑįÐº Ð¾Ð½Ð¾Ð¼
ÐµÐ¶ Ð°Ð»Ð¸
Ð°Ð² ÑĢ
ĠÐ·Ð°Ð± Ð°Ð²
ĠÐ¿ Ð°ÑĤÑĢ
ĠÐ¿Ð¾Ð²ÐµÐ´ ÐµÐ½Ð¸Ñı
ĠÐ¿Ð¾Ð»ÑĮÐ· Ð¾Ð²
ĠÐ¿Ð»ÐµÐ¼ ÑıÐ½
ĠÑıÐ·Ñĭ ÐºÐ¾Ð¼
ĠÐ±Ð»Ð°Ð³Ð¾ ÑģÐ»Ð¾Ð²
ĠÐ¾Ð¿ÑĥÑģÑĤ Ð¸Ð»
ĠÐ´ÐµÑĤ ÑģÑĤÐ²Ð°
? "
Ð½Ð¾Ð² ÐµÐ½Ð¸Ðµ
ĠÐ° Ð·
ÑĦ Ð¸ÐºÐ°
Ñī ÑĥÑĢ
ĠÐºÑĢÐ¾Ð² Ð°Ð²
ĠÑĦ ÑĭÑĢ
ĠÐºÐ°ÑĢ Ð¼Ð°Ð½Ð°
ĠÑĥÑģÑĤ Ð°Ð½Ð°Ð²Ð»Ð¸Ð²
ĠÐĵ Ð»Ð°Ð·Ð°
Ð¸ÑĩÐµÑģÐº Ð¾Ð¼Ñĥ
ĠÐŁ Ð¾ÑĢÐ¾ÑĪÐµÐ½ÐºÐ¾
ĠÐ²Ð¸Ð´ Ð¾Ð²
ĠÐºÐ¾Ð¼ Ð¼ÐµÑĢ
ÑĥÑī Ð¸Ðµ
ĠÐ¾ÑģÐ½Ð¾Ð² Ð½Ð¾Ð¹
ĠÐ² ÐµÐ»Ð¸
ĠÐ½Ð° Ð¸Ð²
ĠÐ½ÐµÐ² Ð¸Ð½
Ð±Ñĭ ÑĩÐ½Ð¾
ĠÐ½ Ð°ÑĤÑĥÑĢ
ĠÐ¸Ð½ÑģÑĤÑĢÑĥ Ð¼ÐµÐ½ÑĤ
ĠÑĤÑĢ Ð°ÐºÑĤ
ĠÑģÐ»ÑĥÐ¶ Ð¸Ð»
ĠÐ¿ÑĢÐ¾ÑģÑĤ Ð¾ÑĢ
ĠÑģ Ð¾Ð»ÑĮ
ĠÐ¿Ð¾Ð» Ð·
ĠÑĥÐ¼ÐµÑĢ ÐµÑĤÑĮ
ĠÐ²Ð·Ð°Ð¸Ð¼ Ð¾Ð´ÐµÐ¹ÑģÑĤÐ²
ĠÐŁÐ¾ÑģÐº Ð¾Ð»ÑĮÐºÑĥ
Ñģ Ð¸Ñħ
Ġ he
Ð½Ñĭ Ð½Ðµ
ĠÐ±Ð¾Ð»ÑĮÑĪ ÐµÐ²
ĠÐ¾ÑģÐ²Ð¾Ð± Ð¾Ð¶Ð´
ÑĥÐ´ Ð¾Ð²
ĠÐĶ Ð¾Ð»Ð¶
ĠÐĽ ÑĥÐº
ĠÑģÐ²ÐµÑĤ Ð¾Ð¼
ĠÐ´ Ð¸Ð½Ð°Ð¼
ĠÑĤÑĢÐµÑĤÑĮ ÐµÐ³Ð¾
Ð² Ð¾Ñı
ĠÐ²Ð¸Ð´Ðµ Ð¾
ĠÑĥÑģÐ¸Ð» Ð¸Ñı
ĠÑĢÐµ Ð°Ð³
ĠÐĹÐµÐ¼ Ð»Ðµ
Ð¾Ð³ÑĢÐ°ÑĦ Ð¸Ð¸
ĠÑĩÑĥÐ²ÑģÑĤÐ²Ñĥ Ñı
Ð°Ðº Ð°Ð¼Ð¸
ĠÐ¾ÑĤ Ð½ÑİÐ´ÑĮ
ĠÐ²ÑģÐ¿ Ð¾Ð¼
ĠÐ±ÑĭÐ² Ð°Ð»Ð¾
ĠÐ¼Ñĥ Ð½Ð¸ÑĨÐ¸Ð¿
ĠÐ¢Ð°Ðº Ð¾Ð¹
ÐµÑĩ Ð½Ð¾Ð¹
ĠÐ¾Ñģ Ð²ÐµÐ´Ð¾Ð¼
ĠÐ³ÑĢÐ¾Ð¼ Ð°Ð´
Ð½ Ð°Ð»Ð¸
Ð¾Ð»Ð¾Ð³ Ð¸Ñı
Ñı Ð½ÑĥÑĤÑĮ
ÐĽ Ðŀ
ĠÐ¼Ð¾ Ð½Ð¸
ĠÐĴÐ¼ÐµÑģÑĤ Ð¾
ĠÐ¸Ð½ÑģÑĤ ÑĢÑĥÐº
Ð¾Ð¼ ÐµÑĢ
Âł Ðµ
ĠÐ¾ÑĤ Ð½ÐµÑģ
ÑįÐ½ Ð´
ĠÐ¿Ð¾Ð»Ð¾Ð² Ð¸Ð½Ðµ
ÂłÐ¡ Ðº
ĠÐŁÑĢ Ð¾ÑģÑĤ
Ðł Ñ
Ġ :
Ð°Ð½ Ð½Ð¾Ð¼
ÂłÐ ĸ
ĠÐ´Ð²Ð¸Ð³ Ð°ÑĤÑĮÑģÑı
ĠÐ¿ÑĢÐµÐ´ Ð¿ÑĢÐ¸Ð½
ĠÐ½ÐµÐ¿Ð¾ÑģÑĢÐµÐ´ ÑģÑĤÐ²ÐµÐ½Ð½Ð¾
ĠÑĥÑħ Ð¼Ñĭ
ĠÑĢÐ°Ð·Ð¾Ð±ÑĢ Ð°ÑĤÑĮÑģÑı
ĠÐŁ Ð°ÑĢÐ¸
ĠÐ± Ð»ÑİÐ´
ÑĢÑı Ñħ
Ð°Ð²ÑĪ ÑĥÑİ
Ġ4 5
ĠÐ¿Ð¾Ð´ÑĩÐµÑĢÐº Ð½ÑĥÐ»
ĠÑĪ ÐµÑĦ
ĠÐ´Ð°Ð² Ð°ÑĤÑĮ
ĠÑĢÐ°ÑģÑģÐ¼Ðµ ÑıÐ»ÑģÑı
ĠÐ¸Ð¼ ÐµÐ½Ð°
ĠÐ¾ÑģÐ½Ð¾Ð² Ð°Ð½Ð¸Ñı
ĠÐ¿Ð¾Ð²ÐµÑĢÑħ Ð½Ð¾ÑģÑĤÑĮ
ÑĥÑģÐ»Ð¾Ð² Ð½Ð¾
Ð¸Ð¼ Ñĭ
ĠÑĪÑĤ Ð°ÑĤ
Ð¸Ðº Ð°Ð¼
Ð°Ðº Ð¾
ĠÐ³Ð¾ ÑĢÐµ
ÐµÐ½ÑĤ Ñĥ
ĠÐ·Ð°Ð´ÑĥÐ¼ Ð°Ð»ÑģÑı
Ð¸ Ð°ÑĤ
ĠÐ¿ ÑĭÐ»
ĠÑĢÑĭÐ½ ÐºÐ°
ĠÐŀÑĤ ÐµÑĩÐµ
ĠÐ² Ð¸ÑĨÐµ
ÑĥÐ½ Ð³
ĠÐ¼Ð¾Ð»Ñĩ Ð°Ð½Ð¸Ðµ
ĠÑģÐ°Ð¼Ð¾ÑģÑĤÐ¾ÑıÑĤÐµÐ»ÑĮ Ð½Ð¾
ÐµÐ´ Ñĥ
ĠÐ²ÑĭÐ· ÑĭÐ²Ð°ÐµÑĤ
ĠÐ¿Ð¾Ð¶ Ð¸Ð»
Ð² ÐµÑī
Ð¾Ðº ÑĥÑĢ
ĠÐ°ÑĢÐ¼Ð¸ Ñİ
ĠÑģÑĤÐ°Ð½ ÑĥÑĤ
ĠÐ»ÑİÐ±Ð¾Ð² ÑĮÑİ
ĠÑĥÑģÐ¿ Ð¾ÐºÐ°
Ð¿ ÐµÑĤ
ĠÑģÐ¾Ð±Ð¸ÑĢ Ð°ÑİÑģÑĮ
Ð¸ÑĢÐ¾Ð²Ð°Ð½ Ð°
ĠÐ¼Ð°ÑĤÐµÑĢÐ¸ Ð°Ð»Ñĭ
Ñĭ ÐºÐ¸
ĠÑģÐ¾ÑģÑĤÐ°Ð² Ð°
Ð¼ Ð¸ÑĤÐµ
ĠÐ¼Ð°Ð»ÐµÐ½ÑĮ ÐºÐ¸Ðµ
ĠÐ¶Ð´ Ð°Ð»Ð°
ĠÐ¿Ð¾Ð´Ð½ ÑıÑĤÑĮ
ĠÐ¸Ð·Ð±Ð°Ð² Ð¸ÑĤÑĮÑģÑı
ÑĢÐ° ÑĩÐ½Ð¾
ĠÐ¶ÐµÐ»ÐµÐ· Ð½Ð¾Ð´Ð¾ÑĢÐ¾Ð¶
ĠÐ½ÐµÑģ Ð¾Ð¼Ð½ÐµÐ½Ð½Ð¾
ĠÐº Ð¾Ðº
ĠÐ¿ÑĢÐ¸Ð³ Ð¾Ð´
Ð»Ð¸ Ð½Ñĭ
ĠÐ¡Ðº Ð°Ð·
ĠÐ¿Ð¾Ðº Ð¸Ð½ÑĥÑĤÑĮ
ĠÐ¶ÐµÐ» ÑĥÐ´
Ð¼ÐµÑĢ ÑĤÑĮ
ĠÐ¾ÑĢÐ¸ ÐµÐ½ÑĤ
Ð¸Ñĩ Ð½ÑĭÑħ
ĠÐł Ð°Ð¼
el l
ĠÑĥÑĤÑĢ ÐµÐ½
ĠÐµ Ð´Ñĥ
Ð¾ÑģÑĤ Ð½Ð¾
Ð¸Ñĩ Ð¸
Ð°Ð¹ Ðº
ĠÐ²Ð¾ ÐµÐ²
a k
Ð¸ÑĢ Ð°ÑıÑģÑĮ
ĠÑĤÐ°Ð½ ÑĨÐµÐ²
ĠÐ²ÑĭÐº Ð»ÑİÑĩ
ÐµÐ² ÑģÐºÐ¾Ð³Ð¾
ĠÐºÐ¾Ð¼Ð¿ Ð°Ð½Ð¸Ð¹
ĠÐĳ Ð»Ð°Ð³Ð¾Ð´Ð°ÑĢ
ĠÐ°Ð² ÑĤÐ¾ÑĢÐ°
ĠÐľ Ð½Ð¾Ð³Ð¾
ÐĽ Ðĺ
ĠÐ²Ñĭ Ð»ÐµÐ·
ÑĢÐ¾Ñģ Ð¸ÑĤÑĮ
ĠÐ²ÑĭÐ· Ð²Ð°Ð½
ĠÐ¿ÑĢÐ¸Ð± Ð°Ð²
Ñĩ ÐµÐ½ÑĮ
Ð² Ð¾Ð±Ð¾Ð´
Ð» ÑĭÑĪ
ĠÑį Ð²
ĠÐ·Ð°Ð² ÑıÐ·
ÑĩÐµÑĢ Ð°ÑĪ
ĠÐ¼Ð¾Ð³ ÑĥÑīÐµ
ĠÐ½Ð°Ð±Ð»ÑİÐ´ Ð°Ð»
ĠÐ½ÐµÐ·Ð°Ð¼ÐµÑĤ Ð½Ð¾
ĠÑĤ Ð°ÑĤÐ°ÑĢ
Ð°Ð¼ ÐµÑĢ
ĠÐ´Ð¾Ð±Ð°Ð² Ð¸Ð»Ð°
ĠÐ¤Ð¸Ð»Ð¸Ð¿ Ð¿
ĠÐ» ÑĥÐ¶
ĠÑģÑĥÑīÐµ ÑģÑĤÐ²Ð°
ĠÐ®ÑĢ Ð¸Ð¹
ĠÐ¾ÑĤÐ½Ð¾ÑĪ ÐµÐ½Ð¸ÑıÑħ
4 4
ig ht
ĠÑħÐ¾Ð´ Ð¸Ð»
ĠÐ¾ÑĤÐ²ÐµÑĩ Ð°ÑĤÑĮ
Ð¼ ÐµÐ½ÑĤÑĭ
ĠÐ¡ ÐµÐ»
Ð³ ÐµÐ»ÑĮ
ÑİÑī Ð°Ñı
ĠÑģÐ¾Ð³Ð»Ð°Ñģ Ð¸Ð»Ð°ÑģÑĮ
Ð¾ÑģÑĤ ÑĢ
w w
ĠÐ·Ð°ÑĤ ÑĭÐ»
ĠÐ¿Ð¾Ð½ ÐµÐ´ÐµÐ»ÑĮ
ĠÐ±Ð¾Ð³ Ð°
ĠÐ¿Ð¾Ð»Ð¸ÑĤ Ð¸ÑĩÐµÑģÐºÐ¾Ð¹
Ðķ ÐĿ
ĠÑĪ Ð»ÐµÐ¼
3 9
ĠÐ²ÐµÐ»Ð¸Ðº Ð¾Ð³Ð¾
ĠÐĶ Ð¸Ðº
ĠÐĴ ÑģÐ¿
ĠÐ¾ÑģÐ¾Ð± ÐµÐ½Ð½Ð¾ÑģÑĤÐ¸
ĠÑģÑĥÑīÐµÑģÑĤÐ² Ð¾Ð²Ð°Ð½Ð¸Ðµ
ĠÑģÐ¾ÑĢ Ð²
ĠÑĦÐ°Ð½ÑĤ Ð°Ð·
ĠÐŀÐ± ÑĬ
ĠÑģÐ¿ÐµÐºÑĤ Ð°Ðº
ĠÑĩÐµÑĢ ÑĤÐ¾Ð²
ĠÑĦÑĢÐ¾Ð½ ÑĤ
ĠÐ¸Ð³ÑĢÐ° ÐµÑĤ
ĠÐ¾ÑĤ Ð¾Ð´
ĠÐłÐ¾Ð± ÐµÑĢÑĤ
ĠÑĢ ÐµÑĨ
ĠÑĩÐµÐ¼ Ð¾Ð´
ĠÑĢÐ°Ð·Ð¼ Ð°Ñħ
ĠÐ¾ÑģÐ¾Ð± Ð¾Ð³Ð¾
ĠÐ³Ð¾ÑĢÐ¾Ð´ Ñĥ
ĠÑģÑĤÐ°ÑĢ ÑĭÑħ
ĠÐ½Ð°ÑħÐ¾Ð´ ÑıÑī
ĠÐ´Ð²Ð¸Ð¶ ÐµÐ½Ð¸ÐµÐ¼
ĠÐ¾Ð±Ð½Ð°ÑĢÑĥÐ¶ Ð¸Ð»Ð¸
ĠÐ²Ð¾Ð» Ñİ
ĠÐ´Ð²Ð¾ÑĢ ÐµÑĨ
ÐµÐ½ Ð¸ÑĤ
ĠÐĴÐµÐ»Ð¸Ðº Ð¾Ð¹
ĠÐ¾Ð± Ð»Ð¾Ð¼
ĠÐ¸Ð½ÑģÑĤ Ð¸Ð½
ÑĢ Ð¸Ð·
ĠÐ·Ð°Ñħ Ð»Ð¾Ð¿
ĠÐ¼Ð¾Ð´ ÐµÐ»ÑĮ
ĠÑħÐ°ÑĢÐ°ÐºÑĤÐµÑĢ Ð¸ÑģÑĤ
ĠÑģÑĤÑĢÐµÐ¼ Ð¸ÑĤÐµÐ»ÑĮÐ½Ð¾
ĠÐ¾Ð³ÑĢÐ¾Ð¼ Ð½Ð¾Ðµ
ĠÐ² Ð¾Ð»ÑĮ
ĠÑħ Ð°
Ð½Ð°ÑĢÑĥÐ¶ Ð¸
ĠÐ·Ð°Ð¼ ÐºÐ°
Ð¾ÑģÑģ Ðµ
ĠÐ³Ð»Ð°Ð² Ð½Ð¾Ð¹
Âł Ñĩ
ĠÐ´Ð¾Ð² Ð¾Ð´
Ð¸Ð· Ð²Ð¾Ð´
ĠÐ²ÑģÐ¿Ð¾Ð¼Ð½ Ð¸Ð»Ð°
ĠÐŁÐ°ÑĢÐ¸ Ð¶Ðµ
ĠÑħÐ°ÑĢÐ°ÐºÑĤÐµÑĢ Ð°
ĠÐ´Ð¾ÑĢÐ¾Ð³ Ð°Ñı
ĠÑĪ ÐµÐ²
ĠÐ´Ð¾Ðº ÑĤÐ¾ÑĢÐ°
ĠÐ¿Ð»Ð°Ð½ Ðµ
ĠÐº ÑĢÑĥ
b er
ĠÐ´Ð¾ÐºÑĥÐ¼ ÐµÐ½ÑĤÐ¾Ð²
ĠÐ» Ð¸ÑĤ
ĠÐ´Ð¾Ñĩ ÐµÑĢ
ĠÑĤÑĢÐ°Ð³ ÐµÐ´
ĠÐ¿ÐµÑĢÐµÐ¼ ÐµÑī
ĠÐ³Ð¾ÑģÑĥÐ´Ð°ÑĢ ÑģÑĤÐ²ÐµÐ½Ð½Ð¾Ð¹
ĠÐŁÑĢ Ð¸Ð´
ĠÐ¿ÑĢÐµÐ´Ð»Ð¾Ð¶ ÐµÐ½Ð¸Ñı
Ð°ÑĤ Ð°Ð¼Ð¸
ĠÑĥÐ³ Ð¾Ð´
ĠÐ±ÐµÑĢ ÐµÐ¼
ÑĥÐ· Ð°
ĠÐ§ ÐµÑĢÑĤ
ĠÐºÑĢ Ð¸Ð²
ÐŁ Ð¾ÑĤÐ¾Ð¼
ĠÐ°ÑģÑģ Ð¾ÑĨÐ¸
ĠÐ¼ÑıÑģ Ð¾
ÑģÑĤÐ²ÑĥÑİÑī Ð¸Ñħ
ĠÐµÐ´Ð¸Ð½ ÑģÑĤÐ²ÐµÐ½Ð½ÑĭÐ¼
ĠÐ½Ð°ÑĩÐ¸Ð½ Ð°ÑİÑĤ
Ð¾ÑĤ Ð¾Ð¼Ñĥ
ĠÐ¸Ð·Ð²ÐµÑģÑĤ Ð½ÑĭÐ¹
ĠÑĢÐµ Ð°Ð»ÑĮÐ½Ð¾ÑģÑĤÐ¸
ĠÐ´ÑĥÑħ Ð°
Ð°Ð½ ÐºÐ¸
ĠÐ¾Ð±ÑĬ ÐµÐºÑĤÐ¸Ð²
ĠÐ³ÐµÑĢ Ð¾Ñı
ĠÑįÐºÑģÐ¿ÐµÑĢÐ¸Ð¼ ÐµÐ½ÑĤ
ĠÐ½ÐµÐ´Ð¾ÑģÑĤ Ð°ÑĤÐ¾ÑĩÐ½Ð¾
ĠÑģÐ¿Ð¾ÑģÐ¾Ð± Ð½Ð¾ÑģÑĤÑĮ
ĠÐ£ Ð·
/ /
ĠÑĥÑģÑĤÐ°Ð½Ð¾Ð² Ð¸ÑĤÑĮ
Ð¾Ñģ Ðµ
Ð¸ÑģÑĤ ÑĭÐ¹
ĠÑĢÑĭ Ð½Ð¾Ðº
ĠÐĲÑĦ ÑĢ
ĠÐ¿ÑĢÐ¾Ð² ÐµÐ»Ð¸
ĠÐ´Ð²ÐµÑĢ ÐµÐ¹
Ġ5 00
ĠÐº ÑĥÐº
ĠÑı ÑīÐ¸Ðº
ÐºÐ¾Ð² Ð½Ð¸Ðº
Ð¸Ð² Ð°Ð¹
ĠÐ¾Ð± Ð¾Ð¶
ĠR e
ĠÐ¿ÑĢÐµÐ´ÑģÑĤÐ°Ð² Ð»ÐµÐ½Ð¸Ðµ
ĠÐ¿ÑĢÐ¸Ð½ÑĨÐ¸Ð¿ Ðµ
ĠÐ½Ð°Ð² Ð¾Ð´
ĠÑģÐµÐ¼ ÑĮÑİ
ĠÐºÐ¸ÑĢ Ð¿
or t
ĠÐ¸Ð·Ð± ÐµÐ³
ĠÑĢ Ð¸ÑĤ
ĠÑģÐ¾ÑĢ ÐµÐ²Ð½Ð¾Ð²
ĠÐ²ÑģÐ¿ ÑĭÑĪ
Ð»ÐµÑĤ Ð½Ð¸Ð¹
Ð±Ð¸ ÑīÐµ
ÑĥÐ»Ð¸ ÑĢ
ĠÐ»ÑİÐ± ÑıÑĤ
ĠÐ·Ð°Ð² Ð°Ð»
ĠÑĢÑĥÐºÐ¾Ð²Ð¾Ð´ ÑģÑĤÐ²Ð¾Ð¼
ĠÑģÐ»ÑĥÑĩ Ð°ÐµÐ²
Ġ200 7
ĠÑģÐ»ÑĥÑĪ Ð°Ð»
Ñĳ Ðº
ĠÐ¡ÑĥÐ´ Ñı
ÐµÑħ Ð¸
ÐµÑĢÐµÐ½ ÑĨÐ¸Ð¸
ĠÐ¾Ðº Ð¾Ð½
ĠÐ±Ð»Ð°Ð³ Ð¾Ð´
ÑĥÑģÑĤ Ð¸Ð»Ð°
ĠÐ½Ð°ÑĪ ÐµÐ¼Ñĥ
Ð» Ð¾Ð²Ð°
Ð¸Ð½ ÑģÑĤÐ²Ð¾
ĠÑĥÑģÑĤÐ°Ð² Ð¸Ð»ÑģÑı
ĠÐ²ÑģÐº Ð¾ÑĩÐ¸Ð»
ĠÐŀ ÐŀÐĿ
ĠÑĢÑĥ ÐºÐ¾
ĠÐ²ÐµÐº Ðµ
ĠÐ·Ð°Ðº Ð¾Ð½Ð¾Ð¼
ĠÑĢÐ°Ð±Ð¾ÑĤ Ð¾Ð¹
Ñģ Ð¾
Ð²Ð¾Ð» Ñİ
ĠÐļÐ°ÑĤ Ñı
ĠÐĴ Ð¾Ð¹
ĠÐ¾Ð¿ ÑĤÐ¸Ð¼
ĠÐ¶ÐµÐ½Ñī Ð¸Ð½Ðµ
ĠÐ¿ÑĢÐ¸ÑĤ Ð²Ð¾ÑĢ
ĠÐĺ ÑģÐº
Ñĳ Ð¶
ĠÐ·Ð°Ð¿ Ð¾Ð»
ĠÐŁ Ð¸ÑĤ
ĠÑģÐ¼ÐµÑĢÑĤÑĮ Ñİ
Ñı Ð½ÑĥÐ²
ĠÐĴÐ°Ð» ÐµÑĢ
ĠÐ´Ð¾Ð±Ð°Ð² Ð¸ÑĤÑĮ
ĠÐ¿ÑĢÐ¸Ñģ Ð¿
ĠÐ· Ð°Ð»Ð°
ĠÐĺ Ð½Ð°ÑĩÐµ
ĠÐ¿ÑĢÐµÐ´ ÑĪÐµ
ĠÐºÐ¾ÑģÑĤ ÑİÐ¼
ĠÑĢÐ°Ð· Ð¾Ð¼
Ð³ Ð¸Ð½
ĠÐ½Ð°ÑģÐµÐ» ÐµÐ½Ð¸Ðµ
ĠÑį Ð¼
ĠÑĢÐ°Ñģ ÑģÑĤÑĢÐ¾
ĠÐ½ÐµÐ´ Ð°Ð²
ĠÐ¿Ð¾Ð¼ Ð¸Ð¼Ð¾
ĠÐ»Ð¸Ñħ Ð¾ÑĢÐ°Ð´
ĠÐ¸ ÑĢÐ¾
ĠÐ±ÐµÑģÐ¿ Ð»Ð°ÑĤ
Ð°Ð½Ð´ ÑĢ
ÐĹ Ð°Ð¿
ĠÐ³ÑĥÐ± Ð°Ð¼Ð¸
ĠÐĺÑĤ Ð°Ð»Ð¸Ð¸
ĠÐŁÐ°Ð² Ð»Ð¾Ð²
ĠÐ¸Ð³ÑĢ Ðµ
ĠÐļÐ°Ðº Ð¸Ðµ
ĠÐ¶Ð´ ÑĥÑĤ
ĠÐ¿Ð¾Ð» Ð½ÑĥÑİ
ĠÐ¿ÐµÑĢÐµÑģÑĤ Ð°Ð»
ĠÐ¿Ð¾Ð´Ð°ÑĢ Ð¾Ðº
ĠÐļ Ð»Ð¸
ĠÐ¿ÑĢÐµÐ´ÑģÑĤ Ð¾Ñı
ĠÐ¾ÑĤÐ´ÐµÐ»ÑĮ Ð½ÑĭÑħ
Ð¾Ð¶ ÐµÐ½
ĠÐ¿ÑĢÐ°Ð² Ð´
ĠÐ²Ð½ÑĥÑĤÑĢÐµÐ½ Ð½Ð¸Ñħ
Ðł ÑĥÑģ
ĠÑģÐ¾Ð¾ÑĤÐ²ÐµÑĤ ÑģÑĤÐ²ÐµÐ½Ð½Ð¾
ĠÐ¾ÑħÑĢÐ°Ð½ Ñĭ
ĠÐ¡ Ñĥ
Ð°Ð½Ð¸Ñı Ð¼
Ñģ ÑİÐ´Ð°
ĠÐ¸ÑģÐº Ð°Ð»
ĠÐ¾Ð´Ð¸Ð½Ð¾ Ñĩ
ÑĥÐ½ ÑĤÐ¾Ð²
ĠÑģÐ¶ Ð¸Ð¼
ĠÑĢÐ°Ñģ Ð¿ÑĢÐ°Ð²
ĠÐ²ÐµÑĢ Ð½ÐµÑĤÑģÑı
Âł Ð¶Ðµ
ĠÑģÐµÑĢ Ð¸Ð¸
ĠÑģÐ¿Ð¾ÑĢ ÑĤÐ°
ÐĿ Ð¾Ð²
ĠÐ´Ð¾ÑģÑĤ Ð°ÑĤÐ¾Ñĩ
ĠÐ¿Ð¾Ð½ ÐµÑģ
ĠÐ±ÑĥÑĤÑĭÐ» ÐºÑĥ
? ?
ĠÐ½Ð°ÑĨÐ¸Ð¾Ð½ Ð°Ð»ÑĮÐ½Ð¾Ð¹
ĠÑĥÐ½Ð¸ÑĩÑĤÐ¾Ð¶ Ð¸ÑĤÑĮ
ĠÐľ Ð¾Ð¶
Ð°Ð²ÑĪ ÐµÐ³Ð¾ÑģÑı
ĠÐ¿Ð°ÑģÑģÐ°Ð¶ Ð¸ÑĢ
ĠÐ¿Ð¾Ð´ Ð°Ð»
ĠÐ½ÐµÐ¿Ð¾Ð´ Ð°Ð»ÐµÐºÑĥ
ĠÑĤÐµÑĢÑĢÐ¾ÑĢ Ð¸ÑģÑĤ
ĠÑĥÑĤ ÑĢÐ°ÑĤ
ĠÑĩÐ°ÑģÑĤ ÐµÐ¹
Ð¢ ÑĥÑĤ
ÑıÑī ÑĥÑİ
ĠÐľ ÐµÑĤ
ĠÐ¿Ð¾Ñĩ Ð¸ÑĤ
ĠÐ¿Ð¾Ð´Ð½ ÑıÑĤÑĮÑģÑı
Ð¾Ð¿ÑĢÐµÐ´ ÐµÐ»
ĠÑĥÐ¼ ÐµÐ»
ĠÑģÐºÐ°Ð¶ ÐµÑĪÑĮ
ĠÐ´ ÑĥÑĢÐ°
ĠÐºÐ°Ð· Ð°Ð»ÑģÑı
ĠÐº Ð¾Ð³
ĠÑħÐ»ÐµÐ± Ð°
ĠÐ³Ð°Ð· Ð°
ĠÐŀ Ð»Ð¸Ð¼Ð¿
ĠÐ±ÑĢÐ¾Ñģ Ð¸Ð»Ð°
ĠÐ½Ð¾Ð² Ð¾Ð¼
Ð¾ÑĢÐ¾Ð¶ Ð½Ð¾
Ð´ Ð°Ð²
ĠÐ¿ÑĢÐ¾Ð¸Ð· Ð½Ð¾Ñģ
i k
Ðº ÑĢÐ°Ñģ
ĠÐ¿Ð¾Ð± Ð»Ð¸Ð¶Ðµ
ĠÑģÐ¿Ð¾ÑģÐ¾Ð± Ð½Ñĭ
ĠÐ¿ÐµÑĢÐµÐ´ Ð°Ð»
ĠÑģÑĤ ÑĥÑĩ
ĠÑģÑĥÑīÐµÑģÑĤÐ² Ð¾Ð²Ð°Ð½Ð¸Ñı
ĠÐºÐ°Ð¶ Ð´Ð°Ñı
ĠÐ½Ðµ Ð¾Ð±Ñĭ
ĠÑĢÑĥÐºÐ¾Ð²Ð¾Ð´ ÑģÑĤÐ²Ð¾
ĠÐĵÐµ Ð¾ÑĢÐ³
ĠÐ´Ð¸ÑĢ ÐµÐºÑĤÐ¾ÑĢÐ°
ÑĥÐ»ÑĮ Ð¼Ð°Ð½
ĠÐ°ÑĢ Ð°Ð±
ĠÑĢ Ð¸ÑĤÑĥ
ĠÐ¿ Ð°ÑģÐ¿
ĠÐ¿ÑĢÐµÐ´ Ð¾ÑģÑĤ
ÐµÑĢÐµÐ´ ÐºÐ¾
ĠÐł ÐµÐ´
ÐµÐ¼ Ðµ
ÐŁ ÑĢÐ¾
ĠÐ²Ð¾Ð´ Ð¸ÑĤÐµÐ»ÑĮ
ĠÑĩÐµÑĤ ÐºÐ¾
ĠÐ´ Ð°Ð±Ñĭ
ĠÐ¿Ð¾Ð» Ðº
ĠÑĢÐ°ÑģÑģÑĤÐ¾Ñı Ð½Ð¸Ðµ
ÐµÐ² ÑĪÐ¸Ñħ
Ð» ÑĭÐ²
ÐµÐ¼ Ñĭ
ĠÐ¾ÐºÐ¾Ð½Ñĩ Ð°Ð½Ð¸Ñı
Ġ et
ĠÐ¡ Ð»Ð°Ð²
ĠÐ±Ð» ÐµÑģÐº
Ð´ ÑĢÐ°Ð²
ĠÑģ Ð°ÑħÐ°ÑĢ
ĠÐ·Ð½ Ð°Ð¼
ĠÑģÐµÐºÑĥÐ½ Ð´Ñĭ
ĠÐĽ Ð¸Ð²
ĠÐ¿Ð¾Ð¿ Ð°Ð»Ð¸
ĠÐľ Ð¸
Ð¸Ð»Ð¸ Ñİ
Ð± Ð°ÑĤ
Ñģ Ð¾Ð½Ð°
ĠÐ±ÐµÐ» Ð¾Ð¹
ĠÐ¾ÑĤÐºÑĢÑĭ ÑĤÐ¾
Ð¼ Ð¸Ð½Ð°
ĠÑĨÐ²ÐµÑĤ Ñĭ
ĠÑĤ Ð¸ÑĢ
ĠÐ½ÐµÐ³ Ð°ÑĤÐ¸Ð²
ĠÐ¿Ð¾ÑıÐ² Ð»ÑıÐµÑĤÑģÑı
ĠÐ¿Ð¾ÑģÐ»ÐµÐ´ Ð½ÑİÑİ
ĠÐ¾Ð± Ð¾Ð³
ĠÐ¾ÑģÑĤÐ°Ð² Ð¸Ð»Ð¸
ÑĤ ÐµÑħ
ÐµÐ» Ð»Ð°
ĠÐ»ÑİÐ± ÑĥÑİ
ĠÐĶÐ¾Ð½ Ð±Ð°Ñģ
ĠÑĦÐ¾ÑĢ Ð¼Ð°
ĠÐ¿ÑĢÐ¸Ð·Ð½ Ð°Ð»ÑģÑı
ĠÑģÐ¾ÑĤÑĢÑĥÐ´ Ð½Ð¸ÐºÐ¸
ĠÐ² ÑĢÐ°Ð¶Ð´
Ð½Ð°Ð´ ÐµÐ¶
ÐµÑģ Ð»Ð°Ð²
ĠÑģÑĤÐ¸Ñħ Ð¸
ÐĲ Ð»ÐµÐºÑģ
ĠÐ¾ÑĤÐ¿ÑĢÐ°Ð² Ð¸ÑĤÑĮÑģÑı
ĠÐ¾Ð±ÑıÐ·Ð°Ð½ Ð½Ð¾ÑģÑĤÐ¸
Ð¢ Ð¾Ð»ÑĮÐºÐ¾
ĠÐ¾Ð±ÑĢÐ°Ð· Ð¾Ð²Ð°Ð½Ð¸Ðµ
ĠÐ¼Ð°Ð³ Ð¸Ð¸
n d
ĠÐ³Ð¾ÑĢÐ¾Ð´ ÑģÐºÐ¾Ð¹
ĠÐ¿Ð¾ÑģÐ¿ ÐµÑĪÐ½Ð¾
ÐµÑĩ Ð½ÑĭÐ¹
ĠÐ¶Ð¸Ð² Ð¾Ð¿Ð¸Ñģ
ĠÐºÑĢÐ¸Ð· Ð¸Ñģ
Ð¸Ñĩ Ð½Ð¾Ð³Ð¾
ĠÑģÑĤ Ð¾Ð¿
ĠÐ¾Ð¿ÑĢÐµÐ´ ÐµÐ»ÐµÐ½
ĠÑģÐ¾Ð¾Ð±Ñī ÐµÐ½Ð¸Ñı
ĠÐ¿ ÐµÐ¿
ĠÐ¿Ð¾Ðº Ð¾Ð½Ñĩ
ĠÐºÐ¾Ð¼Ð¸ÑģÑģ Ð¸Ð¸
ÑĭÐ² Ð°Ð½Ð¸Ðµ
ĠÐ·Ð°Ð¼ ÐµÐ´
ĠÐ³Ð¾ÑģÑĥÐ´Ð°ÑĢ ÑģÑĤÐ²
ÂłÐŁ Ð¾Ð´
ĠÐ²ÑĭÐ·Ð² Ð°ÑĤÑĮ
ĠÐ²Ð¾Ð· Ð¼ÑĥÑĤ
Ð²Ð¾Ð» Ð½Ð¾Ð²
ĠÐ²ÑģÑĤ Ð°ÑĤÑĮ
ĠÑĥÐ´Ð¸Ð² Ð¸ÑĤÐµÐ»ÑĮÐ½Ð¾
ĠÐļ Ð¾Ñģ
ĠÐĽ Ð°ÑĤ
ĠÑģÑĩÐ¸ÑĤ Ð°Ð»Ð¸
ĠÐ´ Ð¸Ð·
ÐµÐ½ Ð¾Ñģ
ÐŁ Ð°ÑĢ
Ð¾ Ð½Ð¾Ñģ
ĠÐ¾Ð¿ÑĭÑĤ Ð°
ÑĤÑĢ Ð¾Ð¼
ĠÐ¿Ð¾Ð· Ð¸ÑĨÐ¸Ñİ
ĠÐ¿Ð¾Ð»ÑĮÐ· Ð¾Ð²Ð°ÑĤÑĮÑģÑı
Ð° ÑĤÐ¾ÑĢ
ĠÐľÑį ÑĢÐ¸
ĠÐłÐ°Ð· ÑĥÐ¼ÐµÐµÑĤÑģÑı
Ð± Ð¾Ð²
ĠÐ± Ð¸Ð»
ÑĢÐ¾Ñģ Ð¾Ð²
ĠÐľÐ¸Ð½ Ð¸ÑģÑĤÐµÑĢ
ĠÑģ ÑĥÐ¶Ð´
ĠÐ¾ÑĤ ÑĤÐµÐ½
ĠÑĢÐ¾Ð¼ Ð°Ð½ÑĤ
ĠÑĪ Ð²ÐµÐ´
ĠÑĢ ÑĭÑĩ
ĠÐŀÐ´ Ð½Ð°Ð¶Ð´Ñĭ
ĠÐ²Ð¾ÑģÐ¿Ð¾Ð»ÑĮÐ· Ð¾Ð²Ð°ÑĤÑĮÑģÑı
ĠÐŁÐ¾Ñĩ ÑĤÐ¸
ĠÐ·Ð°ÑĤ ÑĢÑĥÐ´
ĠÐ¾ÑĦÐ¸ÑĨÐ¸ Ð°Ð»ÑĮÐ½Ð¾
Ð¾Ð± Ð½Ð¾Ð²
ĠÐ²Ñĭ Ð³Ð»Ñı
ĠÐ²Ð¾Ð» Ðµ
ĠÐ¾Ð´Ð¸Ð½ Ð¾Ðº
ĠÑĥ Ð³Ð¾
Ð± ÐµÑĢÑĤ
ĠÐ³Ð¾ÑĢÐ¸Ð· Ð¾Ð½
ĠÐĵÐ»Ð°Ð² Ð½Ð¾Ðµ
ĠÐ±ÐµÑģÐ¿ Ð¾ÑĢÑıÐ´
ĠÐ½Ð¾Ð³ Ð¾Ð¹
ĠÐ´Ð¾Ðº Ð°Ð·ÑĭÐ²
ĠÐ½ÐµÐ¶ ÐµÐ»Ð¸
Ð± Ð°Ð½
ĠÐ² ÐµÑģÑĤ
ĠÐ¼ÐµÑģÑĤ Ð½ÑĭÐµ
ĠÐ²Ð°ÑĪ Ð¸Ð¼
ĠÐ½Ðµ ÑĥÐ²ÐµÑĢ
ĠÐ²Ð¸Ð´ Ð¸Ð¼
ĠÐ¾Ð± Ð¾ÑģÐ½Ð¾Ð²
ĠÐ¡ Ð°ÑĪÐ°
Ð¸ Ð¾
ĠÐ½Ð°Ð· ÑĭÐ²Ð°ÑĤÑĮ
Ð½Ñı ÑİÑĤ
Ñĳ ÑĪÑĮ
ĠÐĿ Ð¸Ð¶
ĠÐ´ÐµÐ¹ÑģÑĤÐ² ÑĥÐµÑĤ
ÑĥÑī ÐµÐ¹
ĠÐ²Ð¾Ð¿ÑĢÐ¾Ñģ Ð¾Ð¼
ĠÐ² Ð°Ð½
ĠÐ¿ÑĢÐ¾ÑĤ ÑıÐ½ÑĥÐ»Ð°
ĠÑģÑĥÑĤ Ð¾Ðº
4 8
ĠÐ¿ÐµÑĢÐ² Ð¾Ð½Ð°Ñĩ
ĠÐºÐ¾Ð¼Ð°Ð½ Ð´Ðµ
ĠÑĢÐ°Ð·Ð± Ð¾Ð¹
ĠÐ²Ð¾Ðº Ð·
Ð± ÐµÐ·
ĠÐ°ÑįÑĢÐ¾Ð¿ Ð¾ÑĢÑĤ
ĠÑģÐ¿Ð¾ÑģÐ¾Ð± Ð¾Ð¼
ĠÑĥÐ¿ÑĢ Ð°Ð¶
Ð´ Ð¾ÑĢ
Ð¸Ñĩ Ð½Ð°Ñı
ĠÐ½ÐµÐ¿ÑĢ ÐµÑĢÑĭÐ²
ĠÐ·Ð°ÑħÐ¾ÑĤ ÐµÐ»Ð¾ÑģÑĮ
ĠÑģÑĦ ÐµÑĢÐµ
Ñı Ð¹
ĠÐ¸ÑģÐ¿Ð¾Ð»ÑĮÐ· Ð¾Ð²Ð°Ð½Ð¸Ñı
Ñĩ ÐµÐ½
ĠÐº Ð¸ÑĪ
Ð¸Ð² ÑĭÐ¹
ĠÐ½Ð°Ð¿Ð¸Ñģ Ð°ÑĤÑĮ
ĠÐ»ÑİÐ± Ð¸ÑĤÑĮ
ĠÐ¿ÑĢÐ¸ÑģÑĤ Ð°Ð»ÑĮÐ½Ð¾
ÐµÑģ Ñĥ
ĠÑĤ ÑĥÑĪ
ĠÐľ Ð°
ĠÑĢÐ°Ð· Ð½Ð¸ÑĨÐ°
ĠÐĽ ÐµÐ¹
ĠÐ·Ð°Ðº Ð¾Ð½Ñĭ
ĠÑĨÐ²ÐµÑĤ Ð¾Ð²
ÐŁ Ð¾ÐºÐ°
ĠÑħÐ¾ÑĢÐ¾ÑĪ Ð¸Ðµ
Ð°Ñı Ð½
ĠÑĥÐ» ÐµÑĤ
ĠÐ²ÑģÑı ÐºÐ¾Ð¹
ĠÑĥ Ð½Ð¸Ðº
ĠÐ¿ÑĤ Ð¸ÑĨ
ĠÐ¿Ð¾ÑģÑĤÑĥÐ¿ Ð¸Ð»
ĠÐĴ ÑĭÐ±
ĠÐ¸Ð· Ð»ÑĥÑĩ
ĠÐł Ð°
ĠÐ´Ð¾ÐºÐ°Ð· Ð°ÑĤÑĮ
ĠÐ¸Ð·Ð´ Ð°Ð»
ĠÑĥÐ¼ÐµÑĢ Ð»Ð°
3 2
ĠÑħ Ð¾Ðº
ĠÑģÑĩÐ¸ÑĤ Ð°ÐµÑĤÑģÑı
Ð» Ð°Ð¼Ð¸
u a
ĠÐ¿Ð¾ÑģÑĤ ÑĥÑĩ
ĠÐ¿ÑĢÐµÐ´Ð¿ÑĢÐ¸ÑıÑĤ Ð¸Ñı
ĠÐ¼Ð°Ñħ Ð½ÑĥÐ»
Ð°ÐµÐ¼ Ð¾Ð³Ð¾
ĠÑģÐ¾Ð¾Ð±Ñī Ð¸ÑĤÑĮ
ĠÐ±Ð°Ð½ ÐºÐ°
ĠÐ¼Ð½Ð¾Ð³ Ð¾Ð¼
ĠÐ·Ð°Ñī Ð¸ÑĤÑĥ
ĠÐ²ÑĭÑıÑģÐ½ Ð¸Ð»Ð¾ÑģÑĮ
ĠÐ»ÑİÐ± Ð¾Ðµ
5 5
Ð³ ÐµÐ½ÑĤ
ĠÐŀ Ð»
ĠÐł ÑıÐ´Ð¾Ð¼
Ð¡ Ðł
ĠÐ±ÐµÐ· ÑĢÐ°Ð·
ĠÑĥ ÐµÑħÐ°Ð»
ĠÑģÐºÐ¾ÑĢ Ð¾ÑģÑĤÑĮÑİ
Ñĩ Ð°Ð¹
ĠÐ±Ð°Ð± ÑĥÑĪÐºÐ°
ĠÐ²Ð¾Ð·Ð½Ð¸ÐºÐ° ÐµÑĤ
ÐĿ Ð°ÐºÐ¾Ð½ÐµÑĨ
4 7
ĠÐ¤ÐµÐ´ Ð¾ÑĢ
ĠÐ¾ÑĤÐ²ÐµÑĤÑģÑĤÐ²ÐµÐ½ Ð½Ð¾ÑģÑĤÐ¸
ĠÑĥ ÑħÐ²Ð°ÑĤ
ĠÐ¿Ð»Ð°ÑĤ Ð¸ÑĤÑĮ
ĠÐ¼ÐµÑĤ ÑĢÐ¾
ĠÑģÑĤÐ°Ð½ Ñĥ
ĠÐ¸ÑģÑĩÐµÐ· Ð»Ð°
ĠÐĵ Ð¾Ð»Ð¾Ñģ
ĠÐ»Ð°Ð³ ÐµÑĢÑĮ
ĠÐ¼Ð¸ÑĢ Ð¾Ð¼
ĠÐ²Ñĭ ÑĢÐ°ÑģÑĤ
ĠÐ´Ð¾Ð» Ñİ
ĠÐ² ÑĤÐ¾ÑĢÑĥÑİ
ĠÑģ ÑİÑĢ
ĠÑĩÑĥÐ´ Ð¾
Ð½Ð¾Ð² ÐµÑģ
ĠÐŁÑĥÑĤ Ð¸Ð½Ð°
ĠÑģÐ¾Ð´ÐµÑĢÐ¶ Ð°Ð½Ð¸Ðµ
ĠÐĳÐµÐ» Ð¾ÑĢÑĥÑģ
ĠÐ½ÐµÐ¾Ð´ Ð½Ð¾Ðº
ĠÑģÐ¼Ð¾ÑĤ ÑĢÐ¸
ĠÐ¿Ð¾ÑģÐ»ÐµÐ´ Ð½Ð¸Ð¼
ĠÑĩÐµÑĢ ÑĤÑĭ
ĠÐ²Ð¾Ð¿ Ð»Ð¾Ñī
ĠÐ¿ÑĢÐ¾ÑĪÐ»Ð¾ Ðµ
ĠÑĦ Ð°Ð»ÑĮ
ÑģÑĤÐ²ÐµÐ½ Ð½Ð¾ÑģÑĤÑĮ
Ð°ÑĢ Ð¸Ñı
ĠÐ·Ð°Ð¿Ð¸Ñģ Ð¸
ĠÐ¾Ñĩ Ð¸ÑģÑĤ
ÑĢÐ°Ñģ Ñģ
ÑĤ Ð¾Ð±
ÑįÑĤ Ð°Ð¶
Ñĸ Ð²
ĠÐ¿Ð¾Ðº Ð¸Ð½ÑĥÐ»
ÐĴ ÐµÑĢ
ĠÐ± Ð¾ÑĢÐ¾ÑĤÑĮÑģÑı
ĠÐ» ÑĥÐ½
ĠÐ½Ð° ÑĢÑı
ĠÐ¾ÑĤÐ² ÑĢÐ°ÑĤ
ĠÐĳ Ð°Ð»
ĠÐ·Ð°Ð½ ÑıÑĤÑĮÑģÑı
Ð¾Ð· ÑĢ
ĠC h
ĠÐ¾ÑģÑĤ Ð°ÑĤÐºÐ¸
ĠÑģÐ½ ÐµÐ¶
ĠÐ´Ð¸Ñģ ÑĨÐ¸Ð¿
Ð¾Ð¶ Ð¸ÑĤÑĮ
ĠÐ¸Ð¼Ðµ Ñı
ĠÐ²Ð¾Ð»Ð¾Ñģ Ð°Ð¼Ð¸
ÂłÐ¡ ÑĤ
ĠÑģÐ½ ÑıÑĤ
Ð¸ÑĤ ÐµÑĤÐµ
ĠÑģÐ´ÐµÐ» Ð°ÐµÑĤ
ĠÐ´Ð¾ÑĢ Ð¾Ð³Ð¾
ĠÑĢ ÐµÑģÐ¿
ĠÐ· Ð»Ð¾Ð²
ĠÑģÐ¾Ð¾Ð±Ñī ÐµÐ½Ð¸Ð¸
Ðľ ÐĲ
ĠÑĤ ÐµÐ½
Ð°Ð± ÐµÐ»ÑĮ
Ñİ Ñģ
ĠÐ·ÑĥÐ± Ð°Ð¼Ð¸
Ð¢ Ð°Ð¼
Ġ3 00
ĠÐ¾Ð¶Ð¸Ð´Ð° Ñı
ĠÐ¿ÑĢÐµ Ð¾Ð±ÑĢÐ°Ð·
ĠÑģÐ¿ÑĢÐ°Ð² Ð°
Ð½ ÑıÑĤ
ĠÐ¿ÑĢÑıÐ¼ Ð¾Ð¹
Ð¾Ð½ Ð°Ñħ
Ð¢ Ð¬
ĠÑĩÑĥÐ² ÑģÑĤÐ²Ð¾Ð²Ð°ÑĤÑĮ
ĠÐºÐ°Ð½ ÑĨ
ĠÐ·Ð½Ð°ÐºÐ¾Ð¼ ÑĭÐ¹
ĠÐ¿ÑĢÐ¸ÑģÑĥÑĤ ÑģÑĤÐ²Ð¸Ðµ
Ġ r
ĠÐ²ÑĭÑģÐ¾Ðº Ð¾Ð³Ð¾
ĠÐĴÐ°ÑĪ Ð¸Ð½Ð³
ĠÐ¡ Ð¸Ð»ÑĮ
ĠÐ½Ðµ Ñİ
ĠÑģ ÑĦÐ¾ÑĢÐ¼
ĠÐ¿Ð°ÑĢ Ð°Ð»Ð»
Ñĥ Ð»Ðµ
ĠÐ¿Ð¾ÐºÐ°Ñĩ Ð°Ð»Ð°
ÑĢÑĥ Ñİ
ĠXI X
ĠÐĽ ÐµÐ³
ĠÐ½ÐµÐ· Ð°Ð¼
ĠÐ¼Ð¾ÑĢ Ñī
Ð»Ð¸Ð² ÑĭÐ¼
19 9
ÑĢÐ° ÑĨÐ¸Ñı
ĠÐ¿Ð¾Ð» ÑĤÐ¾ÑĢÐ°
ĠÐ¿Ð¾Ð»Ð¾Ð² Ð¸Ð½Ñĭ
ĠÐ¿ÑĢÐ¸Ð½ ÑıÐ»Ð°
Ð¾ÑĪ Ð»Ð¾
ĠÐ½Ð° ÑĨ
ĠÐ¼ÐµÐ´Ð¸ÑĨ Ð¸Ð½
ÐºÑĥ Ð»ÑĮ
ĠÐ²Ð¾Ð·Ð²ÑĢÐ°Ñī Ð°ÑĤÑĮÑģÑı
ĠÐºÐ°Ð±Ð¸Ð½ ÐµÑĤÐ°
ĠÐ¸Ð½Ð´ ÐµÐ¹
ĠÐ² Ð½ÐµÐ·Ð°Ð¿
Ð³ ÑĢÐ°
ĠÑģÑĤÑĢÐ¾Ð¸ÑĤÐµÐ»ÑĮ ÑģÑĤÐ²Ð¾
ĠÐ¾Ð±ÐµÑģÐ¿ÐµÑĩ Ð¸ÑĤÑĮ
ĠÐļ Ñĥ
ĠÐºÐ¾Ð¼Ð°Ð½Ð´ Ð¸ÑĢÐ°
ĠÐ¼Ð¾Ð³ ÑĥÑĩ
ĠÐ· Ð¾Ð»Ð¾ÑĤÐ¾
ÐĲ Ð²
ÐµÑĤ ÐºÑĥ
ĠÐ¼Ð¾Ð»Ð¾Ð´ ÑĭÐµ
Ġ18 8
ĠÐºÐ°ÑĢÑĤ Ð¸Ð½Ð°
ĠÑĤÑĥÑĢ ÐµÑĨ
ĠÑģÐ°Ð¼ Ð¾Ð´
i f
ĠÐ´ÐµÑĤ ÑģÑĤÐ²Ðµ
ĠÑģÑĤÐ°Ð» Ðº
ĠÐ¿Ð¾ÐºÐ°Ð·ÑĭÐ² Ð°ÐµÑĤ
ĠÐ¿ Ð°Ñĩ
Ð°ÐµÐ¼ Ð¾Ð¹
ĠÐ±Ð¾Ð¼Ð± Ð°ÑĢÐ´
ĠÐĵ ÑĢÐµ
ĠÐºÐ°ÑĤ Ð¾Ð»
Ð°Ð»Ð¸Ð· Ð¼
ĠÐ¾Ð± Ð½Ð¸Ð¼
ĠÑģÐ´ÐµÐ» Ð°Ð½Ð¾
ĠÑģÐ¿ÑĢÐ°Ð² Ð¸ÑĤÑĮÑģÑı
ĠÐļ Ð¾ÑĤ
ĠÑĤÐ¾ÑĢ Ð³
ĠÐ°Ðº ÑĨÐ¸Ð¸
ĠÑģÐ¾Ð±Ð¸ÑĢ Ð°Ð»Ð°ÑģÑĮ
ÑĢÐ° ÑģÑĤÑĮ
Ð½ÑĥÑĤ ÑģÑı
ĠÐ±ÐµÐ» ÑĭÑħ
Ð¾Ðº ÑĢÑĥÐ³
ĠÐ¿Ð¾Ð´Ð´ÐµÑĢÐ¶ ÐºÐ¸
Ð¸Ð» Ð¸Ð½
ĠÐ¼Ð°ÑĢ ÐºÐ¸
ĠÑĥÑģÑĤ ÑĢÐ°Ð½
ĠÑģÐ¼ ÐµÑı
ĠÐ¼Ð¸Ð»Ð»Ð¸ Ð°ÑĢÐ´
Ð¾Ð³ Ð¾Ð¹
ÂłÐŁ Ð¾Ñģ
ĠÑĥÐ± Ð¸Ð²Ð°ÑĤÑĮ
ĠÑĦÐµÐ² ÑĢ
ĠÑĥ ÑİÑĤ
ĠÐ¾ÑģÐ½Ð¾Ð² Ð½ÑĭÑħ
ĠÐºÑĥÑĢ ÑģÐµ
ĠÐ² ÐµÐ»Ð°
ĠÑĪ ÐºÑĥ
ĠÐ¿Ð¾Ð¼ÐµÑī ÐµÐ½Ð¸Ðµ
ÑĪÐµÐ¹ ÑģÑı
ĠÐ´Ð² Ð¾Ð¸Ñħ
ĠÑĪÐ°Ð³ Ð¾Ð¼
ĠÑģÑĤ ÐµÑģ
ĠÐŁ ÑĢÑı
Ð¾ÑĪ ÐµÐ½
ĠÐ¾Ð· ÐµÑĢÐ°
ĠÐ½Ð¸Ð³ Ð´Ðµ
Ð¸Ð¹ ÑģÐºÐ°Ñı
ĠÐ¡ÑĤ Ð°Ð½
ĠÐ½ÐµÐ³ ÑĢÐ¾Ð¼
ĠÑĢÐ°Ñģ Ð¿ÑĢÐµÐ´ÐµÐ»
ÂłÂłÂłÂłÂłÂłÂłÂł ÂłÂłÂłÂłÂłÂłÂłÂł
Ðµ Ð¾Ð´
ĠÐ¿ÑĢÐ¾ÑģÑĤÑĢÐ°Ð½ ÑģÑĤÐ²Ð°
ÑĥÐ´ Ð¸Ð»
ĠÑģ Ð°Ð¹ÑĤ
ĠÐ¾ÑĤÐ¼ÐµÑĤ Ð¸ÑĤÑĮ
ĠÐ½Ð°Ð´ Ð¿Ð¸ÑģÑĮ
Ð¾Ñĩ Ð¸ÑĤÑĮ
ĠÐ¿ÑĢÐ¾ÑĨÐµÑģÑģ Ð°
ĠÐ²Ñĭ Ð¿ÑĢÑıÐ¼
ĠÐ¿Ð¾ÑĢ Ð¾Ð³Ðµ
ĠÐ·Ð°ÑĢ Ð¿Ð»
ĠÐ£ Ð²Ð¸Ð´
ĠÐ½Ð¸ Ñī
ĠÐ²ÑĭÐ· Ð¾Ð²
ĠÐ·ÑĢ ÐµÐ»Ð¸
ĠÐ½Ðµ ÑĥÐº
ĠÐ±ÑĭÐ² Ð°ÑİÑĤ
ĠÐ²ÑĭÐ±Ð¾ÑĢ Ð°
Ð¸Ð¼ Ð¾Ð²
Ð¾Ð³ Ð¾Ð¼
ĠÐ´Ð°Ð² Ð°Ð»
ĠÐ³Ð¾ÑģÑĥÐ´Ð°ÑĢ ÑģÑĤÐ²ÐµÐ½Ð½Ð¾Ð³Ð¾
ĠÐĵ ÑĢÑĥÐ·
Ðº Ð½Ð¾Ð²
Ð²Ð¾ ÐµÐ¼Ñĥ
ĠÐ·Ð°ÐºÐ»ÑİÑĩ Ð°ÐµÑĤÑģÑı
ĠÐ´ÐµÑĢÐµÐ² Ð½Ñı
in e
ĠÐ¾Ð± Ð»Ð°Ñĩ
ĠÐ¯Ð¿ Ð¾Ð½Ð¸Ð¸
ĠÐ²ÑĢÐ°Ð¶ ÐµÑģÐº
ĠÑİÐ½Ð¾ÑĪ Ð°
" >
ĠÑĢÐ°Ð·Ð³Ð¾Ð²Ð°ÑĢ Ð¸Ð²Ð°ÑĤÑĮ
ĠÐ² ÑĩÐµÑĢÐ°ÑĪ
ĠÑģÑĤÑĢÑĥÐºÑĤ ÑĥÑĢ
ĠÐ¿Ð¾ÐºÐ°Ð· Ð°Ð»ÑģÑı
ĠÑĤÐ¾ÑĢÐ¾Ð¿ Ð»Ð¸Ð²Ð¾
ÐµÑĤ ÐµÐ»ÑĮ
ĠÑįÐºÑģÐ¿ Ð»Ñĥ
ĠÐ¾Ð± Ð½Ð¾Ð²
Ñİ Ð»ÑĮ
ĠÑį ÑģÑĤ
Ñİ Ð¹
ĠÑĥÑĩÐ°ÑģÑĤ Ð¾Ðº
ĠÑĤÐ¾Ñĩ Ð½ÐµÐµ
Ð²Ð¾ ÐµÐ¼
ĠÐ¡Ð¿ Ð°Ñģ
ĠÐ¾Ð±ÑĢÐ°ÑĤ Ð¸Ð»
ĠÐ¼Ð°ÑģÑģ Ð¸Ð²
ĠÐ¢ Ð°ÑĤÑĮÑı
Ð¿ÑĢÐ¾Ñģ Ð¸Ð»
ĠÐ±ÑİÐ´Ð¶ ÐµÑĤ
ĠÐ² Ð¸ÑĢ
ĠÑĥÑģÐ¿ÐµÑħ Ð°
Ð¸Ð½ ÐºÐµ
ĠÐ±Ð» Ð°Ð¶
ÂłÐĿ Ð¸Ðº
ĠÑĢÐ¾Ð´ Ð½Ð¾Ð¹
Ð¸ÑĤ ÑĭÐµ
ÐµÐ² ÑĢ
ĠÐĴ ÐµÑģÑĮ
ĠÑĥÐ·Ð½ Ð°Ð»Ð¸
ÑİÑĪ ÐºÐ°
ĠÐ¾Ð± Ð¶
ĠÐ¿Ð¾Ð´ Ð½ÑıÐ²
ĠÐŀ Ñħ
ĠÐ¾Ð± Ð¾Ð¹ÑĤÐ¸
ĠÑģÑĤÐ¾Ð» Ð¸ÑĨÑĭ
ĠÐ½Ð°ÑħÐ¾Ð´ Ð¸ÑĤÑĮÑģÑı
ĠÑģÑĭ Ð½Ð¾Ð¼
ĠÐ¼ÑıÑģ Ð°
Ġ200 6
ĠÐ¿Ð¾ÑģÐ» ÑĥÐ¶
ĠÑĥÐ³ Ð°Ð´
ÐµÐ» ÐµÑĤ
ĠÑĤÐµÐ» Ñĥ
ĠÑģÑĤÑĢÐ¾Ð¸ÑĤÐµÐ»ÑĮ ÑģÑĤÐ²Ð°
ĠÐ²Ð· ÑıÐ²
ĠÐ¿Ð¾Ð·Ð²Ð¾Ð½ Ð¸Ð»
ĠÐº Ð°ÑİÑĤ
ĠÑĤÑĢ ÐµÑī
ĠÑģÑĤÐ°ÑĢ ÑĪÐµ
ĠÐĿÐĲ Ð¢Ðŀ
ĠÐĶ Ð¾ÑģÑĤ
ĠÐ¾ÑĤÐ²ÐµÑĢ Ð³
ĠÐĽ Ð¸ÑĨÐ¾
Ð°Ð» ÐµÐ¹
ĠÐ¾ÑĤÐ¼ÐµÑĩ Ð°ÐµÑĤ
ĠÑģÐµÐ¼ Ð¸
ĠÐ´ÑĢÑĥÐ·ÑĮÑı Ð¼Ð¸
ÐµÑħ Ð°
ÑĥÐ¼ Ð½Ð¾
ĠÑı Ð´
ĠÐľÐµÐ¶Ð´Ñĥ Ð½Ð°ÑĢÐ¾Ð´
ĠÐ½ÐµÐ² ÐµÐ´Ð¾Ð¼
ĠÐĵÐ¾ÑĢ Ð¾Ð´
Ð½ ÐµÐ½
ĠÐ³ÑĢÐ°Ð½ Ð¸ÑĨ
ĠÐ½Ð¾Ð² Ð¾ÑģÑĤ
ĠÑģÐ¾Ð» Ð¸Ð´
Ðº Ð°Ð´
ĠÑĢÐµÐ³ Ð¸ÑģÑĤ
ĠÑģÐ°Ð¼ Ð¸Ñħ
ĠÑĨÐµÐ» Ð¸ÐºÐ¾Ð¼
ĠÑģÐ¾Ð¿ÑĢÐ¾Ð² Ð¾Ð¶
ÐµÑģÑĤ ÑĢÐ°
ÑģÑĤ Ð°ÑĢ
Ð°Ð½ ÑĨÐµÐ²
ĠÑĤÐ¾Ð» ÐºÑĥ
ĠÑģÐ¾Ð³Ð»Ð°Ñģ ÐµÐ½
ĠÐ¿ÐµÑĢÐµÐ¼ ÐµÐ½
ĠÑĤÑĢ ÑıÐ¿
ÑģÑĤÑĢ ÐµÐ»Ñı
ĠÐ³Ð¾ÑģÐ¿ Ð¾Ð´Ð°
ĠÐľ Ð°Ð»Ð¾
Ð¼ ÐµÐ½Ð½Ð¾
ĠÐ²ÐµÑĢ Ñĭ
ĠÐ£ Ð¼
ÐµÐ»Ñı Ð¼Ð¸
ĠÐľ ÐµÐ¹
ÂłÐĹ Ð½Ð°
ĠÑĪ Ð¾ÑģÑģÐµ
ĠÐ½ÐµÐ¾Ð±ÑħÐ¾Ð´Ð¸Ð¼ Ð¾ÑģÑĤÑĮ
ĠÐ¼Ð°ÑĤ ÑĩÐ°
ĠÐ¾ÑģÐ½Ð¾Ð² Ð°Ð½Ð¸Ð¸
ÂłÐŀ Ð½Ð¸
ĠÐ´ Ð¸ÑģÑĤÐ°Ð½
ĠÐ²ÑĭÐ¿Ð¾Ð»Ð½ ÑıÑĤÑĮ
ĠÐ¿Ð¾Ñģ Ð¾Ð»ÑĮ
Ñģ Ð¸Ð´
ĠÐ¾ÑĢÐ³Ð°Ð½Ð¸Ð·Ð° ÑĨÐ¸Ñı
ĠÐ± Ð°Ðº
ĠÐ¸Ð· ÑıÑī
ĠÐŁ Ð°ÑĤ
ĠÐ²ÑĭÐ· Ð²Ð°Ð»
ĠÑĩÑĥÐ¶ Ð¾Ð¹
ĠÐ·Ð°Ð¿ ÑĥÑģÐº
ĠÑĦÐ¸Ð³ ÑĥÑĢÐ°
ĠÐ²ÑĤÐ¾ÑĢ Ð¾Ðµ
ÐµÐ´ ÐµÑĤ
Ð¾Ð² Ð°ÑĤÐµÐ»ÑĮÐ½Ð¾
ĠÐ½Ð°Ð¿ÑĢÐ°Ð² Ð»ÐµÐ½Ð¸Ðµ
Ð¾Ñĩ Ð½Ð¾Ðµ
ÐµÑģÐº Ð¸
ĠÐ¾ÐºÑĢÑĥÐ³ Ð°
ĠÑģÐ»ÑĭÑĪ Ð°Ð»Ð¸
Ð¸Ñħ Ð°
ĠÐ½Ð°Ð´Ðµ ÑıÐ»ÑģÑı
7 5
ĠÐ¿ÑĢÐµÐ´ÑģÑĤÐ°Ð²Ð»Ñı Ð»
ĠÐ´Ð²ÐµÐ½ Ð°Ð´ÑĨÐ°ÑĤÑĮ
ĠÐŁÑĢÐµÐ· Ð¸Ð´ÐµÐ½ÑĤ
Ð»Ð¸Ð² ÑĭÐµ
ĠÑĩ ÑĮÐ¸
ĠÑģÑĤÐ¸Ñħ Ð¾ÑĤÐ²Ð¾ÑĢ
er e
ĠÐ¾ÑĤÐ¿ÑĢÐ°Ð² Ð¸Ð»Ð¸ÑģÑĮ
ÑĥÑĢ Ð¾Ð²
ĠÐ¿ÑĢÐ¾Ñĩ Ð¸Ñħ
ĠÐ¾Ð±ÑĬ ÐµÐºÑĤÐ¾Ð²
Ð°Ð´ Ð¶
ĠÐ¼ Ð¾ÑĤ
ĠÐŀ Ð·
ĠÑģÑĢ Ð¾ÑĩÐ½Ð¾
ĠÐ¾Ð±ÑĢ Ð°Ð±Ð¾ÑĤ
ĠÐ±ÐµÑģÐ¿ Ð¾Ð¼Ð¾Ñī
ĠÐ¾Ð¶Ð¸Ð´ Ð°ÑĤÑĮ
ĠÐ± ÐµÑĪÐµÐ½
ĠÑģÐ¾Ð±ÑĢ Ð°Ð»Ð¸ÑģÑĮ
ĠÑĥÐ´ Ð°Ð²Ð°Ð»Ð¾ÑģÑĮ
ĠÐľ Ð°Ð¼Ð°
ĠÐ¿Ð¾Ð·Ð²Ð¾Ð» Ð¸ÑĤ
ĠÐ¾Ñĩ ÐºÐ¸
Ð¸ÑĢÑĥ ÑĢ
ĠÑĢÐ°Ð·Ð² Ð¾Ð´
ÑĥÑģÑĤ Ñı
ÑĢÑĭ Ð³
ĠÐ¼Ð°ÑĤÐµÑĢ ÑĮÑİ
ĠÐ½Ð°Ð¿Ð¾Ð¼Ð½ Ð¸Ð»
ÐµÐ²Ð¸Ð´ Ð½Ð¾
ĠÑĦ Ð¾Ð½Ð´
Ð½Ð¸Ñĩ Ð°ÑĤÑĮ
ĠÐ½Ð°Ð±Ð»ÑİÐ´ Ð°ÑĤÑĮ
ĠÐ¿ÑĢ ÑĭÐ¶
ĠÐ½ÐµÐ² ÐµÑģÑĤ
Ð² Ð¸Ð½ÑĥÐ»
Ð¸ÑģÐº Ð°
ĠÐ·Ð°Ð½Ð¸Ð¼ Ð°ÐµÑĤ
ĠÑįÑĤ Ð°Ð¶Ðµ
ĠÑĤÑĢ ÑıÑģ
Ð¾Ðº ÑĥÑģ
ĠÑĥÐ»ÑĭÐ± Ð°ÑıÑģÑĮ
ĠÐ¿Ð¾ ÐµÐ´Ð¸Ð½
ĠÑģÑĤÑĢ Ð°Ð¶
ÑĳÐ½ Ð½Ð¾
ĠÐ¡ ÐŁ
Ð°ÑİÑīÐµÐ¹ ÑģÑı
ĠÐ¼ÑĥÐ¶Ñĩ Ð¸Ð½Ñĥ
ĠÑĢÐµÐ¹ ÑĤ
ĠÐĶÐ¼ Ð¸ÑĤÑĢÐ¸
ÑĤ Ð²Ð¾ÑĢ
ĠÐ² ÑĨÐµÐ¿
ÂłÐ ¤
ĠÐĹ Ð°ÑĢ
ĠÐ²Ð°Ð¶ Ð½Ð¾Ðµ
ĠÐºÐ¾Ð½ÑĤÑĢ Ð¾Ð»Ñı
ĠÐ´Ð² Ð¸Ð½ÑĥÐ»ÑģÑı
Ð°ÑĢÑĤ Ð°Ð¼
Ð» ÐµÑĨ
ĠÑģ ÐµÐ´ÑĮ
ĠÐ·Ð² Ð°Ð»Ð¸
4 9
ÑĤÐµ ÑģÑĮ
ĠÐŁÑĢ ÐµÐ¶Ð´Ðµ
ĠÑĢÑĭ ÑĨ
ĠÐ¾Ð±Ðµ Ð¸Ñħ
Ð² Ð¸Ñģ
ĠÐĶ Ð°Ð¹
ĠÑģÐ¾Ð± Ð°ÐºÐ¸
ĠÐ¿ÑĢÐ¸ÑĢ Ð¾Ð´Ðµ
ĠÐŁ Ð°Ð½
Ð¢ ÐµÐ¼
ĠÐ¾ÑĢÐ³Ð°Ð½Ð¸Ð·Ð° ÑĨÐ¸Ð¹
ÑĥÐ» ÑģÑı
ĠÐ²ÑĭÐ¿ Ð¸ÑĤÑĮ
ĠÐ¾ÑĤ ÑĪ
ĠÐ²Ð· Ð²Ð¾Ð»Ð½Ð¾Ð²
ĠÐºÑĢÐµÐ¿ Ð¾ÑģÑĤÐ¸
ĠÐ¿ÐµÑĢÐµÑĩ Ð¸Ñģ
ĠÐºÐ¾ÑĢ Ð·
ĠÑĤÑĢ ÑĳÑħ
ĠÐ¶ÐµÐ½ Ðµ
Ð»ÑıÐ½ Ð´
t t
Ð· Ñĭ
ĠÑįÐ¼Ð¾ ÑĨÐ¸Ð¾Ð½
ÐµÐ¹ ÐºÐ¸
ÑĥÐ´ Ñĭ
ĠÐ¿ÑĢÐµÐ´ ÑģÐºÐ°Ð·
ĠÐºÐ°Ð· Ð°Ð»Ð°ÑģÑĮ
ĠÐĳ Ð°ÑĪ
ĠÐĸ Ð¸Ð²
ĠÐļ ÐµÑĢ
ĠÐ°ÑĢ Ð³ÑĥÐ¼
ĠÑģÐµÐ· Ð¾Ð½Ð°
ĠÐ¶ ÐµÐ½Ð¸
Ðł Ð£
ĠÐ¿ÑĢÐ¾Ð¸Ð·Ð²Ð¾Ð´ ÑģÑĤÐ²Ð¾
ĠÐĽÐµ Ð¾Ð½Ð¸
ĠÐ¿Ð»Ð°Ð½ ÐµÑĤ
ĠÐ¿Ð°ÑĢÑĤ Ð¸Ð·
ĠÐĲÐº Ð°Ð´ÐµÐ¼
ĠÐ¿Ð¾Ð³ Ð°Ñģ
ÑĦ Ð¾ÑĢÑĤ
Ġ y
ĠÐ¾Ð³ÑĢÐ¾Ð¼ Ð½Ð¾Ð¹
ĠÐĽ Ð¸Ð³
ĠÐ±ÑĢÐ°ÑĤÑĮ ÐµÐ²
ÑĦ Ð¸ÐºÑģ
ĠÑĥÐ²ÐµÑĢ ÐµÐ½Ñĭ
ĠÐ¾ÑĤÐ¾ÑĢ Ð²
Ð¾Ð¿ ÑĤ
ĠÑģÐ» ÐµÐ²Ð°
ĠÐ¼Ð¾Ð´ ÐµÐ»Ð¸
ÑĨ ÐºÐ¸Ð¹
ĠÐ¸Ð½ÑģÑĤÐ¸Ð½ ÐºÑĤ
ÑĢÑĭ Ð»Ð°
ĠÑĥ Ð½Ñĭ
ĠÐ¿Ð¾Ð¿ Ð°Ð»Ð°
ĠÐ°Ð²ÑĤÐ¾Ð¼Ð¾Ð± Ð¸Ð»Ñı
ĠÐ¤ÑĢ ÑįÐ½
Ð¾ Ð½Ð¸Ð¼
ĠÐ¯ Ñģ
ĠÐ¿Ð¾Ð´Ð³Ð¾ÑĤÐ¾Ð² ÐºÐ¸
ĠÐ½Ð°ÑĩÐ¸Ð½ Ð°Ñı
ĠÐ´Ð¾Ð±ÑĢÐ¾Ð² Ð¾Ð»ÑĮ
ĠÐĴ Ð¾Ð»Ð¾Ð´
ĠÐ²Ð¾Ð· Ð¾Ð±Ð½Ð¾Ð²
ĠÐľÐµÐ´ Ð²ÐµÐ´
ĠÐ´ÐµÑĤ Ð°Ð»Ð¸
ĠÐ²ÑĭÑħÐ¾Ð´ Ñĥ
Ð¾Ðº Ð¾Ð»ÑĮ
Ð¸Ð´ Ð¾Ð²
Ð» Ð°ÑĤÑĭ
ĠÐ½ÐµÐ± ÑĢÐµÐ¶
ĠÐ¿Ð¾Ð´ ÑħÐ¾Ð´Ð¸ÑĤ
ĠÐ²ÑģÐº ÑĢÐ¸Ðº
Ð°Ð»ÑĮ Ñı
Ð°Ð» Ð¸Ñı
ĠÐ¡ Ð¸Ð±Ð¸ÑĢ
ĠÑĥÐ¼ ÐµÐµÑĤ
Ñģ Ð¸Ñİ
ĠÑĢ ÑĤÐ°
ĠÑĢÐµÐ¼ Ð¾Ð½ÑĤ
ĠÐ³ ÑĢÐ°Ð²
ĠÑĢÐµÑĪ Ð°ÑĤÑĮ
ĠÑĩÐµÐ»Ð¾Ð²ÐµÑĩÐµÑģÐº Ð¾Ð³Ð¾
ĠÐ¿ÑĢÐ¾Ð² ÐµÐ»Ð°
ĠÑģÐ¾Ð²ÐµÑĢÑĪ Ð¸Ð»
ĠÑĢÐ°ÑģÐº ÑĢÑĭÐ²
ĠÐ¿ÑĢÐ¸Ð² ÐµÐ»
ÑĢÐ¾Ð² Ð¾Ð¹
ĠÐ¾ÑĢÐ³Ð°Ð½ Ñĭ
ĠÐ´ÐµÑĤ ÑıÐ¼
ĠÑģÐº Ð¾Ð½Ñĩ
ĠÑģÑĢÐµÐ´ Ñĥ
ĠÑģÑĤÐ°ÑĢ Ð¸ÐºÐ°
ĠÐ»ÑĥÑĩ ÑĪÐ¸Ð¹
ĠÐ³Ð¾ÑģÐ¿ Ð¸ÑĤ
ĠÐ´ÐµÑģÑıÑĤ Ð¸Ð»ÐµÑĤ
ÑĥÐ»ÑĮ Ð¿
ĠÐºÐ¾Ð»ÑĮ ÑĨÐ¾
ĠÑĢÐ¾ÑģÑģÐ¸Ð¹ ÑģÐºÐ¸Ð¹
ÑĪÐ¸ Ð¿
Ð²Ð¾ Ñī
ĠÐ¿Ð¾Ð¼Ð¾Ð³ Ð°ÐµÑĤ
ĠÐ¿ÑĢÐ¸ Ð¾ÑĤÐº
ĠÐ½Ð°Ð·Ð½Ð°Ñĩ ÐµÐ½
ĠÑģ ÐµÑĢÑĮÑĳÐ·
ÑĢ Ð°ÑĤÑĮÑģÑı
Ð± Ð°ÑĢ
ĠÐľ Ð¸Ðº
ĠÑĢÐ¾ÑģÑģÐ¸Ñı Ð½
ĠÐ²Ð¾ ÐµÐ½Ð½ÑĭÐ¹
ĠÐ¼ÐµÑħÐ°Ð½ Ð¸Ð·Ð¼
ĠÑģÑĤÐ°Ð½Ð¾Ð² Ð¸Ð»Ð¾ÑģÑĮ
ĠÐ·Ð´Ð¾ÑĢÐ¾Ð² ÑĮÑı
Ðł Ðķ
ĠÐĴ Ð¾ÑĢÐ¾Ð½
ĠÐĶÐ¶ ÑĥÐ»Ð¸
ĠÐ¿ÐµÑĢÐµÐ½ ÐµÑģ
ĠÐ¸Ð½ÑĤÐµÑĢÐµÑģ Ñĭ
ĠÐ¿Ð¾Ð»Ð¸ÑĤ Ð¸ÑĩÐµÑģÐºÐ¸Ñħ
ĠÑĤÐµÐ¼ Ðµ
ĠÐºÐ»Ð¸ ÐµÐ½ÑĤ
ĠÐ¾Ð± Ð´ÑĥÐ¼
ĠÐ¿ÑĢÐ¸Ð¼ ÐµÑĤ
ĠÑĤÐµÐ°ÑĤ ÑĢÐ°
ĠÐºÐ¾Ð¶ Ñĥ
ĠÑģÑĤ Ð°ÑĤÑĥ
ĠÐ½ÐµÐ´ Ð¾Ð»Ð³Ð¾
ĠÑģÐ¾Ð²ÐµÑĤ ÑģÐºÐ¸Ñħ
ĠÐľ Ð¸ÑģÑģ
ĠÐ³Ð¾ÑģÑĤ Ð¸Ð½Ð¾Ð¹
ĠÐ¾ÑĤÑĢÑı Ð´Ð°
Ð»ÐµÐ½ Ð½Ð¾ÑģÑĤÑĮ
ĠÑĨÐµÐ» ÑĥÑİ
ÂłÐĵ Ð´Ðµ
ĠÐ¿Ð¾Ðº Ð¾Ñı
ĠÑĥ ÑħÐ¾Ð´Ð¸ÑĤ
ĠÑıÐ² Ð¸Ð»ÑģÑı
ĠÑģÑĤÐ¾ Ð¸Ð¼Ð¾ÑģÑĤÑĮ
ĠÐĽ Ð¸Ð·
4 2
ĠÑĩÐµÐ»Ð¾Ð²ÐµÑĩÐµÑģÐº Ð¾Ð¹
ĠÑģÑĤÑĢÐ°Ð½ Ð½Ð¾Ðµ
ĠÐ·Ð» Ð¾Ð±
ĠÐ¿ÑĢÐ¸Ð½ ÑıÐ»Ð°ÑģÑĮ
ĠÑģÐ¾Ð²ÐµÑĤ ÑģÐºÐ¾Ð¹
ĠÑħÐ¾ÑĢÐ¾ÑĪ Ð°Ñı
ĠÐ·Ð°Ð± ÑĭÐ»Ð°
ĠÐŁ Ð¾Ð¼Ð½
ĠÑĤÑĢÐ°Ð´ Ð¸ÑĨÐ¸Ð¸
ĠÑģÐ¾Ð±ÑģÑĤÐ²ÐµÐ½ Ð½ÑĭÐ¹
ĠÑģÑĤÐ°ÑĤÑĮ Ðµ
ĠÑĥÐ´Ð¾Ð²Ð¾Ð»ÑĮ ÑģÑĤÐ²Ð¸Ñı
ĠÑĨ ÐµÐ»ÐµÐ¹
ĠÐ½Ð°Ð´ ÐµÐ¶Ð´
ĠÐ²ÑĭÑģ Ð¾ÑĤÑĭ
ÑĦ ÐµÐ¹
Â» âĢ¦
ĠÑģÑĥÑī Ð½Ð¾ÑģÑĤÐ¸
ĠÐ·Ð°Ð½ ÑıÐ»
ÑģÑĮ Ðµ
Ġ =
ĠÐ³Ð»Ð°Ð² Ð½ÑĭÑħ
ĠT h
ĠÐ·Ð°Ð½Ð¸Ð¼ Ð°ÐµÑĤÑģÑı
ĠÐĿÐ°ÑĢ Ð¾Ð´
ĠÐ°Ð² ÑģÑĤÑĢ
p p
ĠÑĢ ÑĥÐ¼
ĠÑģÑĥÐ´ Ð¸ÑĤÑĮ
Ð°Ð² Ð°Ð»Ð°
ĠÐ¿ÑĢÐ¾Ð³ Ð½Ð¾Ð·
ĠÑģÑĥÐ´ÑĮ Ð±Ñĥ
Ð¾Ð» ÑĤ
ĠÐ´ÐµÐ» Ð°Ñħ
Ð» ÐµÑģÑĤ
ĠÐĺÐ½ ÑĤÐµÑĢ
ĠÐ¾ÑģÑĤÐ°Ð½Ð¾Ð² Ð¸Ð»Ð¸ÑģÑĮ
ĠÐĿ Ð°Ðº
ĠÐ°Ð½Ð³ ÐµÐ»
ĠÑģÐ¾Ð± ÑĢÐ°Ð²
ĠÐ´ ÐµÑĢÐ·
ĠÐ¿ÑĢÐ¾ Ð¸Ð·Ð½
ĠÐ³ ÑĥÐ¼Ð°Ð½
ĠÐ·Ð°Ð¼ ÐµÑĪ
ĠÑĥÑħÐ¾Ð´ Ð¸ÑĤÑĮ
ĠÐ½Ð°Ð¿ ÑĥÐ³
ĠÐ¿Ð¾Ð²ÐµÑĢ Ð½ÑĥÐ»
ĠÐ¾ÑĤ ÑĢÐ°Ð·
Ð³ Ð¾Ð´Ð°
ĠÐ½Ð°Ð´Ðµ ÑıÑĤÑĮÑģÑı
ĠÐ¾Ð± ÑĪÐ¸ÑĢ
ĠÐ¡Ð¾ ÐµÐ´Ð¸Ð½
ĠÑĩÑĥÐ² ÑģÑĤÐ²ÑĥÐµÑĤ
ĠÐ²ÑĭÐº ÑĢÐ¸Ðº
ĠÑĤ Ð¸
ĠÑģÑĤÐ°Ð½Ð¾Ð² ÑıÑĤÑģÑı
Ð¿ Ð°Ð½Ð¸Ñı
ĠÑĤÐ¾Ð»Ð¿ Ñĭ
Ð¾ÑĤ Ð²
ĠÐ² Ð¾Ð¶
ĠÐ°ÑĢÐ¼ ÐµÐ¹
Ġ3 6
ĠÑģÐ²ÑıÐ· Ð°Ð½Ñĭ
ĠÐºÑĢÑĥÐ¿ Ð½ÑĭÐµ
ÑĦ Ð°ÐºÑģ
ĠÐ¸Ð¼ ÐµÐ»Ð¾
Ð´ ÐµÐ»ÑĮ
4 6
ĠÑģÐ¾ Ð¾Ð±ÑīÐµ
ĠÐ¿ÑĢÐ¾Ð´ÑĥÐº ÑĤÐ¾Ð²
ĠÑ ĸ
ĠÐ²Ð¾ÑģÑĮ Ð¼
ĠÐ²ÐµÐº Ð¾Ð²
ĠÐ¡ Ð´ÐµÐ»
ĠÑĢÐµÐ³ Ð¸Ð¾Ð½Ð°
ĠÐ½Ð° ÑĢÐµÐ·
ĠÐĴ ÐµÑģ
Ð²Ð¸ Ð´Ð°
Ð½Ð¾ÑģÑĤ ÑıÐ¼
Ð¡ Ð
ĠÐ¼ÑĥÐ¶ Ð¸Ðº
Ñĸ Ð¹
Ð» ÐµÐ¼Ñĥ
Ñĸ Ð´
ĠÐ¿Ð°ÑĢ Ð½Ð¸
ĠÐ¿ÐµÑĢÐµÐ¿ ÑĢÐ°Ð²
ĠÐ²Ð°ÑĪ ÐµÐ¼
ĠÐ¿ÑĢ Ð¾Ð½
Ð¾Ð² Ðµ
ĠÐ§ Ð¸ÑĤ
ĠÐ¿ÑĢÐ¾Ð³ Ð¾Ð²Ð¾ÑĢÐ¸Ð»Ð°
ĠÐĺÐ¸Ñģ ÑĥÑģÐ°
Ð¾Ñĩ Ð½Ð¾Ð¼
ĠÐ²Ð¾ÑģÐºÑĢÐµÑģ ÐµÐ½ÑĮÐµ
ĠÐŁ Ð¾ÑĢÑĤ
ĠÐº Ð¸ÑģÑĤ
ĠÐĿÐ°Ð¿ Ð¾Ð»Ðµ
ĠÐ¿Ð¾Ð» Ð¸ÑĨÐ¸Ñı
ĠÑĢÐ°ÑģÐ¿Ð¾ÑĢ ÑıÐ´
ĠÐ²ÑģÑı ÐºÐ¸Ðµ
ĠÐ´ÐµÐ» Ð°Ð»Ð°
ĠÐ³ÑĢÐ°Ð½ Ð¸ÑĨÑĥ
ÐµÑĢÐ´ ÑĨÐµ
ĠÐ½Ð° ÑģÐº
ĠÐ²Ð¾Ð¿ÑĢÐ¾Ñģ Ð°Ð¼
ÑĪÐµÐ³Ð¾ ÑģÑı
ĠÐ´Ð°Ð»ÑĮÐ½ÐµÐ¹ ÑĪÐµÐ¼
ĠÐ¿Ð¸ÑģÑĮ Ð¼ÐµÐ½
Ðŀ Ð¿
ĠÐºÐ¾Ð»Ð¸ÑĩÐµ ÑģÑĤÐ²Ð°
Ð¡Ðļ ÐĲ
Ð°Ñģ Ñĭ
ĠÐµÐ´Ð¸Ð½ Ð¾Ð³Ð¾
Ð¾ÑĢ Ð°Ð·
ĠÐ¼ÑĥÐ·Ñĭ ÐºÐ°
ĠÐ»Ð¸Ð´ ÐµÑĢ
ÐµÐº ÑĤÐµ
ĠÐ·Ð½ Ð°ÑĤ
ĠÐ´Ð¶ Ð¸Ð½
ĠÑģÐ»ÑĥÑħ Ð¸
ĠÐ³ ÑĢÐ¾Ñħ
Ð¿ÑĢ Ð¸Ð·
ĠÐļ Ð¸ÑĤÐ°Ð¹
ĠÑĪ Ð¿Ð¸Ð¾Ð½
ĠÐ¿Ð¾Ð¿ÑĢÐ¾Ñģ Ð¸Ð»Ð°
Ð¿ÑĢÐ°Ð² ÐµÐ´Ð»Ð¸Ð²
ĠÑĦÐ¸ÑĢ Ð¼Ñĭ
ĠÐ´ÑĥÐ¼ Ð°Ð»Ð¸
ÑĥÑĢ Ð°Ð²
ĠÐ¸Ð´Ð¸ Ð¾ÑĤ
ĠÐºÑĥÐ¿ Ð¸Ð»
Ð³ Ð¾Ð´
ĠÐ¡ÐµÑĢÐ³ ÐµÑı
ĠÐĳ ÑĥÐ´ÑĮ
ĠÐ¸Ð·Ð´ ÐµÐ²
ĠÑĤÐµÐ¼ Ð½ÑĭÐµ
ÂłÐļ Ð¾Ð³Ð´Ð°
Ð¸ÑģÑĤ Ð¾Ð¼
Ðĺ ÑģÑĤ
ĠÐ¾ÑĤÑĩÐ°ÑıÐ½ Ð½Ð¾
Ġ18 6
ĠÑį Ñģ
ĠÐ¿Ð°ÑģÑģÐ°Ð¶ Ð¸ÑĢÐ¾Ð²
ĠÐĿ ÐµÐ»ÑĮÐ·Ñı
ĠÑĥÐ±ÐµÐ´ Ð¸ÑĤÑĮ
ĠÐ±ÐµÑģ ÑģÑĤ
ĠÐ¿Ð¾Ð»Ð¾Ð² Ð¸Ð½Ð°
ĠÐ»Ð¸ÑĤÐµÑĢ Ð°ÑĤÑĥÑĢÑĭ
ĠÑħÑĢ Ð°Ð±ÑĢ
Ð°Ðº Ð¾Ð²Ð°
ĠÐ½ÑĥÐ¶ Ð´
ĠÐ±Ð¾Ð¹ ÑĨÐ¾Ð²
ĠÐ´Ð°Ð½ Ð½Ð¾Ð¹
ĠÑĢÐ°Ð· ÑĭÑģÐº
ĠÑģÐ°Ð¼Ð¾ ÑĥÐ±Ð¸Ð¹
ĠÐ¿ÑĢÐµÐ´ÑģÑĤ Ð¾ÑıÑī
ĠÐ½ÐµÐ¾Ð´Ð½Ð¾Ðº ÑĢÐ°ÑĤÐ½Ð¾
ÑĥÐ´ ÐµÑĤ
ĠÑĢÐ°Ð·Ð²ÐµÐ´ ÐºÐ¸
ÐµÐ½ ÐµÐ±
ĠÐ¸Ð· Ð½Ð°Ñĩ
Ð¾ÑĢ Ð´Ð¸Ð½
ĠÐĿÐ¸ÐºÐ¾Ð» Ð°Ñı
ĠÐ¿ÑĢÐ¾ÑģÑĤÑĢÐ°Ð½ ÑģÑĤÐ²Ðµ
ĠÐŁÑĢ Ð¸Ð²
ĠÐ¿Ð¾ Ñī
ĠÐ¿Ð¾Ð½ÐµÐ´ÐµÐ»ÑĮ Ð½Ð¸Ðº
Ð¾Ñĩ Ð½ÑĥÑİ
ĠÐ¿ÑĢ ÑıÑĩ
ĠÐ½ÐµÐ¿Ð¾Ð½ÑıÑĤ Ð½Ð¾
ÐµÑĩ ÐºÐ¸
ĠÐ¼Ð¸Ð»Ð»Ð¸ Ð¾Ð½
ĠÐ¾Ð³Ð¾ÑĢ Ñĩ
ĠÑĢÐ°Ð·Ð³Ð¾Ð²Ð¾ÑĢ Ñĭ
ÑĢÐ¾ ÑħÐ¾ÑĤ
ĠÐ¿ÑĢÐ¸ÐµÑħ Ð°Ð»Ð¸
ĠÑģÐ¾Ð±Ð¸ÑĢ Ð°Ð»Ð¸ÑģÑĮ
. [
ĠÐ¿Ð¾Ð¼ Ð¾ÑĢÑī
ĠÑģÑĤÐ¾Ð» Ð¸ÑĨÐµ
ĠÐºÐ°Ð¿ Ð»Ð¸
ĠÑĤÐµÐ» ÐµÐºÐ°Ð½
ÑĢÐ¾Ñģ Ð»Ð°Ð²
ÑĨ ÐµÐ¹
Ð½Ð¸ ÑģÑĮ
ĠÑı Ð±Ð»
ĠÐ¿Ð¾Ð³ ÑĢÐµÐ±
ĠÑģÐ»ÑĥÐ¶ Ð±Ðµ
ĠÐ¾ Ð¼
Ð½Ñĭ ÑĪ
Ð¡ Ðķ
ĠÑĨ ÐµÐ»Ð¾Ð²
ĠÐ¿Ð¾Ð»ÑĥÑĩ Ð°ÐµÑĤ
Ð¸ÑĢ Ð°Ð»Ð¸
Ð¾Ð± Ð»Ð°Ð´
ĠÐ±ÑĢÐ°ÑĤÑĮ Ñı
ÐµÐ½ ÐµÑĢÐ°
ĠÐ½ÐµÐ¿ ÑĢÐ¾
ĠÐ¿Ð¾Ð´ÑĢÐ¾Ð± Ð½Ð¾
ĠÐ¾Ð¿ Ð¾Ð»Ñĩ
ĠÐ²Ð¿Ð»Ð¾ÑĤ ÑĮ
ĠÐ¾ÑĤ Ð²Ð¾ÑĢ
ĠÐºÐ¾Ð» ÐµÐ½ÑıÑħ
Ð»Ð¸Ð² Ð°Ñı
ĠÑģ ÐµÐ»Ð¾
ĠÑģÑĤÐµÐº Ð»ÑıÐ½
Ñ Ķ
ĠÑĢÐ°Ð·ÑĢÐµÑĪ ÐµÐ½Ð¸Ñı
ĠÐ°ÑĢ Ð¾Ð¼Ð°ÑĤ
Ġ199 0
ĠÐŁ ÑıÑĤ
ĠÐ¿Ð¾ÑıÐ² Ð¸ÑĤÑģÑı
ĠÐ²ÑĭÐ³Ð»ÑıÐ´ÐµÐ» Ð°
ĠÐ¿Ð¾Ð·Ð²Ð¾Ð» Ð¸Ð»
ÐµÑĢ ÐµÐ±
Ð¿ÑĢ Ð¾Ð²
ÑĨÐµÐ½ÑĤ ÑĢ
ĠÐ¿ÐµÑĢ ÐµÑĢÑĭÐ²
Ð¾Ð²Ð°Ð½ Ð½Ð¾Ð³Ð¾
ĠÑĢÐ°ÑģÑģÐºÐ°Ð·ÑĭÐ² Ð°ÐµÑĤ
ĠÐ³Ð» Ð¾Ð±
ĠÐŀ Ð±ÑĭÑĩÐ½Ð¾
ĠÐºÑĢÑĥÐ³ Ð¾Ð¼
Ð»Ð¸ ÐºÐ°
ĠÑĥÑģÐ»Ð¾Ð² Ð¸Ð¹
Ð¾Ð¿ Ð¾ÑģÑĤÐ°Ð²
ĠÑģÐ¾Ð²ÑĢÐµÐ¼ ÐµÐ½Ð½Ð¾Ð¹
Ðļ ÑĢÐ°Ñģ
ĠÐºÐ¾Ð» Ð¾Ð½Ð¸
ĠÑģÐ²Ð¾Ð±Ð¾Ð´ Ð½Ð¾
ĠÑı Ñī
ĠÐļ Ð°Ð¹
ĠÐ¾Ð±ÑģÑĤÐ¾ÑıÑĤÐµÐ»ÑĮ ÑģÑĤÐ²Ð°
u d
ĠÐ° ÑĤÐ°ÐºÐ¸
ĠÑĢÐ°Ð´ Ð¾ÑģÑĤÑĮÑİ
t r
ĠÐ´Ð°Ð² Ð°Ð¹ÑĤÐµ
ĠÐ±Ð°Ð· Ñĭ
ĠÑįÐ² Ð°ÐºÑĥ
ĠÐ½ÐµÐ¶ Ð½Ð¾
ĠÐ½ÐµÐ´ Ð¾Ð²ÐµÑĢ
ĠÐºÐ¾Ð½ÑĨ ÐµÑĢÑĤ
ĠÐ¡ Ð°Ð´
ĠÐ¿ÑĢÐ¸Ð· ÐµÐ¼
ĠÑıÐ· ÑĭÑĩ
ĠÑģÐ°Ð´ Ñĥ
ĠÐ½ÐµÐ¹ ÑĤÑĢ
ĠÑģÐ»Ð°Ð± Ð¾
Ġ200 5
Ð°Ð· Ñĭ
ĠÐ¿ÑĢÐ¾Ð´Ð¾Ð»Ð¶ Ð°Ð»Ð¸
ĠÐ°Ð²ÑĤÐ¾ÑĢ Ð¸ÑĤÐµÑĤ
ĠÐ¿ÑĥÑģÑĤ Ð¾Ð¹
ĠÑħÐ¾Ð»Ð¾Ð´ Ð½Ð¾Ð¹
Ð¼Ð¸ ÑĢÑĥ
ĠÐŀÑĤ Ð²ÐµÑĤ
ĠÐ´Ð² Ð¾ÑĢÐ°
Ð¾Ð³ Ð¾Ð´
ĠÑģÐ»ÑĥÑĩ Ð¸ÑĤÑģÑı
ĠÐ»Ð°Ð´Ð¾Ð½ ÑĮÑİ
ĠÐ³ ÑĥÐ´
ĠÑģÐ¼Ð¾Ð¶ ÐµÐ¼
ÐĽ Ñİ
ĠÑģÑĬ ÐµÐ¼
ĠÐ¿Ð¾Ð´ ÑĢÑĥÐ¶
ĠÐ²Ñĭ ÑĢÐµÐ·
ĠÑĥÐ´Ð¸Ð² Ð»ÐµÐ½Ð¸Ðµ
ÑĮ ÐºÐ°
ĠÐľ Ð°ÑĤÑĮ
ĠÑģ ÑĢÑĭÐ²
ĠÐº Ð°ÑģÑĤ
ĠÐĶ ÑĢ
ĠÐ¤ Ð»Ð¾ÑĢ
Ðĵ Ðŀ
ĠÑģÐ¾Ð± Ð¾Ñİ
ĠÐ¸ Ð´ÑĥÑī
ĠÑĤÐµÐ¼ Ñĭ
ĠÐ± Ð¸ÑĢ
ĠÑĢÐ°Ð±Ð¾ÑĤ Ð°Ð»Ð°
ĠÐ¿ÑĢÐ°Ð·Ð´ Ð½Ð¸Ðº
ĠÑĥÑĩ Ð¸ÑĤÑĮÑģÑı
ĠÐ½Ðµ ÑģÑĤ
ĠÑĢÐ°Ð·Ð³Ð»ÑıÐ´ ÐµÑĤÑĮ
ĠÐ½Ð° ÐµÐ¼
ĠÐ´ÐµÑģÑıÑĤ ÐºÐ¸
ĠÐ¿Ð¾Ð» Ð½ÑĭÐ¼
Ð»Ð¸Ð½ Ð³
ĠÐ²Ð¾Ð·Ð²ÑĢÐ°Ñī ÐµÐ½Ð¸Ñı
ĠÑģÐ¾Ð¼Ð½ ÐµÐ½Ð¸Ð¹
ĠÐ¿ÑĢ Ð¾Ð¹Ð´
ĠÐ»Ð¸ Ð±ÐµÑĢ
ĠÐ¿ÑĢÐ¾Ð¸Ð·Ð¾ÑĪ ÐµÐ»
ĠÑĥÐº Ð»Ð°Ð´
Ð¾Ñĩ Ð½ÑĭÐ¼
Ðº Ð°Ð»
ĠÐ½Ð°Ð¿Ð¾Ð¼Ð¸Ð½ Ð°ÐµÑĤ
ĠÑģÐ»ÑĥÐ¶ ÐµÐ±
ĠÐ¿Ð¾Ð·Ð´ ÑĢÐ°Ð²
Ð» Ð°Ð½ÑĤ
ĠÐ° Ñħ
Ð°Ð²ÑĪ ÐµÐ¹ÑģÑı
ĠÐ¿Ð°ÑĢ Ñĭ
ĠÐ·Ð°Ðº Ð°ÑĤ
ĠÐ¤ Ð¾ÑĢ
g e
ĠÐ¼ Ð¼
ĠÑģÐº Ð¾ÑĤ
ĠÐ±Ð°Ð· Ðµ
ĠÐ»ÑİÐ± ÑĭÐµ
ĠÐºÐ°ÑĢÑĤ Ñĥ
ĠÐ¾ÑĤ Ð²Ð¾Ð´
ĠÐ´ÐµÐ²ÑĥÑĪ ÐºÐµ
ĠÐ¿Ð»Ð°ÑĤ ÐµÐ¶
Ġ on
ĠÐŁ Ð¸ÑĢ
ĠÐ± ÑĥÐ»
ÐµÐ· Ð°
ĠÐ¸ÑĤÐ¾Ð³ Ð°Ð¼
ĠÐ¿Ð¾ÑĢÐ°Ð¶ ÐµÐ½Ð¸Ðµ
ĠÐ¿ Ð°Ñģ
ĠÑĢÐ°ÑģÐ¿ Ð¸Ñģ
Ð¸Ð² Ð°Ð»Ð¾ÑģÑĮ
ĠÐ²ÑĭÐ±Ð¾ÑĢ Ð¾Ð²
ĠÑħÐ¾ÑĢ Ð¾ÑĪÐµÐµ
Ð¾Ð½ Ñģ
ĠÐ¼Ð¾ÑĢ Ð¾Ð·
ĠÐĲÐ½ Ð°ÑĤÐ¾Ð»
ĠÐĴ Ð¾Ð¿ÑĢÐ¾Ñģ
ĠÐ±Ð¾Ð»ÑĮÑĪ Ð¸Ð¼Ð¸
ĠÑģÐ¿ Ð»ÐµÑĤ
ĠÐ¿ÑĢÐ¾Ð²Ð¾Ð´ Ð¸Ð»
ÐµÐ½ Ð¾Ð¹
ĠÐĶ ÑĢÐ°Ðº
ÐµÐ¼Ð¾Ð½ ÑģÑĤÑĢ
ĠÐ²ÑĭÐ±Ð¾ÑĢ Ð°Ñħ
ÑģÑĤÐ² Ð¾Ð²Ð°Ð½Ð¸Ñı
ÐµÐ½ÑĤ Ð»ÑĮ
ĠÐ±ÑĢÐ¾Ñģ Ð¸ÑĤÑĮ
ĠÐ¾Ð± ÑĢÐµÑĤ
ĠÑĪ Ð»Ð¾
ĠÑĤ ÑĥÑģÐº
ĠÐĳÐ¾Ð³ Ð¾Ð¼
ĠÑĥÑĤ Ð²ÐµÑĢÐ´
ĠÐ¾ÑģÑĤÑĢÐ¾Ð² Ðµ
eb ook
ÐµÐ· Ñĥ
ĠÐ²ÐµÑĢ Ð¸Ð»
ĠÐ´ÐµÐ²ÑĥÑĪ ÐµÐº
ÐµÑĤ ÐºÐ¸
ĠÐ·Ð°Ñģ ÑĭÐ¿
ĠÐ²Ñĭ ÑĤÐµÑĢ
ÐµÐ»ÑĮ Ñİ
ĠÐ²ÑĭÑģÐ¾Ðº Ð¸Ðµ
ĠÐ¾ÑĤ ÑĢÐ°Ñģ
ĠÐ´ Ð¸Ð½
ĠÐ¿ÐµÑĢÐ¸ Ð¾Ð´Ð°
Ð½ ÐµÐ³
Ð»Ð° ÑĩÐ¸Ð²
ĠÐ°Ñį ÑĢÐ¾Ð´
ĠÑģÐ¾Ð±ÑģÑĤÐ²ÐµÐ½ Ð½ÑĥÑİ
ĠÑĦÐ¸Ð³ ÑĥÑĢÑĭ
Ð» ÑĭÐ¼Ð¸
ÑĥÐ± ÐµÐ¶
ĠÑģÐµÑĢÐ¶ Ð°Ð½ÑĤ
ĠÐ½Ð°Ð¼ ÐµÑĢÐµÐ²
ĠÐŀÐ¿ ÑıÑĤÑĮ
ĠÐ·Ð°Ð¼ÐµÑģÑĤ Ð¸ÑĤÐµÐ»ÑĮ
ĠÐ¿Ð°Ð»ÑĮ ÑĤÐ¾
ĠÐļÐ¾Ð¼ Ð°Ð½Ð´
4 1
ĠF ac
ĠÐ¿ÐµÑĢÐµÐ³Ð¾Ð²Ð¾ÑĢ Ð¾Ð²
ĠÐŀÐ± Ð°
ĠÐ·Ð°Ð²ÑĤÑĢ Ð°Ðº
ĠÐ» ÐµÑĤÐ¾
ĠÐ¿Ð¾Ð· Ð½
Ð½ÑıÐ» ÑģÑı
ĠÑģÐ»Ð°Ð² Ð°
ĠÐ¿Ð¾ÑĢÑĤÑĢ ÐµÑĤ
ĠÐĶ Ð°Ð¼
ĠÐĽ ÑĥÐ³
ĠÑĥÑĩ Ñĳ
Ñģ Ð¼ÐµÐ½
ĠÐ¾ ÐºÐ¾
ĠÐĶ Ð²
ĠÐºÐ½Ñı Ð¶
ĠÐ¼Ð¸Ð»Ð»Ð¸ Ð¾Ð½Ð°
Ð¾Ð± Ð¾Ð´Ð°
Ð¿ ÐµÐ´
ĠÐ³Ð¾ ÑģÑĤÑĮ
ĠÐ³ ÑĥÐ»
ĠÐĿ Ð°Ð±
ĠÐĲ Ð³Ð°
ĠÑģÐº ÑĥÐ»ÑĮÐ¿
Ð½ÐµÐ¹ ÑĪÐ¸Ð¹
ĠÐ¿Ð°ÑĢÑĤ Ð¸Ñı
ĠÐ½Ð°ÑĢ Ð¸Ñģ
ĠÐ¾ÑĤÐºÑĢÐ¾Ð² ÐµÐ½Ð½Ð¾
Ðĳ Ð°ÑĢ
ĠÐ¿Ð¾Ð»Ð¾Ð¶ Ð¸Ð»Ð°
ĠÐ´Ð»Ð¸Ð½ Ð½ÑĭÐ¹
ĠÑģÐ²Ð¾Ðµ Ð¾Ð±ÑĢÐ°Ð·
ÑĢ Ð°Ð»ÑģÑı
ĠÑĤÐ°Ðº Ð¾Ð¼Ñĥ
Ð¸Ð´ Ðµ
ĠÐ½ÐµÐ´ ÐµÐ»Ðµ
ĠÐ¿ ÑĭÑĪ
Ð¢ Ð¾
ĠÐ¼ÐµÑģÑĤ Ð½Ð¾Ð³Ð¾
Ñĥ ÑĦ
ĠÐ¾ÑĤÐº Ð»Ð¾Ð½
ĠÑĩ ÐµÐ»Ñİ
Ð¸ÑĢÐ¾Ð² ÐºÐ°
ĠÐ´Ð¸ Ð°Ð³
ĠÐĺÐ½ ÑģÑĤ
ĠÑģÐ¾ÑĨÐ¸ Ð°Ð»ÑĮÐ½ÑĭÑħ
ĠÐ¸ÑģÑĤ ÐµÑĢ
Ð°Ð· Ð°Ð»Ð¾ÑģÑĮ
ĠÑĥÑĤÐ²ÐµÑĢÐ¶ Ð´Ð°ÐµÑĤ
ĠÐ¸Ð½ ÑĨ
ÐºÐ¾Ð² ÑĭÑħ
ÑĭÐ² Ð°Ð»Ð¾ÑģÑĮ
ĠÐ²Ð¾Ð¿ÑĢÐ¾Ñģ Ñĥ
ĠÐ±ÑĢ Ð¾Ð½Ð·
Ð¼ Ð°Ð¹
ĠÐ²Ð¾ ÐµÐ½
ĠÐ¿Ð¾Ð¸ÑģÐº Ð¸
ĠÐ² ÑĢÐµÐ·
ĠÐ½ÐµÐ¼ ÑĨÑĭ
ĠÑħÐ¾Ð·Ñı ÐµÐ²
ĠÐ¸ÑģÑģÐ»ÐµÐ´ Ð¾Ð²
: //
ĠÐ¾Ð± Ð¾ÑĪ
Ð¾ÑģÐº Ð¾Ð²
Ġ qu
ĠÐ¾ÑĦ Ð¸Ñģ
ĠÐ· Ð»Ð°
ĠÐĵ Ð»ÐµÐ±
ĠÑģÐ´ÐµÐ» Ð°Ñİ
ĠÑĥÐ·Ð½Ð° ÐµÑĤ
ĠÐ¾Ð±Ð»Ð°Ð´ Ð°ÐµÑĤ
Â» ;
Ġ15 0
ĠÐ¼Ð¸ÑģÑĤ ÐµÑĢÐ°
ĠÐ°Ð¼ÐµÑĢÐ¸ÐºÐ°Ð½ ÑģÐºÐ¸Ñħ
ĠÐ²Ð¸Ð´ Ñı
ĠÑģÐµÑĢ Ð´Ð¸
ĠÐ¼ÑĥÐ¶ ÐµÐ¼
ĠÐ½Ð°Ñĩ Ð°Ð»ÑģÑı
Ñħ Ð¾Ð¼
ÑıÐ· Ð²
ĠÐ·Ð° ÑĦÐ¸ÐºÑģ
ÑĥÑİÑī ÐµÐ¹
ĠÐ²Ð¸Ð· Ð¸ÑĤ
ĠÐ¿Ð¾Ð¹ Ð´ÐµÐ¼
ĠÐ¿Ð¾ÑıÐ² Ð»ÐµÐ½Ð¸Ñı
Ðŀ Ðŀ
ĠÐ½Ð°ÑħÐ¼ÑĥÑĢ Ð¸Ð»ÑģÑı
Ð¼ ÐµÐ»ÑĮ
Ð¾Ð» Ð»
ĠÐ¿ÑĤ Ð¸ÑĨÑĭ
Ð°Ð»Ð¸ Ñİ
ĠÐºÐ¾Ð¶ Ð°
Ð°Ñĩ Ð¸
ÐµÐ½ ÐºÐ¸
ĠÑĢÑĥÐºÐ¾Ð²Ð¾Ð´ Ð¸ÑĤÐµÐ»ÑĮ
Ñĩ ÑĥÑĢ
ĠÐŀ Ð³
ĠÐĹÐ½Ð° ÐµÑĪÑĮ
ĠÑĤÐµÐ¾ÑĢ ÐµÑĤ
ÐµÑĤÑĭ ÑĢÐµ
ĠÐĹ Ð°Ð´
Ð°Ð½ ÑĮÐµ
ĠÐĿÐ¸ÐºÐ¾Ð»Ð° ÐµÐ²Ð¸Ñĩ
ĠÐ¸Ð»Ð»Ñİ Ð·
ÑĥÐ¼ Ðµ
ĠÐŁÑĢÐ¾ Ñħ
ÑĭÑģ Ð¾Ðº
ĠÐºÐ¾ÑĢ Ð¸ÑĩÐ½ÐµÐ²
ÑĥÑĪ ÐµÐº
ĠÐ²ÑĭÑħÐ¾Ð´ Ð¸ÑĤÑĮ
ĠÐĶÑĢÑĥÐ³ Ð¸Ðµ
ĠÐ¿Ð»Ð¾ÑĤ Ð½Ð¾
ĠÑĩÐµÐ»Ð¾Ð²ÐµÑĩÐµ ÑģÑĤÐ²Ð°
ĠÐ¾ÑĤÐ¿ÑĢÐ°Ð² Ð¸Ð»
Ð½Ð¸ÐºÐ¾Ð² Ð°
Ð°Ð½ ÑģÐ°
ĠÑĩÐµÑĢ Ð½ÑĭÑħ
4 3
ÐµÐ´ Ð»Ð¸Ð²Ð¾
ĠÐ¿Ð¾Ð» Ð½Ð¾Ð³Ð¾
ĠÐºÑĢ Ð¸ÐºÐ¸
ĠÐ¾Ñģ Ð²Ð¾
ĠÐŀÐ´ Ð½Ð¾
ÐµÐ»Ð¾Ð² ÐµÑĩÐµÑģÐº
ĠÑĦÑĥÑĤ Ð±Ð¾Ð»ÑĮ
ĠÐ¾ÑĪÐ¸Ð± ÐºÐ¸
! )
ĠÐ¿Ð°ÑĤ ÑĢÑĥ
Ð¿ Ð¾Ð²
ÐµÐ»Ñİ Ð±
ĠÐŁÑĢÐ¸ ÑĪ
ĠÐ¿ÐµÑĢ ÑĩÐ°ÑĤ
ĠÐ¾ÑĤÐ² ÑĢÐ°Ñī
ÑĤ ÐµÐ¼
ÑĢÐµ Ð°Ð³
ĠÑģ Ð½Ð°ÑĢÑĥÐ¶Ð¸
ĠÐ´ÐµÑĤ ÐµÐºÑĤÐ¸Ð²
ĠÑģÑĤÑĢÐµÐ» ÑıÑĤÑĮ
ĠÐĲÐ½Ð´ÑĢÐµ Ñı
ĠÐ²Ð¸Ð´ Ð½
ĠÑĢÐ°Ð· Ð¾Ð±
Ð´ÑĢÐ°Ð² ÑģÑĤÐ²Ñĥ
Ð°Ð² Ñĭ
ĠÑĢÐ°ÑģÑģÐ¼Ð¾ÑĤÑĢ ÐµÑĤÑĮ
ĠÐ²Ñĭ ÑģÑĤÑĢ
ĠÑģÐº Ð¾Ð¿
ĠÐĴ ÐµÑĩ
ĠÐ¾ Ð²Ð¾Ñī
ÐĲ Ðŀ
Ð£ Ðº
Ð½Ð¸ ÑĢ
ĠÑĤ ÐµÐ½Ð´
ÐºÐ¾Ð¼ Ð°
ĠÐ½ ÐµÑĢÐµÐ´ÐºÐ¾
ĠÐľÐ°ÑĢ Ð³Ð°ÑĢ
ĠÐ¿ÑıÑĤ Ð½Ð¸ÑĨÑĥ
ĠÑģÑĤÐµÐº Ð»Ð¾
ĠÐ³ÑĥÐ± ÐµÑĢ
ĠÐĵÑĢÐ¸ Ð³Ð¾ÑĢ
ĠÐ±Ð°ÑĪ Ð½Ð¸
ĠÐ¿Ð¾Ð± Ð»Ð°Ð³Ð¾Ð´Ð°ÑĢ
ĠÐ¿ÑĢÐ¸ ÑīÑĥÑĢ
Ð¸ÑģÑĤ Ð¾ÐºÑĢÐ°ÑĤ
ĠÐĲÐ´ Ð°Ð¼
ÐµÑĢ ÐºÐ¸
ĠÐ¿Ð¾ÑıÐ² Ð»ÐµÐ½Ð¸Ðµ
ĠÐ¾Ð¿ÑĥÑģÑĤ Ð¸Ð»ÑģÑı
ĠÑģÐµÐ½ÑĤ ÑıÐ±ÑĢÐµ
ÐĿ Ð°Ð¿
ĠÐĺÑģÐ¿ Ð°Ð½Ð¸Ð¸
ĠÐ¾Ðº ÑĢÐ°
ÑĦÐ¾ÑĢ Ð¼Ñĥ
ĠÐº ÑĥÐ²
ĠÐ°Ð¿Ð¿Ð°ÑĢ Ð°ÑĤ
ĠÐ¸ÑģÑģÐ»ÐµÐ´ Ð¾Ð²Ð°Ð½Ð¸Ð¹
ĠÐ½Ð°Ð´ÐµÐ¶ Ð´Ð°
ĠÐ°Ð³ÐµÐ½ÑĤ ÑģÑĤÐ²Ð¾
ĠÐ¿ÑĢÐµÐ´Ð¿Ð¾Ð»Ð¾Ð¶ Ð¸ÑĤÑĮ
ĠÐľ ÐµÑģÑĤ
ĠÐ¸Ð´ ÐµÐ¹
ĠÐ¿Ð¾Ð¼Ð½ Ð¸Ð»
Ñĥ ÑįÑĢ
Ð¼ ÐµÐ½Ð°
ĠÑģ ÐµÑģÑĤÑĮ
ĠÑģÐ²Ð¾ ÑĳÐ¼
ĠÐ±Ð°ÑĢ Ð¾Ð½
Ð°Ð´ Ð¸ÑĤÑĮ
ĠÑģÑĥÑīÐµÑģÑĤÐ² ÑĥÑİÑĤ
ĠÐ°Ð½Ð³Ð»Ð¸Ñĩ Ð°Ð½
ĠÐĿ ÐµÐ·
ĠÐ½Ð°Ð² ÑıÐ·
ĠÐ·Ð° ÑģÑĤÑĢ
ĠÑĤÐ°Ðº ÑģÐ¸
ĠÐĶÐ°Ð² Ð°Ð¹ÑĤÐµ
ĠÑģÑĤÑĢÐ¾ Ð¸ÑĤÑĮ
ĠÐ²ÑĭÐ± ÑĢÐ°Ð»
ĠÐ¿Ð»Ð°Ð¼ Ñı
ĠÐ½Ð¾Ñģ Ð¸Ð»
ĠÐ¾ÑĤÑĤ Ð¾Ð³Ð¾
ĠÐ»ÑĥÑĩ ÑĪÐ¸Ðµ
l y
ĠÑĥÑĩ Ð¸ÑĤÐµÐ»Ñı
Ð¾Ñģ Ð¸ÑĦ
ĠÐ¼Ð½ ÐµÐ½Ð¸Ñı
ĠÐ¿Ð¸Ð» Ð¾ÑĤ
ĠÐ·Ð° Ð¾Ð´Ð½Ð¾
Ð¸ÑģÑĤ Ð¾Ð¹
Ð¸ÑģÑĤ ÑĭÐµ
ĠÐ¿ÑĢÐ¸Ð½Ð¸Ð¼ Ð°Ð»
Ð¾Ð½ÑĮ ÐºÐ¾
ÑĥÐ· Ð¸
ĠÐ·ÐµÐ¼ Ð»ÐµÐ¹
ĠÐ»Ð¸Ñĩ Ð½Ð¾ÑģÑĤÑĮ
ĠÐ¼ ÑĢÐ°ÑĩÐ½Ð¾
ÑĦÐ¾ÑĢ Ð´
ĠÐ¿ÑĢ ÐµÐ½ÐµÐ±
ĠÑĥÐ¶Ð°Ñģ Ð°
ĠÐ¼ÑĥÑģ ÑĥÐ»ÑĮÐ¼Ð°Ð½
Ð°ÑĤÐµÐ»ÑĮ Ð½ÑĥÑİ
ĠÐ¤ ÐµÑĢ
Ð°ÑİÑī ÐµÐ³Ð¾ÑģÑı
ĠÑĢÐ°Ð² Ð½Ð¾Ð²ÐµÑģ
ĠÐ¾Ð±Ñī Ð¸Ð¹
Ð» ÐµÑĢÐ°
ĠÐ»Ð°Ð³ÐµÑĢ Ñı
ĠÐļ Ð°Ð±
ĠÐºÐ¾Ð¼Ð¼ÐµÑĢ ÑĩÐµÑģÐº
ÐµÑĩ ÐºÐ¾
ĠÐ¿Ð¾Ð¿ÑĢÐ¾Ð± Ð¾Ð²Ð°ÑĤÑĮ
Ð°Ð³ Ñĥ
ĠÐ²ÑĭÑģÐ¾Ðº Ð¸Ñħ
Ð»ÐµÐ½Ð¸Ñı Ð¼Ð¸
ĠÑħÐ¾Ð´ Ð¸Ð»Ð¸
ÐĶ ÐĲ
ÑĤÐ¾ÑĢ Ð°Ð¼Ð¸
ĠÐłÐ¾Ð¼ Ð°Ð½
ĠÐ¿ÑĢÐ¾ÑĪÐ» Ð¾Ð¹
ÐµÑģÑģ Ñĭ
ĠÐ¼Ð¾ÑĢ ÑģÐºÐ¾Ð¹
Ð¾Ð» ÐµÑĤÐ°
ĠÐ¤ÐµÐ´ ÐµÑĢ
ĠÑģÐ¾Ð± Ð°ÐºÐ°
ĠÐĴÐµÐ»Ð¸ÐºÐ¾Ð±ÑĢ Ð¸ÑĤÐ°Ð½Ð¸Ð¸
ĠÐ± Ð¸Ð»ÐµÑĤ
ĠÑģ ÐµÑĢÐ¸
ĠÐ½ÐµÑĢÐ² Ð½Ð¾
ĠÐ¡ Ð»Ð¸ÑĪÐºÐ¾Ð¼
ÐĶ Ð¾
Ð¶ Ð°Ð²
ĠÑģÐµÐºÑĢÐµÑĤ Ð°ÑĢ
ĠÐ¿Ð¾Ð»ÑĥÑĩ ÐµÐ½Ð¸Ñı
ĠÑģÑĤÑĥÐ´ ÐµÐ½ÑĤ
Ð´ Ð°Ð½
ĠÐĵÐµÐ½ ÑĢÐ¸
Ð· ÐµÐ»ÐµÐ½
ĠÑĥÑģÑĤÑĢÐ¾ Ð¸ÑĤÑĮ
ĠÑĢÐ°ÑģÑģ ÑĭÐ¿
ĠÐ¿Ð¾ÑģÐ»ÑĭÑĪ Ð°Ð»ÑģÑı
ĠÐĵÐ¾ÑģÐ¿ Ð¾Ð´Ð°
ĠÑģÐ´ Ð°Ð²
ĠÑĥÑĩÐµÐ½ ÑĭÐµ
ĠÐ¿Ð¾Ð¼Ð¾Ð³ Ð°ÑĤÑĮ
ĠÐ½ÑĢÐ°Ð² Ð¸Ð»Ð¾ÑģÑĮ
ĠÑģÐ¿ Ð»Ð¾ÑĪ
ĠÐ¿ÑĢÐ¾Ð± Ð»ÐµÐ¼Ñĥ
ĠÐ² ÑıÐ·
ĠÐ²ÑĭÐ¿Ð¾Ð»Ð½ Ð¸ÑĤÑĮ
ÐµÐ½ ÐµÐ²
Ð¾ÑģÑĤ Ð°Ð½Ð¾Ð²
ĠÑģÐ»ÐµÐ´ Ð¸ÑĤÑĮ
ĠÐ¿ÑĢÐ°Ð²Ð¾ Ð¾ÑħÑĢÐ°Ð½
ĠÐ¾ÑģÑĤÐ°Ð² Ð°Ð»Ð¸ÑģÑĮ
7 7
ĠÑıÐ½Ð²Ð°ÑĢ Ðµ
ĠÐĿÐ¾Ð² ÑĭÐ¹
ĠÑĨ ÐµÐ½Ð°
ĠÑĢÐ°Ð·Ð² Ð°Ð»
ĠÐ¸Ð·Ð¼ÐµÐ½ Ð¸Ð»Ð¾ÑģÑĮ
ĠÐ½Ð° ÑĢÑıÐ´
ĠÐ±Ð¾Ð³ Ð¾Ð²
ĠÐ¾Ðº Ð½Ñĥ
ĠÐĺÐ² Ð°Ð½Ð°
ĠÐ¿ÑĢÐ¸ ÑģÑı
ĠÑģÐ¾Ð± Ð°Ñĩ
ĠÐ¢ ÐµÐ»
ĠÐºÑĢ Ð¸ÑģÑĤ
ĠÐ¸Ð½ÑĤ ÐµÐ»Ð»Ð¸
ĠÑĥÐ´ Ð¾ÑģÑĤ
ĠÐ¿Ð¾Ð»Ð¸ÑĤ Ð¸ÐºÐ°
ĠÐłÑĥÑģ Ð¸
ĠÑĢÐ°Ð´ Ð°
Ð¾Ñģ Ð¸Ð¿
, âĢĶ
ĠÐ½Ð°ÑģÑĤÐ¾ÑıÑī ÐµÐ³Ð¾
Ð¼Ð¾ÑĤÑĢ Ð¸ÑĤÐµ
Ð»Ñı Ñħ
ĠÐ±Ð°ÑĢ Ð°Ð±
ĠÐ·Ð°Ð´Ð°Ñĩ Ñĥ
ĠÐ³Ð°Ð· ÐµÑĤÐ°
Ð°Ð» Ñı
Ð½Ñĥ Ñģ
Ð½ Ð¾Ð·Ð½Ð°Ñĩ
ĠÐ¿ÐµÑĢÐµÐº ÑĢÐµÑģÑĤ
ĠÑĢÐ°ÑģÑģ ÑĥÐ´
ĠÐ¿Ð¾Ð»Ð½Ð¾Ð¼ Ð¾Ñĩ
ÑĥÐ³ Ñĥ
Ð¾Ð² Ð°ÑĤ
ĠÐŁÑĢ Ð¾Ð±
ĠÐ¿ÐµÑĢÐµ Ð¾Ð´
ÑĢÐ°Ð½ Ð¶
ĠÐ¿ÑĢÐµÐ´ÑģÑĤÐ¾Ñı Ð»Ð¾
ĠÐ¿ ÑĭÐ»Ð¸
ĠÐºÐ¾Ð¼Ð¿ Ð°Ð½Ð¸Ñİ
ĠÐ¢ ÐµÐ±Ñı
ĠÐ¸Ð½ Ð´Ñĥ
ĠÐ¼ÐµÐ» Ð¾Ð´
ĠÐ¿Ð¾ÑĨÐµÐ»Ð¾Ð² Ð°Ð»
ĠÐ¼ ÑĥÑģÐº
Ñĥ ÐºÐµ
ĠÑħÐ¾ÑĤ Ð¸Ð¼
ĠÐ±Ð¾ÑĢÑĮ Ð±Ñĥ
ĠÐĽÐ¾Ð½Ð´ Ð¾Ð½Ðµ
ĠÐ²ÑĢÐ°Ð¶Ð´ ÐµÐ±
ÐµÐ³ ÑĢÐ°Ð´
ĠÐ²ÐµÑĢ Ð½ÐµÐµ
ĠÐ¿Ð¾Ð½ÑĢÐ°Ð² Ð¸Ð»Ð¾ÑģÑĮ
ĠÐ¾ÑģÐ¾Ð± Ð¾Ð¹
ĠÐ¶ ÑĢÐµÑĨ
ĠÐ¢ Ð¾ÑĩÐ½Ð¾
ĠÑĤÐ¾Ð» Ð¿Ð°
Ð¾Ðº ÑĥÐ¿
ĠÐ¿ÑĢÐ¸Ð» ÐµÑĤ
ĠÐ¾Ñģ ÐµÐ½
ĠÑĢÑĥÐº Ð¾Ð¿
ĠÐ¢ Ð²Ð¾
ĠÐ¿ÑĢÐµÐ¿ Ð°ÑĢ
ĠÐ¾ÑĪÐ¸Ð± ÐºÑĥ
ĠÑĨ Ð¸ÑĢ
ĠÐ·Ð¾Ð»Ð¾ÑĤ Ð¾Ð¹
ĠÐ·Ð°Ð½ Ð°Ð²
Ð¾Ð² ÑĮ
ĠÐ£ ÑģÐ¿
Ð¾Ð²Ð°Ð½ Ð½Ð°Ñı
ĠÐ²Ð½ÑĥÑĤÑĢÐµÐ½ Ð½ÐµÐ¹
ĠÐºÐ¾Ð½ÑĦÐ»Ð¸Ðº ÑĤÐ°
ĠÐ¿ÑĢÐ¾Ð³ ÑĢÐµÑģÑģ
ĠÐºÐ»Ð°Ð² Ð¸
ĠÐ³ÑĢÐ°ÑĦ Ð°
ĠÐ½ÐµÑĦ ÑĤÐ¸
ĠÐºÑĢ ÐµÐ¼
ÑĤÐ¾ÑĢ Ð¸Ð¸
ĠÑĦÑĥÐ½Ðº ÑĨÐ¸Ð¸
ĠÐ´ÐµÑĢÐ¶ Ð°
Ð´ÑĢÑĥÐ³ Ð¾Ð¼Ñĥ
ÑħÐ¾ÑĤ Ñı
ĠÐ¾Ð¿Ð°Ñģ Ð½Ð¾
ĠÐ½ÐµÐ¼ Ð°Ð»
ĠÑģÑĤÑĢÐ°Ð½ Ð½ÑĭÐ¼
ĠÑģÐ»ÐµÐ´ÑĥÑİÑī Ð¸Ðµ
ĠÑĦÐ°Ðº ÑĥÐ»ÑĮÑĤ
ĠÐ¸ Ð½ÑĭÑħ
ĠÐ³Ð»ÑĥÐ¿ Ð¾
ĠÐ¿ÑĢÐ¸ÑģÐ¿ Ð¾ÑģÐ¾Ð±
ĠÐ¡Ð¾Ñİ Ð·
ĠÐ¿ÑĢÐµÐ´Ð»Ð¾Ð¶ Ð¸ÑĤÑĮ
ĠÐ±Ð»Ð¸Ð¶Ð°Ð¹ ÑĪÐµÐµ
Ñĩ Ð¸Ð½
ÐµÐ³ Ð¸ÑģÑĤÑĢ
ĠÐ½Ð°Ð´ Ð¾Ð»Ð³Ð¾
ĠÐĺÐ»ÑĮ Ñı
ĠÐļÐ°Ðº Ð¾Ðµ
ĠÐ½ÐµÐºÐ¾ÑĤÐ¾ÑĢ ÑĭÐ¼
ĠÐ¾Ð±ÑģÑĤÐ¾ÑıÑĤÐµÐ»ÑĮ ÑģÑĤÐ²Ð°Ñħ
ĠÐ¾ÑĤÐ²ÐµÑĢ ÑģÑĤ
ĠÐ·Ð°Ð¿ ÑĥÑĤ
ĠÐ¿Ð°ÑĢ Ð¾ÑħÐ¾Ð´
ĠÐ½ÐµÐ²Ñĭ Ð½Ð¾Ñģ
ĠÑİ Ð½Ð¾
ĠÐł ÐµÑģÐ¿ÑĥÐ±Ð»Ð¸ÐºÐ¸
ĠÐ²ÐµÐ´ ÑĥÑĤ
ĠN ew
ĠÑģÐ½ Ð°Ð±Ð¶
ĠÑģÑĤÐµÐ½ Ð°Ñħ
ĠÐ¿Ð¾Ð´ÑĢÐ¾Ð± Ð½Ð¾ÑģÑĤÐ¸
ÑĢ ÑĭÑĪ
ĠÐ¿Ð»Ð°Ð½ ÐµÑĤÐµ
ĠÐ¿Ð»ÐµÑĩ Ñĥ
ĠÑĥÑĤÐ¾Ñĩ Ð½Ð¸Ð»
ĠÐ¿ÑĢÐ¾Ð´ÑĥÐº ÑĨÐ¸Ð¸
ĠÐ¾ÑĤÐº Ð»Ð¸Ðº
ĠÑģ Ðµ
Ð°Ð½ Ð½Ð¾ÑģÑĤÑĮ
Ð¾ÑĢ Ð³Ð°Ð½
ĠÐ´Ð°Ð² Ð°Ð»Ð¸
ĠÑģÑĤ Ð¸Ð¼
ĠÐ¾ÑģÑĤÐ°Ð½Ð¾Ð² Ð¸ÑĤÑĮÑģÑı
ĠÑĥÐ²ÐµÑĢÐµÐ½ Ð½Ð¾ÑģÑĤÑĮ
ĠÑģÑĤÐµÐº Ð»Ð°
Ð¿ Ð¾ÑĢ
Ð¸Ñĩ ÐºÐ¸
Ðļ Ð¾Ð½ÐµÑĩÐ½Ð¾
ĠÐļ Ð°Ð²ÐºÐ°Ð·
ĠÑĢÑĭ ÑĨÐ°ÑĢ
ĠÐĶ Ð²Ð¾ÑĢ
ĠÐĽ ÐµÑĤ
ĠÐºÐ°Ð¼ Ð½ÐµÐ¹
ĠÑģÐ¼ÐµÑĢÑĤ ÐµÐ»ÑĮ
ĠÐ³Ð¾Ð»Ð¾Ñģ Ð¾Ð²
Ð¼ ÐµÐ½ÑĤÐ°
ĠÐ¿ÐµÑĢÐµÑĪ ÐµÐ»
ĠÐ´ Ð¾Ð±ÑĭÑĩ
ĠÐ¿Ð» Ð°Ð½Ð°
ĠÑģ Ð³Ð¾ÑĢ
ĠÐ²Ð· Ð¼Ð°Ñħ
ĠÐ¾ÑĤÐ¼ Ð°Ñħ
5 6
ĠÐľÐ°ÑĢ Ð¸Ð¸
ĠÐ±Ð¾ÑĢÑĮ Ð±Ð°
ĠÐĲÑĢÑĤ ÑĥÑĢ
Ġ k
ĠÐ·Ð°ÐºÑĢÑĭ Ð»Ð°
ĠÐ¡ÐµÐ¼ ÐµÐ½
ĠÐĲÐ¼ÐµÑĢ Ð¸ÐºÐ¸
7 6
ĠÑģÑĢ Ð°Ð±Ð¾ÑĤ
Ðķ Ð¢
ĠÐ¸Ð´Ðµ Ñİ
ÑĥÐ± Ð»Ð¸Ñĩ
Ð¾Ð½ ÑģÑĤ
Ð»Ð¸Ð² Ð¾Ð¹
ĠÐ¿Ð¾Ð³ Ð»Ð¾Ñī
ĠÐ²Ð¿ Ð°Ð´
ÐµÐ² Ð°ÐµÑĤ
ĠÐ²ÑģÐµ Ð¾Ð±Ñī
ĠÐŃ Ð»Ð¸
ĠÐļÑĢÐ°Ñģ Ð½Ð¾Ð¹
ĠÐŁ Ð¾Ð±ÐµÐ´
Ð°ÑĢ Ðº
ĠÐ³ ÑĥÑģ
ĠÐ¸ÑģÐ¿ Ð°Ð½
en s
ĠÐ°Ð»ÑĮ Ð±Ð¾Ð¼
âĢ Ħ
Ð¸Ñĩ ÐºÐ°
ĠÐ²ÑĭÐ³ Ð¾Ð´
ĠÐ¿ÑĢÐ°Ð² Ð»ÐµÐ½Ð¸Ñı
Ð¾Ñĩ ÐºÐ°Ð¼Ð¸
ĠÐµ Ð´Ñĭ
ĠÐ¥Ð¾ÑĤ ÑĮ
ĠÐ¿ÑĢÐ¾Ñĩ Ð¸Ðµ
ĠÐ·Ð°Ð³ Ð»ÑıÐ´
ĠÑĢÐ°ÑģÐº ÑĢÑĭÑĤ
ĠÐºÐ¾ÑĪ Ð¼Ð°ÑĢ
ĠÐ» Ð±Ñĥ
ĠÐ·Ð°ÑģÐ¼Ðµ ÑıÐ»ÑģÑı
ĠÐ±Ð¾Ð»ÑĮÑĪÐ¸Ð½ ÑģÑĤÐ²Ð°
ĠÐ¾ÑĤÑĩÐµÑĤ Ð»Ð¸Ð²Ð¾
ĠÐ¿ÑĢÐµÐ´ Ð²
ĠÐ´Ð¾Ð¿ ÑĥÑģÑĤ
ĠÐ¨ Ð¸ÑĢ
ĠÐ²Ð¾Ð» Ð½Ð°
ĠÐ½ÐµÑĦ ÑĤÑĮ
ĠÐ·Ð°Ð² Ð¸Ð´
ĠÐ²Ñĭ ÑģÑĤÑĢÐ¾
ĠÐ¡ Ð¸Ð»
ĠÑĢ Ð¾Ð»
ĠÐ¿Ð¾Ð»Ð¾Ð¶ Ð¸ÑĤÑĮ
ĠÐ°ÑĢÑħÐ¸ÑĤ ÐµÐºÑĤ
Ð½Ð° Ñģ
ÂłÐ ¨
ĠÐ¾ÑģÑĤÐ°Ð½Ð¾Ð² Ð¸Ð»
ĠÐºÐ»Ð°Ð´ Ð±Ð¸ÑīÐµ
ĠÐ´Ð¾Ð¼ Ð¾Ð¼
ÐŁÐµÑĤ ÐµÑĢÐ±ÑĥÑĢ
ĠÐ²Ñģ ÐµÑĢÑĮÐµÐ·
Ġ200 4
ĠÐ·Ð½Ð°ÐºÐ¾Ð¼ ÑĭÑħ
ĠÑĢÐµÐ¶ Ð¸Ð¼Ð°
ĠÐ¼ÑĥÐ·Ñĭ ÐºÑĥ
ĠÑī ÐµÐºÐ¸
ĠÐ¾ÑĤÐ¿ ÐµÑĩÐ°ÑĤ
ÐµÑĢ ÐºÐ¾Ð²
ĠÐĴ Ð¾Ð½
ĠÐ²Ð»Ð°ÑģÑĤ ÐµÐ¹
ĠÐ¼ Ð°Ðµ
ĠÐ´Ð¾Ð³Ð¾Ð²Ð¾ÑĢ Ð°
ĠÐ¸Ð½ÑĤÐµÑĢÐµÑģ Ð¾Ð¼
ĠÑħÑĥÐ´Ð¾Ð¶ Ð½Ð¸Ðº
ÑĢ ÐµÐº
ĠÑĤÑĢ Ð°Ðº
ĠÐ´ÐµÐºÐ°Ð± ÑĢÐµ
ĠFac ebook
Ðĵ ÐĲ
ĠÐ¿ÑĢÐ¸Ñĩ Ð°ÑģÑĤ
ÑĢÑı Ð·
en d
ĠÑį Ð»
ĠÐ³Ð» Ð°Ñģ
ĠÐ²ÑĭÐ´ ÑĥÐ¼
Ð¸ÑĢÐ¾Ð²Ð°Ð½ Ð½Ð¾Ð³Ð¾
ĠÐ¿ÑĢÐ¸ÑģÑĥÑĤ ÑģÑĤÐ²Ð¸Ð¸
ĠÐ¿Ð¾Ð´Ð±Ð¾ÑĢÐ¾Ð´ Ð¾Ðº
Ð¾Ð¿ Ð°
ĠÐ³Ð¾ÑģÐ¿Ð¾Ð´ Ð¸Ð½Ð°
Ð¸Ñĩ Ð½Ð¾Ðµ
ĠÐ¢Ð°Ðº Ð°Ñı
ĠÑģÑĥÐ±Ð± Ð¾ÑĤÑĥ
ĠÐ¯ ÐºÐ¾Ð²
ĠÑĤÐ²Ð¾ Ð¸Ð¼
ĠÐł Ð¾
ĠÐ·Ð°ÑīÐ¸ÑĤ Ð¸ÑĤÑĮ
ĠÑĤÐ¸ÑĤ ÑĥÐ»
ĠÐºÐ°Ð²Ð°Ð» ÐµÑĢ
ĠÐ¿ÑĢÐ¾Ð³ÑĢÐ°Ð¼ Ð¼Ñĥ
ĠÑģÐ¾ÑĤ Ð²Ð¾ÑĢ
ÑĤÐ¾Ð² Ð¾Ð¹
ĠÐ¾ÑĢÐ³Ð°Ð½ Ð¸Ð·Ð¼
ĠÐ¼Ð»Ð°Ð´ ÐµÐ½
ĠÐ¼Ð¾Ð»Ð¾Ð´ Ð°Ñı
ĠÐ±ÐµÑĢ ÐµÑĤ
ĠÐĳ ÑĥÐ»
ÑĥÐ±Ð»Ð¸ ÐºÐ¾Ð²
ÑĢÐ°Ðº Ðµ
ÑĢÑı Ð¶
ÐµÐ» ÑĭÐ¹
Ð» ÑĥÑİ
Ð¸Ð· Ð²ÐµÑģÑĤ
l d
ÐĴ Ð·
ĠÐ¿ÐµÑĢÐµÐ´Ð°Ñĩ Ð¸
ĠÐ½ÐµÐ¿ Ð»Ð¾Ñħ
ĠÐĺÐ¼ Ð¿ÐµÑĢ
ĠÐ¿ÑĢÐ¾Ð´ ÐµÐ¼Ð¾Ð½ÑģÑĤÑĢ
ĠÐĿÐ¾Ð² Ð³Ð¾ÑĢÐ¾Ð´
ĠÐ¾Ð± ÐµÐ´Ð°
ĠÐ¡ Ð¾Ð½
ĠÐ¾ÑĤÐ½Ð¾ ÑģÑıÑĤÑģÑı
ĠÐ³Ð¾ÑĢÐ¾Ð´ Ð°Ñħ
ĠÐĺÐ¼ Ð¿
ĠÐ² Ð¸Ð»
Ð¡ Ð»ÐµÐ´
ĠÐ·Ð°Ð¿ ÑĢÐ¾Ñģ
ĠÐ¡ Ð¾ÑĢ
ĠÐĴ Ð¾ÑĢ
ĠÐļ ÑĥÐ¿
ÑĢÐ¾ Ñī
ĠÐ´ÐµÐ» Ð°Ð¼Ð¸
ĠÐºÑĢÐ°Ñģ Ð½ÑĭÐ¹
ĠÐĺÐ· Ð²ÐµÑģÑĤ
ĠÐ³ÑĢÑĥÑģÑĤ Ð½Ð¾
ĠÐ¾Ð±Ñī ÐµÐ½Ð¸Ñı
ĠÐ¸Ð³ÑĢ Ð°Ð»Ð¸
ĠÐ²Ð»Ð°Ð´ ÐµÐ»
Ð½Ñĥ ÑĤÐ¾
Ð°Ð½Ð¾Ð² Ð¾
Ñģ ÐµÐºÑĢÐµÑĤ
ĠÐ¿ÑĢÐ°Ð² Ñĭ
ĠÐ¸ Ð½Ð¾Ðµ
ĠÑħÐ¼Ñĭ ÐºÐ½ÑĥÐ»
ĠÐŁ Ð¸Ñģ
ĠÐ¿ÑĢÐ¾Ð¼ ÐµÐ¶
ĠÐ½ ÐµÐºÐ¾
ĠÐ² Ð¾ÑģÑģ
ÑĤÐµÐ½ ÑģÐ¸Ð²
Ñĭ ÑģÐ»Ð¸
ĠÐ·ÐµÑĢÐº Ð°Ð»Ð¾
ĠÐ¢ Ñĥ
ĠÐŁ ÑĢÐ¾Ñģ
Ð°Ð· Ð°ÑĢ
ĠÐ´ Ð¾Ð»ÑĮÑĪÐµ
Ñģ Ñĳ
ĠÑģ ÐµÑĤÑĮ
Ð¸ ÑģÑı
ĠÐ·Ð°Ð½ ÑıÑĤÑĮ
ÐµÐ¼Ñĥ ÑģÑı
ĠÐ» ÐµÐ½
ĠÑĥÑģÐ¸Ð» Ð¸Ð¹
i b
e p
ĠÐ¾Ð± ÑħÐ²Ð°ÑĤ
ĠÑģÐº Ð²ÐµÑĢ
ĠÐ¿ÑĢÐ¾Ð´ÑĥÐº ÑĤÑĭ
ĠÐ´ÐµÐ¿ÑĥÑĤ Ð°ÑĤ
Ð³ Ð¾Ð¼
ÑĥÑĪ ÐºÐ¾Ð¹
ĠÐļÑĢÑĭÐ¼ Ð°
ĠÐºÑĢ ÑĭÐ»
ĠÐ¿ÑĢÐ¸Ð·Ð½ Ð°Ð»
ĠÐ¿ÑĢÐ¸Ðº Ð¾ÑģÐ½Ð¾Ð²
ĠÑĩÐµÑĤÐ²ÐµÑĢ ÑĤÑĮ
ĠÐ³ Ð¸Ð´
ĠÐ¶Ð°Ð» ÐºÐ¾
ĠÐ¾ ÑģÑĤÑĢÐ¾
ĠÐ¿ÑĢÐ¸Ð½Ð¸Ð¼ Ð°ÐµÑĤ
ĠÑĢÐµÐ°Ðº ÑĨÐ¸Ð¸
ĠÐ¿ÑĢÐ¾Ñģ Ð¸ÑĤÑĮ
ĠÐ¿Ð¾Ð´Ðº Ð»ÑİÑĩ
ĠÐ¾ÑĤÐ´ÐµÐ»ÑĮ Ð½ÑĭÐµ
ĠÐł ÑĥÐ´
ĠÑģÑĤ ÐµÑĢ
ĠÐ´ÑĭÐ¼ Ð°
ÑĩÐ¸Ðº Ð°Ð¼Ð¸
Ġ194 2
ĠÐ·Ð²ÑĥÑĩ Ð¸ÑĤ
ĠÐĶÐ¶ Ð¸Ð¼
ĠÐ¿Ð°Ð» Ð°ÑĤ
ĠÑĤÑıÐ¶ÐµÐ» ÑĭÐµ
ĠÐ·Ð´ ÐµÑĪ
ĠÐ°Ð²Ð³ÑĥÑģÑĤ Ðµ
ĠÐ¾Ð± Ð·
ÐµÐ² ÑĪÐ¸ÑģÑĮ
Ð¾ÑıÑĤ ÑģÑı
ĠÐ¡ Ð°Ð½Ð´
ĠÐ¿ Ð¸Ð´Ð¶
ĠÐľÐ°Ð¹Ðº Ð»
ÑĤ ÐµÐ¹
ĠÐ¿ÑĢÐ¸Ð± ÐµÐ³
ĠÐ· Ð¾Ð½Ðµ
ĠÐ¼ ÑıÑĤÐµÐ¶
ĠÐ·Ð²Ð¾Ð½ Ð¾Ðº
Ð½ Ð°Ð³
ĠÑĢÐµ Ð°Ð»Ð¸Ð·Ð°ÑĨÐ¸Ð¸
Ð¾Ð² ÑģÐºÐ¾Ð³Ð¾
ĠÑģÐ¾Ð·Ð´ Ð°Ð»
ĠÐ¿ÐµÐ½Ñģ Ð¸Ð¾Ð½
ĠÐ¿Ð¾Ð»ÑĥÑĩ Ð°ÑĤÑĮ
ĠÑĦÐ°ÐºÑĤ Ñĭ
ÐµÑĢ ÑĨ
ĠÐºÐ°Ð· Ð°Ð»Ð¸ÑģÑĮ
ĠÐ¿ÑĢÐ¾Ñģ Ð»ÐµÐ´
Ġ3 8
ĠÐŁÑĢ Ð¸Ðº
ĠÐ½Ð°ÐºÐ°Ð· Ð°Ð½Ð¸Ðµ
ĠÐ²ÑģÑı ÑĩÐµÑģÐº
ÂłÐĹ Ð°ÑĩÐµÐ¼
Ð¸ ÑĤÐ¾ÑĢ
ĠÑĥÐ´Ð¸Ð² Ð¸Ð»Ð°ÑģÑĮ
Ð ©
ĠÐĳÐ¾Ð»ÑĮÑĪ Ð¾Ð¹
ĠÑģÐµÐ· Ð¾Ð½
ĠÐ¿Ð¾Ð² ÑģÑİÐ´Ñĥ
ĠÐ´Ð°Ð² Ð°Ñı
ĠÐ¿Ð¾Ð»Ð¾Ð¶ ÐµÐ½Ð¾
ĠÐ´ Ð½Ðµ
Ð¸ÑĩÐµ ÑģÑĤÐ²Ð¾
ĠÐ±Ð¾Ñı Ð»Ð°ÑģÑĮ
ĠÐĽÐ¾Ð½Ð´ Ð¾Ð½
ĠÐŁ Ðŀ
or d
ĠÐ²Ð·Ð³Ð»Ñı Ð½ÑĥÑĤÑĮ
ĠÐĵ Ð¸ÑĤÐ»
ÐµÑĢ Ð°Ð¼
Âł Ñı
ĠÐ¸Ð· Ð³Ð½
ĠÑĦ Ð»Ð°Ð½
ĠÑģ ÐµÐ½Ð°
Ġ200 1
ĠÐ¿Ð¾Ð» ÑĥÐ´
in d
ĠÐ²Ð¾Ñģ Ð¿ÑĢÐ¸ÑıÑĤ
ĠÐĹÐ°Ð² ÑĤÑĢÐ°
ĠÐľÐ¾ Ð¸
ĠÑħÑĢÐ°Ð¼ Ð°
ĠÐ¿Ð¾ÑħÐ¾Ð¶ Ð¸
ĠÐĲÐ¼ÐµÑĢ Ð¸ÐºÐµ
ĠÐ·Ð°Ð½ÑıÑĤ Ð¸Ñı
ĠÐ¥ Ð¾ÑĢÐ¾ÑĪ
ĠÑģÐ¸Ð´ Ñı
ĠÐºÐ°Ð½ Ð°Ð»
ĠÐ¢Ð¾Ð¼ Ð°Ñģ
ĠÐ²ÑĭÐ±Ð¾ÑĢ Ñĭ
ĠÐ»Ð¸Ð½ Ð¸Ñİ
ĠÐĺÐ½Ð´ Ð¸Ð¸
Ð´ÐµÐ» Ð°
ĠÐ°Ð½ Ð°Ð»Ð¸ÑĤ
ĠÐ¾ÑīÑĥÑĤ Ð¸Ð»
ĠÐ²ÑģÑĤÑĢÐµÑĤ Ð¸Ð»Ð¸ÑģÑĮ
ĠÑĪÐµÐ¿ Ð¾ÑĤÐ¾Ð¼
ĠÑģÑĤÐ¾ÑĢ Ð¾Ð½Ð°
ĠÐ·Ð°Ñģ Ð»
ĠÐ¿ÑĢÐµÑĤ ÐµÐ½Ð´
ĠÐ¿ÐµÑĢÐµ ÑĥÐ»
ĠÐºÐ¾ÑĢÐ¸Ð´ Ð¾ÑĢÐµ
ĠÐ¿ÑĢÐ¾Ð¸Ð· Ð²
ĠÐ½Ð°Ð¿ Ð¾Ð»
ÑıÐ³ Ñĩ
ĠÐ¡ ÑĤÐµÑĦ
ĠÑģÐ»ÐµÐ´ÑĥÑİÑī ÐµÐ¹
Â» !
Ð½Ñı Ñħ
ĠÐ¿Ð¾Ñħ Ð²Ð°Ð»
ĠÐ¾ÑĤÐº ÑĢÐ¾
Ð¾Ñİ ÑģÑĮ
ĠÐ¿Ð¾Ð´Ð¾ÑĪ Ð»Ð¸
ĠÐ¡ÑĤÐ°Ð» Ð¸Ð½Ð°
ĠÐ¶ÐµÑĢÑĤ Ð²Ñĭ
ĠÐ¢ÑĢ ÐµÑĤÑĮ
ĠÐ²Ñĭ Ð²ÐµÐ´
ĠÐ¿Ð¾Ð½Ð°Ð´Ð¾Ð± Ð¸ÑĤÑģÑı
ĠÐĶ Ð°Ð»ÑĮ
ĠÐ¿Ð¾Ð»ÑĥÑĩ Ð¸ÑĤ
ĠÑģÑĤÐ°ÑĢ Ð°Ñı
ĠÐĲ Ñģ
ĠÐ·Ð°Ðº ÑĥÐ¿
ĠÐºÐ¾Ð¼Ð½ Ð°ÑĤÐ°
ÑĦ Ð°Ð»ÑĮ
ĠÐ² Ð¾ÑĢÐ²
ĠÑĩ ÐµÐ¹
ĠÑĩÑĥÐ² ÑģÑĤÐ²Ð¾Ð¼
ĠÐ¸ Ðº
ĠÐ£ Ð¸Ð»ÑĮ
ĠÑĥÐ¿ÑĢÐ°Ð² Ð»ÑıÑĤÑĮ
ĠÑĥÐ´Ð¸Ð² Ð»ÐµÐ½Ð¸ÐµÐ¼
Ð¼ Ð¼
ĠÑģÑĥ Ð½ÑĥÐ»
ĠÐ¿ÑĢÐ¾Ð² Ð¾Ð·Ð³
ĠÑĥÐ»ÑĭÐ± ÐºÑĥ
ĠÑĢÐ°Ð´ Ð¸Ðº
ĠÑĩ ÐµÑĪ
ĠÐĺ ÐµÑĢ
ĠÐ¾Ñģ Ð¼ÐµÐ»
ĠÐ¾Ñĩ ÑĥÑĤ
Ñħ Ðµ
ĠÑĢÐ°Ð·Ð² ÑıÐ·
ĠÑģÐ°Ð¼Ð¾Ð»ÐµÑĤ Ð¾Ð²
ĠÐ¿ÐµÑħ Ð¾ÑĤ
ĠÐļÐ¸ÐµÐ² Ðµ
ĠÐ¿ÑĢÐ¸Ð½ ÐµÑģÑĤÐ¸
ĠÐ¾Ð±ÑĢÐ°ÑĤ Ð¸ÑĤÑĮÑģÑı
Ð¸Ð´ ÐµÐ½ÑĤÐ°
ÐºÐ¾Ð² Ð¾Ð³Ð¾
ĠÐ²Ð¾ÑģÑĤ Ð¾ÑĢÐ³
Ð¸ÑĤ Ñı
ÐŁ Ð¾ÑĩÐµÐ¼Ñĥ
ĠÐºÐ¾Ð¼ Ð¸ÑĤÐµÑĤ
ĠÑĩÐµÑĢ Ð½Ð¾Ð³Ð¾
ĠÑģÑĤÐ¾ Ñı
ĠÐ¿ÑĢÐµÐºÑĢÐ°Ñģ Ð½ÑĭÐ¹
ĠÐ²ÐµÐ»Ð¸Ñĩ Ð°Ð¹
ÑĤ Ð¾Ð¹
Ð½ Ñĸ
ĠÑģÐ»ÐµÐ´Ð¾Ð² Ð°ÑĤÐµÐ»ÑĮÐ½Ð¾
ĠÐ¾Ñģ Ð¼Ð°ÑĤÑĢ
ĠÐ¼Ð°ÑĢ ÑĤÐµ
ĠÑĤÐ¾Ð¿ Ð»Ð¸Ð²
ĠÐ¾ÑģÐ½Ð¾Ð² Ð½ÑĭÐµ
ĠÐ²ÐµÐ¶ Ð»Ð¸Ð²Ð¾
ĠÐºÐ¾Ð» Ð¾Ð´
ĠÐ·Ð°Ð¶ Ð¸Ð³
ĠÐ¿ÑĢÐ¸Ð² ÐµÐ»Ð¾
ĠÑģÑĥÐ¼ ÐºÑĥ
ĠÑģÐ»ÐµÐ´ÑĥÑİÑī ÐµÐ¼
ĠÐ¸Ð· Ð³
ĠÐ¼Ð°ÑĢÑĪ ÑĢÑĥ
ĠÐ¿ÑĢÐ¾Ð¼ÑĭÑĪÐ»ÐµÐ½ Ð½Ð¾ÑģÑĤÐ¸
ĠÑģÐ¸Ð»ÑĮ Ð½ÑĭÐ¼
ĠÑģÐ¼Ð¾Ð¶ ÐµÑĪÑĮ
ĠÐ¾ÑĤÐ»Ð¸Ñĩ Ð°ÐµÑĤÑģÑı
ĠÐºÐ°Ðº Ð¾Ð¼Ñĥ
ĠÐ¾Ð±ÑģÑĤÐ¾ÑıÑĤÐµÐ»ÑĮ ÑģÑĤÐ²
ĠÐ´ÐµÐ» Ð°ÐµÑĪÑĮ
ĠÐ¿ÑĢÐ°Ð² Ð¾Ð¼
ĠÐ¿Ð¾Ð± ÐµÐ¶Ð°Ð»
ĠÐĺ Ð±Ð¾
ĠÐ¿Ð¾Ðº Ð¸Ð´
ĠÐ» ÑĳÐ³
ÑĥÐ½ Ð´Ñĥ
ĠÐ³Ð¾Ð²Ð¾ÑĢ Ð¸
ĠÐ¾Ñĩ Ð¸Ñī
ĠÑĥÑĤ Ð¾Ð¼
ĠÐ»ÐµÐ³ ÐµÐ½Ð´
Ð° ÑĨÐ¸Ñı
ĠÐ¸ Ð½Ð¾Ð³Ð¾
ĠÑįÐ¿Ð¾Ñħ Ð¸
ĠÐ¶ÐµÐ» Ð°ÐµÑĤ
ĠÐĴ Ð°Ð´Ð¸Ð¼
Ñĩ ÑĥÑĤÑĮ
ĠÐ±Ð¾ ÑıÑĤÑĮÑģÑı
ĠÐ½Ð°Ñĩ Ð½ÐµÑĤ
Ð¾Ñģ Ð»Ð¾Ð²
ĠÑģÐ²ÐµÑĢ ÐºÐ°
ĠÑģÐ¶ Ð°Ð»
ĠÐĽ Ð¸Ð»Ð¸
Ð¾Ð» Ñĭ
Ð»ÐµÑĩ ÐµÐ½Ð¸Ñı
ĠÐļ Ð²
ĠÐ°ÑĢÑħ Ð¸Ð²
ÐµÐ½ ÑģÑĤÐ²Ð¾
ÐµÐ· ÑĤÐ¸
ĠÐ±ÐµÐ» Ð¾Ð³Ð¾
ĠÐ´ÑĥÑĢ Ð°Ðº
ĠÐ¿Ð¾ ÑģÑĤÑĢÐ¾Ð¹
ĠÐ¾Ð· Ð°Ð±Ð¾Ñĩ
ÑĬ ÐµÐ¼
ĠÐ´ÐµÐ» Ð°Ñİ
ĠÐ·Ð°Ð± ÑĭÐ»Ð¸
ĠÐ±Ð¾Ð»ÐµÐ· Ð½ÑĮ
ÑģÑĤ Ð¸ÑĤÑĮ
ĠÐ½Ð°ÑģÑĤÐ¾ÑıÑī Ð°Ñı
ĠÐł Ð¾Ð½
ĠÐ¿ÑĢÐ¾Ð¸Ð·Ð²ÐµÐ´ ÐµÐ½Ð¸Ñı
ĠÐ·Ð°ÑıÐ² Ð¸Ð»Ð¸
ĠÐ¿Ð¾Ð³Ð¸Ð± ÑĪÐ¸Ñħ
ÑĦ Ð¸Ð»ÑĮ
ĠÐ¿Ð¾Ð³ ÑĢÐ°Ð½Ð¸Ñĩ
Ð½ Ð¸ÑĤÐµ
ÐµÐº ÑģÑĤ
ĠÐ´ÑĥÐ¼ Ð°Ñı
ĠÐ²ÐµÑĢÑħ Ð¾Ð²
ĠÐ´ÐµÑĢÐ¶ Ð°ÑĤÑĮÑģÑı
ÑıÐ³ Ð¸Ð²Ð°Ñı
ÐµÑĩ ÐµÐ½Ð¸Ñı
ÑĥÐ½ Ð½
ÑģÐ»ÑĥÐ¶ Ð±Ð°
Âł ÑįÑĤ
Ð¸ÑĢ Ð°ÑİÑĤ
ÑĥÐ· Ñĥ
ĠÑģÑĤÑĭÐ´ Ð½Ð¾
ĠÑģÐ»ÐµÐ´ÑĥÑİÑī ÐµÐ³Ð¾
ĠÐ´Ð¾ÑģÑĤÐ¸Ð¶ ÐµÐ½Ð¸Ñı
ĠÐ¿Ð¾Ð´Ð´ÐµÑĢÐ¶ Ð¸Ð²Ð°ÑĤÑĮ
ĠÐ»Ð¾Ð² ÐºÐ¾
ĠÐ½Ð°Ð·Ð² Ð°Ð½Ð¸Ñı
ĠÑĥÐ·Ð½ Ð°Ð²
20 15
Ñı ÐºÐ¾Ð²
Ð´ ÑĥÑĤ
Ð¸Ð² Ð¸ÑĤÐµÐ»ÑĮÐ½Ð¾
ĠÐ´ÐµÑģÑıÑĤ ÐºÐ¾Ð²
ĠÐ¿Ð»Ñİ Ñģ
ÐµÐ· Ð»Ð¸
ĠÐ± Ðµ
ĠÐ°ÑĢ Ð¸ÑģÑĤÐ¾ÐºÑĢÐ°ÑĤ
ĠÐ¸Ð·Ð´ Ð°Ð½Ð¸Ðµ
ĠÑįÐºÑģÐ¿ÐµÐ´ Ð¸ÑĨÐ¸Ð¸
ĠÐ¾Ð³Ð»Ñı Ð½ÑĥÐ»ÑģÑı
ĠÐ°Ð¼ Ð±
ĠÑĥÐ±ÐµÐ´ Ð¸ÑĤÑĮÑģÑı
ĠÐ½Ð¾Ð¼ ÐµÑĢÐ°
ĠÐ¼ÐµÐ»ÑĮ Ðº
Ðº ÐµÐ¹
r an
ĠÐ¼Ð¾ ÑĤÐ¾ÑĢ
ĠÐķ Ð»ÐµÐ½Ð°
ĠÐ¿Ð¾Ð¾Ð±ÐµÑī Ð°Ð»
ĠÐ¡Ð¾Ð² ÑģÐµÐ¼
ĠÐ¿Ð¾Ð¶ Ð°Ð»Ð°
ĠÐ½Ð°Ð´ÐµÑı ÑģÑĮ
ĠÐĶ Ð¸Ð¼
ĠÐ±Ð¾Ð»ÑĮ Ð½Ð¸ÑĨÑĥ
ĠÐ¸ÑģÐºÑĥÑģ ÑģÑĤÐ²Ð¾
ĠÐ¡Ð¾Ð²ÐµÑĤ ÑģÐºÐ¾Ð³Ð¾
ĠÑĥÐ´Ð°ÑĢ Ñĭ
Ð¾ÑĢ Ð°Ð¶
ÑĢÐ°Ð· ÑĥÐ¼
c t
ÐµÑĩ ÐºÑĥ
ĠÑĤ ÑĳÐ¼
ĠÑģÑĥÐ´ Ð½Ð¾
ĠÐ³Ð¸Ð¿ Ð¾ÑĤ
ĠÐ¸ Ð½ÑĭÐµ
ĠÐ·Ð¸Ð¼ Ð¾Ð¹
ĠÐ½Ð°Ð³ ÑĢÑĥÐ·
ÑĥÐ½ ÑĤ
ĠÐĽÐµ Ð¾Ð½
ĠÐ¼ Ð¸Ð»ÑĮ
ĠÐ³ÑĢÐ°Ð½ Ð¸ÑĨÐµ
ĠÐ±ÐµÐ¶ Ð°Ð»
ÐµÐ¶ Ð´Ð°
Ġ19 18
Ð¸ÑĢ Ð°Ð»ÑģÑı
o b
ÑģÐº Ð°Ð·ÑĭÐ²
ĠÑģÑĤÑĢÐ°Ð½ Ð¸ÑĨ
ĠÐ¿Ð¾Ð´ ÑģÐºÐ°Ð·
ĠÐ·Ð°Ð² Ð¾Ð´Ð°
ĠÐ½Ð¸Ñĩ ÑĥÑĤÑĮ
ÐĿ Ð°Ð´
ĠÑĥÑĩÐ° ÑģÑĤÐ²Ð¾Ð²Ð°Ð»
ĠÐ²ÑĭÑģ Ð¾ÑĤÐµ
ĠÑĩÐµÑĤÐ²ÐµÑĢ Ð³
ĠÐŀ ÑģÑĤÑĢ
ĠÐ¿ÑĢÐ¾Ñģ Ð»Ð°Ð²
5 2
ĠÐ¸Ð½ÑģÑĤÐ¸ÑĤÑĥÑĤ Ð°
ĠÐ´ÑĢÐµÐ² Ð½Ð¸Ñħ
ĠÐķ Ð»ÑĮ
Ð¸ÑĤ ÐºÐ¸
ĠÐ¿ÑĢÐ¾Ð²Ð¸Ð½ ÑĨÐ¸Ð¸
Ð»Ð¸Ð· Ð¸
ĠÐľ ÑĥÑħ
ÐĲ Ð»ÑĮ
ĠÑĢ ÑİÐº
Ð°Ð¼ ÑıÑĤ
ĠÑģÐµÑĢÐ´ ÑĨÐµÐ¼
Ñĭ ÐºÐ¾Ð²
ĠÑĩÐ»ÐµÐ½ Ð¾Ð¼
ĠÑĢÐµÐº Ñĥ
ĠÐº Ð¾Ð¹
ĠÐ²ÑĭÐ¿ ÑĥÑī
ĠÑģÑĨÐµÐ½ Ðµ
ĠÐļÐ¾ÑĢ Ð¾Ð»ÐµÐ²
ĠÐ· Ð¾Ð½Ñĭ
ĠÐ½Ð°Ð¼ ÐµÑĢÐµÐ½
ĠÐ½Ð°Ð²ÐµÑĢ Ð½Ð¾
ĠÐ¾Ñĩ ÐºÐ¾Ð²
ĠÐ¿Ð¾ÐºÐ°Ð· Ð°Ð»Ð¸
Ð¸Ð² Ð°ÐµÑĪÑĮ
ĠÑĨ ÐµÐ»ÑıÑħ
ĠÑģÑĤ Ð¸Ð»Ðµ
Ð¸Ñħ Ð¾Ð´
ĠÐ¥ Ð¾Ð´
ÐµÐ² ÑĪÐµÐ³Ð¾
ĠÐ¸ÑģÑĩÐµÐ· Ð»Ð¸
ĠÐ²Ð°ÑĢ Ð²Ð°ÑĢ
Ð¸ÑĤ ÑĭÑħ
ĠÐ³Ð»Ð°Ð· Ð°Ð¼
ĠÐ¾ÑĤÐ´Ð¾Ñħ Ð½ÑĥÑĤÑĮ
ĠÐ³ Ð¸
ĠÐ¼ÐµÐ» ÐºÐ¸Ðµ
ÂłÐĲ Ñħ
ĠÑĥÐ³ Ð»ÑĥÐ±
Ð¿Ð¾Ð» Ð·
Ð¾Ñħ Ð¾Ð·ÑıÐ¹
5 8
ĠÐ¿Ð¾Ðº Ð¾Ñģ
ĠÐµÐ´Ð¸Ð½ ÑģÑĤÐ²ÐµÐ½Ð½Ð¾Ðµ
Ð°Ð½Ð´ Ñĭ
ĠÐ¡ÐµÐ²ÐµÑĢ Ð½Ð¾Ð¹
ĠÐľ Ð°Ð¼
ĠÐ¾Ð±ÑĢÐ°Ð· Ð¾Ð²
ĠÑģÐ¾ÑĨÐ¸ Ð°Ð»ÑĮÐ½Ð¾Ð¹
ĠÐ¿ÑĢÐ¾Ð¸Ð· Ð¾Ð¹Ð´ÐµÑĤ
ĠÐ½ÐµÐ¾Ð±ÑħÐ¾Ð´Ð¸Ð¼ ÑĭÐµ
ĠÐ´ÑĢÐ°Ð³Ð¾ ÑĨ
Ġ194 3
ĠÐ± ÐµÐ½Ð·
ĠÐ¿Ð¾ÐºÐ°Ð· Ð°Ð»Ð°
Ð²Ð¾Ð· Ð´
ĠÐ·Ð° Ð¾ÑĢ
i an
ÑģÑĤÐ² ÑĥÑİ
ĠÑĥÑĤ Ð¾Ð¿
ĠÐ½ Ð¾ÑĤ
ĠÐ½ÐµÐ· Ð½Ð°Ñĩ
ĠÑĥÐ½Ð¸ Ð¶
ĠÐ²ÑĭÑģÑĤÑĥÐ¿ Ð¸Ð»
ĠÐ»Ð¸ÑģÑĤ ÑĮÑı
ĠÑĪ ÐµÐ²ÐµÐ»
ĠÐ³Ð²Ð°ÑĢÐ´ ÐµÐ¹
ĠÐ§ ÐµÑħ
ĠÐ¿Ð¾Ñħ Ð¸Ñī
ĠÐ¼Ð°Ð»ÐµÐ½ÑĮ ÐºÑĥÑİ
ĠÐ¼Ð°Ð´ Ð°Ð¼
Ð³ ÐµÐ½
ĠÐ´Ð¸Ð² Ð°Ð½
ĠÐ¿ÑĥÑĤÐµÑĪÐµ ÑģÑĤÐ²Ð¸Ðµ
ĠÑĤÑĢÐ¸Ð´ÑĨ Ð°ÑĤÐ¸
ĠÐ° Ð¶
ĠÐ°Ð¼ÐµÑĢÐ¸ÐºÐ°Ð½ ÑģÐºÐ¸Ð¹
ĠÐ¼Ð°Ð»ÐµÐ¹ ÑĪÐµÐ³Ð¾
ĠÐ¸Ð· Ð¾Ð±ÑĢÐ°Ð·
ĠÐ·Ð°Ð¿ Ñı
ĠÑģÑĤÐ°ÑĢ ÑĪÐµÐ³Ð¾
ĠÐ¼Ð°ÑĤÐµÑĢÐ¸ Ð°Ð»Ð¾Ð²
ĠÑĢÐµÐ±ÐµÐ½ ÐºÐ¾Ð¼
ĠÐ¿ÑĢÐ¸Ñĩ Ð¸Ð½Ð°Ð¼
ĠÑĤ ÑĢÐµÐ¼Ñı
ĠÐ²Ñĭ ÑĢÑĥÑĩ
Ð°Ð¹ Ð´Ð¶
ĠÐ¿ÑĢÐµÐ´ Ð¾ÑĤÐ²
ĠÐ±Ð¾ Ð¸ÑĤÑģÑı
ĠÐ¶ÑĥÑĢÐ½ Ð°Ð»
Ð°Ð½ÑĤ Ð¾Ð¼
ĠÐºÑĢÐ°Ñģ Ð¾ÑĤÑĭ
ĠÐ¾ÑĤÐ´ÐµÐ» ÐµÐ½Ð¸Ñı
Ð¸ÑĨ Ð¸ÐµÐ¹
ĠÑĢÐ°Ðº ÐµÑĤÑĭ
ĠÐĲÐ· Ð¸Ð¸
Ð¸Ðº Ð°ÑĢ
ĠÐ¸Ð· Ð»Ð¸ÑĪ
ÂłÐŀ Ð±
ĠÐĶ ÑĢÐµÐ²
ĠÐ¾Ðº Ð½Ð¾Ð¼
ĠÑĤ ÑıÐ½
Ð°Ð³ Ð¾Ð³
Âł %
ĠÐ½Ð°Ñĩ Ð°Ð»Ð¸ÑģÑĮ
ĠÑĤÐµÑĢÐ¿ ÐµÑĤÑĮ
ĠÐ¾ÑĤÐ¿ÑĢÐ°Ð² Ð¸ÑĤÑĮ
ĠÐ¼Ð°Ñģ Ð»Ð°
ĠÐ¿Ð» ÐµÑĤ
ĠÐµÐ¶ ÐµÐ³Ð¾Ð´
Ð»ÑĮ Ñı
ĠÐ¿ÑĢÐ¾Ð¸Ð·Ð¾ÑĪ Ð»Ð°
ĠÐ¿ÑĢÐ¸Ð² ÐµÐ»Ð¸
ĠÐŁ Ð¾Ð·Ð´
ĠÐ£ Ð³
Ð²Ð°Ð½ Ð³ÐµÐ»
ĠÐ½Ð°Ð¿Ð°Ð´ ÐµÐ½Ð¸Ñı
ĠÑĥÑģÑĤ Ð¾Ð¹ÑĩÐ¸Ð²
ĠÐ»Ð°ÑģÐº Ð¾Ð²Ð¾
Ð³Ð¾ ÑĢÑĮ
Ðº ÑĤÐ¾
u p
ĠÐĺÐ· Ð²Ð¸Ð½
ĠÐ¿Ð¾Ð´ Ð¼Ð¸Ð³
ĠÐ¾Ð¿ ÑĥÐ±Ð»Ð¸ÐºÐ¾Ð²
.] ,
ĠÐ½ÐµÐ¼ ÑĨÐµÐ²
ĠÐ¿ÑĢÐ¾Ñģ Ð²ÐµÑĤ
Ð¿Ð¾Ð» Ð¸ÑĤ
ĠÐ¿Ð¾ÑģÐ»ÐµÐ´ Ð¾Ð²Ð°ÑĤÐµÐ»ÑĮ
ĠÐ¼Ð¾Ð» Ð¾ÑĤ
Ġs t
ĠÐ´Ð¾Ñģ Ð¿
Ðµ ÐµÐ²
ĠÐĵ Ñĥ
ĠÐ¶ Ð°Ð´
ĠÐł Ð¾Ñģ
ĠÐ¿Ð¾Ð² ÑĭÑģ
ĠÐ¼ÐµÑģÑĤ Ð½Ð¾ÑģÑĤÐ¸
ĠÐ¾ÑīÑĥÑī ÐµÐ½Ð¸Ñı
ĠÐĹÐµÐ¼ Ð»Ñı
ĠÐ½Ð°Ð·Ð½Ð°Ñĩ ÐµÐ½Ð¸Ñı
ĠÐ¥ Ð°Ð½
ĠÐŁ Ð¸ÑĤÐµÑĢ
ĠÐ½ÐµÐ¾Ð±Ñĭ ÐºÐ½Ð¾Ð²
ÐµÐº Ð°ÐµÑĤ
ĠÐ¿Ð¾Ð» Ð´
ĠÐ² Ð¾ÑĢÐ¾Ð½
ĠÐļ Ð°Ð»Ð¸
ĠÐ·Ð°ÑĢ ÑıÐ´
ĠÐ¡ÐºÐ¾ÑĢ Ð¾
ÐµÐ¶ Ð¸ÑĤ
Ġ201 7
ĠÑįÐ½ ÐµÑĢ
ĠÑĤÑıÐ¶ÐµÐ» ÑĭÐ¹
Ð½Ñı Ðº
ĠÐ¼ÐµÐ½ÑĮ ÑĪÐµÐ¹
ĠÑģÑĥÐ´ Ðµ
ĠÑģÑĩÐµÑĤ Ð¾Ð¼
ĠÐ±ÑĢÐ¾Ñģ Ð¸Ð»Ð°ÑģÑĮ
ĠÐ¶ÐµÐ»ÐµÐ· Ð½Ð¾Ð¹
ĠÑĤÐ¾Ð²Ð°ÑĢ Ð¾Ð²
ĠÑĢÐµÑģÑĤÐ¾ÑĢ Ð°Ð½
ĠÐ¤ Ð°ÑĢ
ĠÑĥÑģÐ» ÑĥÐ³Ð¸
ĠÐ½Ð°ÑĩÐ°Ð» Ð¾Ð¼
ĠÐ¿Ð°ÑĢÑĤ Ð½ÐµÑĢ
ĠÐł Ðµ
ĠÐ·Ð°Ð² Ð¸ÑģÑĤ
ĠÑĢÐµÑģÐ¿ ÑĥÐ±Ð»Ð¸Ðº
ĠÐ¿Ð¾Ð´ÑĢÑĥÐ³ Ð°
ĠÐ¾Ð¿ÑĢ Ð¾Ð²
ĠÐ» Ð¾ÑĢ
ĠÑį Ð²Ð¾Ð»Ñİ
Ð»ÐµÐ½ Ð½Ð¾Ð¼
ĠÐ·Ð¾Ð» Ð¾ÑĤÐ°
Ð¾Ð»Ð¾Ð³ Ð¸ÑĩÐµÑģÐºÐ¸Ñħ
ÐµÐ»ÑĮ Ñģ
ĠÐ¿Ð¾Ð³ Ð»Ð°Ð´
ĠÐŁÑĢÐ¸ Ð±
ĠÑģÐ¾Ð´ÐµÑĢÐ¶ Ð¸ÑĤ
ĠÐ²Ð½ÐµÑĪ Ð½ÐµÐ¹
Ñı ÑıÑģÑĮ
ĠÑĢÐ¾ÑģÑģÐ¸Ð¹ ÑģÐºÐ¸Ðµ
ĠÐ´Ð²Ð¾ÑĢ ÑĨÐ°
ĠÐ½Ð°ÑĤ Ðº
Ð» Ð°Ð½Ð°
Ð¾Ð» Ð¾Ðº
ĠÐ¿Ð¾Ð» Ð½Ð°Ñı
Ġ200 2
ĠÑĤÑĢ ÐµÑģÐº
ĠÐ°Ðº ÑĤÑĢ
ĠÐ²ÑĭÐ± ÑĢÐ°ÑĤÑĮ
ĠÐ¾Ð± ÑīÐµÐµ
ĠÐ¿ÑĢÐ¸Ð³Ð»Ð°Ñģ Ð¸Ð»
ĠÐ°Ð³ÐµÐ½ÑĤ ÑģÑĤÐ²Ð°
Ð¸Ðº Ð°ÑĤ
ĠÐ³ÑĢ ÐµÑĪ
ĠÐ¿ÑĢÐµÐ´ÐµÐ» Ñĭ
ĠÐ²ÐµÐ´Ð¾Ð¼ ÑģÑĤÐ²Ð°
ĠÑĢÑĥÐºÐ¾Ð²Ð¾Ð´ ÑģÑĤÐ²Ð°
ÐµÐ· Ñĭ
ĠÐ§ ÑĥÐ²
ĠÐ¾Ð± Ð½ÑıÐ»
ĠÐ¿Ð¾Ð»Ð¾ÑĤ ÐµÐ½
ĠÐºÐ¾ÑĢÐ¿ Ð¾ÑĢÐ°
ĠÑģÑĭ Ð½Ñĥ
ĠÐŁÐ¾Ð´ ÑĥÐ¼
ĠÐ²ÐµÐ» Ð¾ÑģÐ¸Ð¿
ĠÐ¿Ð¾Ð½ÑıÑĤ Ð¸Ðµ
ĠÐ¾Ð¶Ð¸Ð´ Ð°Ð½Ð¸Ð¸
ĠÑģÐ¿ÐµÑĨÐ¸Ð°Ð»Ð¸ÑģÑĤ Ð¾Ð²
ÑĮ Ð¸Ñħ
Ġb e
ĠÑĢÐ°Ð· Ð¼ÐµÑģÑĤ
ĠÑĥ ÐµÑħÐ°ÑĤÑĮ
ĠÑįÐº ÑģÑĤÑĢ
ÑĮ ÐµÐ³Ð¾
ĠÐľ ÐµÐ½
ĠÐ²Ð¾Ð·Ð½Ð¸Ðº Ð»Ð°
ĠÐ¿ÑĢÐ¾Ð¸ÑģÑħ Ð¾Ð¶Ð´ÐµÐ½Ð¸Ñı
ĠÐ´ÑĢ Ð¾Ð³
ĠÑĩ ÐµÑģÑĤÐ¸
ĠÑģÐ¼Ð¾ÑĤÑĢ Ñİ
ĠÑĥÐ³ÑĢ Ð¾Ð·Ñĭ
ĠÐłÐ¸Ñĩ Ð°ÑĢÐ´
ĠÐ¸Ð· ÑĢÑıÐ´
ĠÑĢÐ°Ð½ Ñĭ
ÑģÑĤÐµ ÑģÑĤÐ²ÐµÐ½Ð½Ð¾
ĠÐ°Ð¿ÑĢ ÐµÐ»Ðµ
5 9
ĠÐĸ Ð°Ð½
ĠÐĺÑģÑĤ Ð¾ÑĩÐ½Ð¸Ðº
ĠÐ¿Ð¾Ð¿ Ð¾Ð»
c i
ĠÐ³Ð¾ÑģÑĥÐ´Ð°ÑĢ ÑģÑĤÐ²ÐµÐ½Ð½ÑĭÑħ
ĠÐ²Ð¾ÑģÐ¿ Ð¸ÑĤÐ°Ð½
Ð¾Ðµ Ñħ
ĠÐ±Ð¾Ð»ÑĮÑĪ Ð¾Ð¼
Ġ194 4
ĠÑģÐ¾Ð² ÐµÑģÑĤÐ¸
ĠÐľ Ð°Ñħ
ĠÐ±Ð¾Ð»ÑĮÑĪÐ¸Ð½ ÑģÑĤÐ²Ðµ
Ð½ Ð¸Ð½
ĠÐ·Ð°Ð¿ ÐµÑĢ
ĠÐ¼Ð°Ð»ÐµÐ½ÑĮ ÐºÐ¸Ñħ
ĠÐºÑĥÑĩ Ñĥ
Ð°Ð½ Ð¸ÐµÐ¹
ĠÐ¦ Ðļ
ĠÐ´Ð¾Ð»Ð³Ð¾ Ðµ
Ð¾ÑĤ Ð»Ð°Ð½Ð´
ÑĥÑĤ Ñĭ
Ð¸Ð» Ð¸Ð·
ĠÐ±ÐµÐ» Ð¾ÑĢÑĥÑģ
ĠÑħ Ð¸ÑĢÑĥÑĢ
ĠÐĸÐµÐ½Ñī Ð¸Ð½Ð°
ĠÐ¸Ð·Ð²ÐµÑģÑĤ Ð½ÑĭÑħ
ĠÑģÐ»ÑĥÐ¶ Ð¸ÑĤ
Ð°Ð² ÑĤÑĢÐ°
ĠÐ½ÐµÐ² Ð·
Ð¾ÑģÑĤ Ð°Ð½
ĠÐ¿Ð¾ÑĤÐµÑĢ ÑıÐ»Ð°
v er
ĠÑĥ Ð»Ð¸Ñĩ
ĠÐĴ Ð°Ð»ÑĮ
ĠÐ¿Ð¾ÑģÐº Ð¾ÑĢ
ĠÐ±Ð¸Ð·Ð½ÐµÑģ Ð°
ĠÑĢÐ°Ð· Ð¶
ĠÐ¾ÑĢÐ³Ð°Ð½Ð¸Ð· Ð¼Ð°
ĠÑģ Ð°Ð½ÑĤ
Ð½ ÐµÐ»Ð°
ĠÑģÑĤÐ°ÑĢ Ð°Ð»Ð°ÑģÑĮ
ĠÐ´ÐµÐ» Ð°ÐµÑĤÑģÑı
ĠÐ¡Ðº Ð°Ð¶Ð¸
ĠÑĢÐµÐºÐ¾Ð¼ ÐµÐ½Ð´
Ð¸ÑĢÐ¾Ð² Ð°Ð»ÑģÑı
Ġ #
ĠÐ¾ÑģÑĤÐ°Ð² Ð°Ð»Ð°ÑģÑĮ
Ð»Ð¸Ð· Ð¾ÑģÑĤÐ¸
ĠÐ³ Ð°
ĠÑĢÐµÐº Ð°
ĠÐ¿ÑĥÑĤÐµÑĪÐµ ÑģÑĤÐ²Ð¸Ñı
ĠÐ¿ÑĢÐ¾Ñģ Ð½ÑĥÐ»ÑģÑı
ĠÐ¿Ð¾ÑĤÐµÑĢ ÑıÑĤÑĮ
ĠÑģÑĤÐ¾Ð» Ð¸Ðº
ĠÐ¸ ÐµÑĢ
ĠÐ±Ð¾Ðº Ð°Ð»
ÑĦ Ð¸Ð»
ĠÐ¯ ÑĢ
ĠÐ² Ð¸ÑĢÑĥ
ĠÐ¾ÑĤ ÑĨÐ¾Ð²
ĠÑĤÑĭÑģÑıÑĩ Ñĥ
ĠÐķ ÑīÑĳ
ĠÐ·Ð°Ð´ Ð°Ð½Ð¸Ðµ
ĠÐ¸Ð·Ð¾Ð±ÑĢÐ°Ð¶ ÐµÐ½Ð¸Ðµ
ĠÐ´Ðµ ÑıÑĤ
ĠÐ²ÑģÑĤÑĢÐµÑĤ Ð¸ÑĤÑĮ
ĠÑģÐ¸Ð» Ðµ
ĠÑģÑĥÐ¿ ÐµÑĢ
ĠÐ¿Ð¾ÑĢ Ð¾Ð´
Ð² Ð°Ð¹
ĠÑģÑĩÐ¸ÑĤ Ð°Ñı
ĠÑĤÐ¾ ÑĪ
ĠÐ¸Ð½ ÑĤÐµÐ½ÑģÐ¸Ð²
Ð¾Ð²Ð°Ð½ Ð½ÑĭÐ¼
ĠÐ½Ð°ÑĪ Ð¸Ð¼Ð¸
Ð¾Ð¿ ÐµÑĢ
ĠÐ¸Ð´ ÐµÐ½ÑĤ
ÑĪÑĥÑİ ÑģÑı
ĠÑģÐ¿ Ð¸ÑĤ
ĠÐ´Ð°Ð² Ð»ÐµÐ½Ð¸Ðµ
Ñģ Ð¸Ñģ
ÑĥÐ¼ Ñĭ
ĠÑħ Ð¸ÑĤ
ĠÐ¼Ð°Ñģ ÑģÐ°
ĠÐºÐ² Ð°Ð»Ð¸
ĠÑĦÐ¾Ð½ Ð°ÑĢ
ĠÐ²Ñĭ Ð´Ð°
7 8
ÑĢÑĥÐ¿Ð¿ Ð°
ĠÐ¿Ð¾Ð» ÑĥÐ¼
ĠÐĳÐ¾Ð»ÑĮÑĪ Ð¸Ð½ÑģÑĤÐ²Ð¾
ĠÐ¿ÑĢÐ¸ÑıÑĤ ÐµÐ»ÑĮ
Ð² Ð°ÑģÑĤ
Ñī Ð°Ñı
ĠÑģ ÐµÐ³Ð¾
ĠÐ¸Ð½ÑĤÐµÐ»Ð»ÐµÐº ÑĤÑĥ
ĠÐ¿Ð¾ ÐµÑħÐ°Ð»
ĠÐ²Ñģ ÐµÐ²
ĠÐ´Ð¶ ÐµÐ½ÑĤÐ»ÑĮ
Ñı Ð´Ð¸
ĠÐŀÑĤÐµÑĩÐµ ÑģÑĤÐ²ÐµÐ½Ð½Ð¾Ð¹
ĠÐ½Ð°Ð²ÐµÑĢ ÑħÑĥ
ĠÑģÐµÐ· Ð¾Ð½Ðµ
Ġ ...
ĠÑĢÐµ Ð°Ð»ÑĮÐ½Ð¾ÑģÑĤÑĮ
ĠÐ¿Ð¾Ñħ Ð¸ÑĤ
19 8
ĠÑģÑĤÑĢÐ°Ð½ Ð½ÑĭÐ¹
ĠÐºÑĢÐ¸Ñĩ Ð°Ð»
os t
ÑĤ ÑĢÐ°Ð½
ĠÐ±Ð¾Ð»ÑĮÑĪÐµ Ðµ
ĠÐĽÐµÐ½ Ð¸Ð½Ð³ÑĢÐ°Ð´
ĠÐ¿Ð¾ÑģÐ¿ÐµÑĪ Ð¸Ð»
ĠÐ¡ ÑĢÐ°Ð·Ñĥ
ĠÑģ ÑĥÐ»
Ð¾Ð² ÐºÐ¸
ĠÑĩÐ°ÑģÑĤ Ð¸ÑĩÐ½Ð¾
Ð² Ð°Ð¶
ĠÐ¼Ð¸Ð»Ð¸ ÑĨÐ¸Ð¸
ĠÑĪÐ¸ÑĢ Ð¾ÐºÐ¾Ð¹
Ð¸Ð²ÑĪÐ°Ñı ÑģÑı
ĠÐ¢ÑĥÑĢ ÑĨÐ¸Ð¸
ĠÐ»ÐµÐ· Ð²
ĠÐ¿Ð¾Ð· Ð°Ð±Ð¾ÑĤ
ÐŁÐ¾Ñģ Ð»ÐµÐ´
ÐłÐ¾ÑģÑģ Ð¸Ñı
ĠÑĢÐ° ÑĨÐ¸Ð¾Ð½
ĠÐĵÐ°Ð± ÑĢÐ¸
ĠÑĢÐ°ÑģÑģÐ¼Ð°ÑĤÑĢ Ð¸Ð²Ð°ÑĤÑĮ
ĠÐµ Ð»
7 9
ĠÑĥÐºÑĢÐ°Ð¸Ð½ ÑģÐºÐ¸Ñħ
ĠÐĲÑĢÑĤ ÐµÐ¼
É Ļ
ĠÐ¿ÑĢÐµÐ´Ð¼ ÐµÑĤÑĭ
ĠÑħ ÑĢÐ¾
ĠÐ² Ð¸ÑģÐºÐ¸
ÐµÐ½ ÑģÑĤÐ²Ð°
ĠÐ½ÐµÐ² Ð¾Ð·
ĠÐ½Ð°Ñģ ÑĩÐ¸ÑĤ
ÑĤ Ð¾Ð³Ð¾
ĠÑĥÑħÐ¼Ñĭ Ð»ÑĮ
Ð¸Ð½ Ð°ÑĢ
ĠÐĳ Ñĥ
Ð¼ ÐµÑī
Ð¸Ð´ Ð¸
ĠÐ¶ Ð¸ÑĤÐµÐ»ÑĮ
ĠÐ¼Ð°ÑģÑĤ ÐµÑĢÐ°
ĠÐ½Ð¾Ð¶ Ð¾Ð¼
ĠÐ¿Ð¸ÑģÑĮ Ð¼Ðµ
ĠÐ¼Ð½Ð¾Ð³Ð¾ÑĩÐ¸Ñģ Ð»ÐµÐ½Ð½ÑĭÐµ
ĠÑģ Ð°Ð±
ĠÐº Ð»Ðµ
ĠÑģÐ² ÑĭÑĪÐµ
ĠÐ¿Ð¾ÑģÐ»ÐµÐ´ Ð½ÑıÑı
ĠÐ¾ÑħÐ¾ÑĤ Ð½Ð¾
ĠÐ¿Ð¾ÐºÐ¾Ð» ÐµÐ½Ð¸Ñı
ĠÑĢÐµÐ³Ð¸Ð¾Ð½ Ðµ
ĠÐļ Ð½Ñı
ĠÐ¾Ð±ÐµÑģÐ¿ÐµÑĩ ÐµÐ½Ð¸Ñı
ĠÐ¾Ð±Ð²Ð¸Ð½ ÐµÐ½Ð¸Ñı
ĠÐ½Ð¾Ñĩ Ð½Ð¾Ð¹
ĠÐĵÐµÐ½ ÑĢÐ¸Ñħ
ĠÐ´ÑĭÑĪ Ð°ÑĤÑĮ
Ð¾ ÑģÑĮ
ĠÐ¿Ð¾Ð² Ð¸Ñģ
ĠÐ¿ÑĢÐ¾Ð´ Ð¾Ð²Ð¾Ð»ÑĮ
ĠÑĢÑĥÑĩ ÐºÑĥ
ĠÑĦÐ¸Ð»Ð¾ÑģÐ¾ÑĦ Ð¸Ð¸
Ġ le
ĠÐ¿ÑĢÐµÐ´ÑģÑĤÐ°Ð² Ð¸Ð»
ĠÐ¼ÐµÑĪ Ð¾Ðº
ĠÐ¿Ð¾Ð»Ð¸ÑĤ Ð¸ÐºÐµ
Ð¸Ð»Ð¸ ÑģÑĤ
Ġ18 0
Ð¼ Ñı
ĠÐº Ð°ÑģÑģ
Ð¸Ð± ÐµÑĢ
ĠÑģÐ¿ÑĢÐ°ÑĪ Ð¸Ð²Ð°Ð»
ĠÐ´Ð°Ð½ Ð½Ð¾Ð³Ð¾
ĠÐĿ Ð°ÑĪÐ¸
ĠI V
ĠÑĤÑĢÑĥ Ñģ
Ð»Ñı Ð½ÑĥÑģÑĮ
ĠÑĢÐµÐ³ÑĥÐ»ÑıÑĢ Ð½Ð¾
Ð± ÐµÐº
ĠÐ»ÑĥÑĩÑĪÐµ Ðµ
ĠÐ¸Ð·Ð² Ð»ÐµÐº
Ð³ Ð´Ðµ
ĠÐ¿Ð¾Ð± ÐµÐ³
ĠÑģÐ¾Ð± ÑģÑĤÐ²ÐµÐ½Ð½Ð¾Ðµ
ĠÐ¿ÑĢÐµÐ´Ð»Ð¾Ð¶ Ð¸Ð»Ð°
ĠÐ¸ÑģÐ¿ Ð¾ÑĢÑĤ
ĠÐ¿Ð¾Ð½Ð¸Ð¼ Ð°ÑİÑĤ
ĠÐĳ ÑĢÐ°
ĠÐ½Ð°ÑģÑĤÑĥÐ¿ Ð»ÐµÐ½Ð¸Ðµ
ĠÐŁÑĢ Ð¸Ñģ
ĠÑģÑĤÑĢÐ°ÑģÑĤ Ð¸
ĠÐľÐ°ÑĢÑĤ Ð¸Ð½
ĠÑģÑĨ ÐµÐ½Ñĭ
ÐĲ ÐĿ
ĠÐ¶ÐµÑĢÑĤÐ² Ñĥ
ĠÐ²ÑĭÐ²Ð¾Ð´ Ñĥ
ĠÐ´ÐµÑģÑıÑĤ Ð¾Ðº
ĠÑĦ ÑĥÐ½Ð´
ĠÐ¸Ð· Ð½ÑĥÑĤÑĢÐ¸
ĠÑĢÐ¾Ð¼ Ð°Ð½Ð°
a in
ĠÑģÐ¾Ð¼Ð½ÐµÐ² Ð°Ð»ÑģÑı
ÑĢ Ð¸Ð¸
ÐµÐ½ Ð´Ñĭ
ĠÐ²Ñĭ ÑĩÐ¸Ñģ
ĠÐ½Ðµ ÑıÑģ
ĠÐ»Ð¾Ð´ ÐºÐ¸
ĠÐ¢ ÐµÑħ
ĠÐ½Ð°ÐºÐ»Ð¾Ð½ Ð¸Ð»ÑģÑı
ĠÐ¸Ð· ÑĭÑģÐº
ĠÐ¸ÑģÐ¿ÑĭÑĤ ÑĭÐ²Ð°Ð»
ĠÐ¿Ð¾Ð´Ð½ ÑıÑĤ
ĠÑģÑĤ ÑĥÐ»Ð°
ĠÐ¿Ð¾ÑĤÐµÑĢ ÑıÐ»Ð¸
ĠÐ²Ð¾Ð·ÑĮ Ð¼
ĠÑįÐº ÑģÐº
ĠÐ¿Ð¾ÑģÑĤÐ°Ð² Ð¸Ð»Ð¸
Ġ Ã
ĠÑĢÐ°Ð· Ð¾ÑĢÐ²
ĠÐºÐ°ÑĢ Ð°
ĠÐ¿ÑĢÐµÑĤ ÐµÐ½Ð·
Ð¾ÑĤ ÑĤ
ÑĢÐµÐ¼ ÐµÐ½
ĠÐ²ÑģÑĤÑĢ ÐµÐ²
ĠÑģÐ¾ÑĤ ÐµÐ½
ĠÐ¾Ð´ÐµÐ¶ Ð´Ð°
ĠÐĴÐµÑĢ Ð¾ÑıÑĤÐ½Ð¾
ĠP r
ÑĤÐµÑĢÐ½ Ð°ÑĤÐ¸Ð²
Ð¾Ð± ÑħÐ¾Ð´
ĠÐ·Ð° ÑĪÐµÐ»
ÑĨÐ¸Ñı Ð¼
ĠÐ¼ÐµÐ½ ÐµÐ´Ð¶
ĠÐ½Ð°Ð»Ð¸Ñĩ Ð¸Ðµ
ĠÑģÐ»Ð°Ð² ÑıÐ½
Ð» Ð¸Ð»ÑģÑı
ĠÑĪÐ°Ð³ Ð½ÑĥÐ»
Ð¾Ð²Ð¾Ð»ÑĮ Ð½Ð¾
ĠÐ¡ Ð»ÑĥÐ¶
ĠÐ²ÐµÑĢ Ñĥ
ĠÐ² Ð²
Ñħ Ð°ÑĤ
Ġ19 17
ĠÐ¿Ð¾Ð²ÐµÑĢ Ð¸Ð»
ĠÐĳ ÐµÑĤ
ÑĪÐµÐ» Ð¾Ð¼
ĠÐĺ Ð¾ÑģÐ¸ÑĦ
Ð¡ ÐµÐ¹ÑĩÐ°Ñģ
Ðĺ ÑĤÐ°Ðº
ĠÑĥÐ´Ð°ÑĢ Ð¾Ð¼
ĠÑģÑĤÐ¾ ÑıÐ½
ĠÑıÑĢ Ð¾ÑģÑĤÐ¸
ĠÐ½ÐµÐ²ÐµÑĢ Ð¾ÑıÑĤÐ½Ð¾
ĠÐ¾Ð´ Ð½Ð¸Ñħ
ĠÐ¿ÐµÑĢÐµÐ¹ ÑĤÐ¸
ĠÐ·Ð°ÑĢ ÐµÐ³Ð¸ÑģÑĤÑĢ
ĠÐ¿ÑĭÑĤ Ð°ÑİÑĤÑģÑı
ĠÑĢÐ°Ð·Ð´ Ð°Ð²
ĠÐ´Ð¾Ð³Ð°Ð´ Ð°Ð»ÑģÑı
ĠÐ´ÑĢÐ°Ð³Ð¾ ÑĨÐµÐ½
ÐµÐº ÑģÐ°
ĠÐ±ÐµÐ· ÑĥÑģÐ»Ð¾Ð²Ð½Ð¾
Ð¾Ð¶ Ð´Ð¸
ĠÐ¿Ð¾Ñģ Ð¼Ðµ
ĠÐ±ÐµÐ´ Ð°
ĠÑįÐºÑģÐ¿Ð»Ñĥ Ð°ÑĤÐ°
ĠÐ²Ð»Ð¸Ñı Ð½Ð¸Ñı
ĠÑĥÐ´Ð¾ÑģÑĤ Ð¾Ð²ÐµÑĢ
ĠÐ» Ð¸Ð²
ÑĥÐ´ Ð¸Ð»Ð¸
ĠÑĢÑĥÐ± Ð»Ñı
ĠÐ²ÑĭÐ³Ð»ÑıÐ´ ÐµÑĤÑĮ
ĠÐĶ ÐµÐ¹
ĠÐ¿ÑĢÐ¾Ð´ Ð°ÑĤÑĮ
ĠÐ»Ð¸ Ð¿
Ðļ Ð¡
ĠÐķÐ²Ð³ ÐµÐ½Ð¸Ð¹
ĠÐ±Ð¾Ð»ÑĮ Ð½Ð¸ÑĨÐµ
Ð¾Ð¶ Ð°Ð½
ĠÐ½Ð°ÑģÑĤ Ð¾Ð¹
ĠÐ¿Ð¾ÑģÑĤ Ð¾Ñı
ĠÐ¿ÑĢÐµÑĢÐ² Ð°Ð»
ĠÑĢÐµ Ð°Ð»ÑĮÐ½Ð¾
ĠÑĦ ÐµÑģÑĤ
Ð¾Ð»Ñĩ Ð°Ð»Ð°
ĠÑĥÐº Ð»Ð¾Ð½
Ð¸Ð¾Ð½ Ð¾Ð¼
ĠÐĲÐ² Ð³ÑĥÑģÑĤ
Ñĩ Ð°Ð»ÑģÑı
ÑĤÐ¸ Ð¿
ĠÐŁÑĢ Ð¾Ðº
ĠÑĩÐµÐ¼Ð¿Ð¸Ð¾Ð½ Ð°ÑĤÐµ
ĠÐ±ÐµÑģÐµÐ´ Ñĭ
ĠÑįÐºÑĢÐ°Ð½ Ðµ
ĠÐ´ÐµÑĪ ÐµÐ²
ĠÐ»Ð¸Ñĩ Ð½Ð¾Ð³Ð¾
ĠÑģ ÑĥÐµÑĤ
ÑĢÐ°ÑĤ Ð°
Ð¶ Ð¸Ð²
ĠÐ¾ÐºÐµ Ð°Ð½
ÐŁ ÑĢÐ¸Ð¼
ÑĤ Ð°Ð¼
ĠÐ¿Ð¾Ð» Ð³Ð¾Ð´Ð°
Ð°Ð»ÑĮ Ð½Ð¸Ðº
ĠÐ·Ð°ÑĢ Ð°Ð±Ð°ÑĤ
ĠÐŁÐ¾Ð¼ Ð¸Ð¼Ð¾
ĠÐº Ð»ÑıÑĤ
ĠÑıÐ²Ð»Ñı Ð»ÑģÑı
ĠÐ°Ðº ÑĨÐ¸Ð¹
ĠÐ¿Ð°Ð´ ÐµÐ½Ð¸Ñı
ÑĥÑģ Ð¾Ð¼
ĠÐ¸Ð¼Ðµ ÑİÑī
ĠÐ±Ð¾Ð³ Ñĥ
f f
w it
ĠÐ¿ÑĢÐ¾Ñģ Ð¸ÑĤ
ĠÑģÐ¿Ð¾ÑĢ Ð¸ÑĤÑĮ
ĠÐºÐ¾ÑĢÐ¸Ð´ Ð¾ÑĢÑĥ
ĠÐ²Ð¾ÑģÑĮ Ð¼Ð¸
ĠÐºÐ¾ÑĢÐ¾ÑĤ ÐºÐ¸Ð¹
Ġ199 1
ĠÑįÐ½ÐµÑĢÐ³ Ð¸Ñİ
ĠÐ·Ð°Ð± ÑĢÐ°ÑĤÑĮ
ĠÐ¼ÐµÑĢ ÑĨ
ĠÐ¾ÑĤÐ´ÑĭÑħ Ð°
ĠÑģÐº Ð°Ð»
ĠÐ¼Ð°ÑģÑģ Ñĭ
ĠÐ² Ð¾ÑĢÐ¾Ð²
Ð¾Ð¿ ÑĥÑģÑĤ
Ð¸Ð½Ð³ Ðµ
ÐµÑĩ Ð½ÑĭÐµ
ĠÐºÑĥÑģÐº Ð¸
ĠÐ¸Ð½ÑĤÐµÑĢÐµÑģ Ð¾Ð²
ĠÑĤÑĢ Ð°Ð¿
ÑģÐ¿ Ð¾ÑĢ
ĠÐĹ Ð°Ð½
ĠÐŀ Ð¹
ĠÐĽ Ð¸Ñģ
ĠÐ¶ÐµÑģÑĤ Ð¾Ð¼
ĠÐ´ ÑĢÐµÐ¼
ĠÐ¿Ð¾Ð¼ÐµÑī ÐµÐ½Ð¸Ñı
ĠÐ½ÐµÐ±Ð¾Ð»ÑĮÑĪ ÑĥÑİ
ĠÐ¿ÑĢÐ¾ÑħÐ¾Ð´ Ð¸Ð»
ÑİÑīÐ¸Ð¹ ÑģÑı
ÂłÐĶ ÑĥÐ¼
ĠÑĤÐ¾Ð²Ð°ÑĢÐ¸Ñī ÐµÐ¹
ĠÑī Ð¸ÑĤ
Âł Ð¸
ĠÐ´ÑĥÑĪ Ð¾Ð¹
ĠÐ¾ÑĢ Ðº
ĠÐ¿ÑĢÐ¾Ð¿ Ð°Ð´
Ðµ ÑİÑĤ
ĠÐ¾Ðº Ð°Ð¶
ĠÑĢÐ°ÑģÑģÐº Ð°Ð¶Ñĥ
ÐĿ Ð«
ĠÐ²ÑĭÑģÑĤÑĥÐ¿ Ð»ÐµÐ½Ð¸Ñı
ĠÐ¼ ÑĢÐ°Ð¼
ĠÑĤ ÑĢÐ°
ĠÐŀÑģÑĤ Ð°Ð»ÑĮÐ½ÑĭÐµ
ĠÐ¿Ð¾Ð½Ð¸Ð¼ Ð°Ð½Ð¸Ðµ
ĠÐ¾ÑĢ Ð±
ĠÑĢÐ°Ð·Ð¼ÐµÑĢ Ðµ
ĠÐ¿Ð¾Ð» Ð¸ÑĨÐ¸Ñİ
Ñĳ ÑĤÐµ
Ð¢ Ð¾ÑĤ
ĠÐ´Ð¾Ð±ÑĢ ÑĭÐ¹
ĠÐ¿ÑĢÐµÐ´ÑģÐµÐ´ Ð°ÑĤÐµÐ»Ñı
ĠÐº Ð¾Ñĩ
ĠÑĩ ÐµÐ»
ÐŃÑĤÐ¾ ÑĤ
ĠÐ´ÐµÐ² Ð¾ÑĩÐºÑĥ
ĠÑĤÐµÐ» ÐµÐ²Ð¸Ð´
ĠÐĶ Ñİ
ĠÑģ ÑĥÑĪ
ÑĦ Ñĭ
ÐµÐº ÑĨÐ¸Ð¸
ÑĥÑĩ Ð¸ÑĤÑĮ
ÑĨ Ð¸Ð½
Ð°ÑģÑĤ ÑĥÑİ
ĠÐ¸ÑģÐ¿Ð¾Ð»ÑĮÐ· Ð¾Ð²Ð°Ð½Ð¸Ðµ
ĠÑĨÐ¸Ð²Ð¸Ð» Ð¸Ð·Ð°ÑĨÐ¸Ð¸
ĠÐłÐ°Ð½ ÑĮÑĪÐµ
ĠÐĶ ÐµÑĢÐ¶
ĠÑģÐ°Ð½Ðº ÑĨÐ¸Ð¸
Ð°Ð¼ÐµÑĢ Ð¸ÐºÐ°Ð½
ĠÐ¿Ð¾Ð² Ðµ
ĠÑģÑĤÑĢ Ð¾Ñı
ĠÑħÐ¾Ð·ÑıÐ¹ ÑģÑĤÐ²Ð°
ĠÐ°Ð´Ð²Ð¾Ðº Ð°ÑĤ
ĠÐĵÐ¾Ñģ Ð´ÑĥÐ¼
ĠÑģÑĥÐ´ Ð¾Ð²
Ð¸Ð»ÑĮ Ð½ÑĭÐ¹
ĠÐŁÐ°Ð² Ð»Ð°
ĠÐ¿ÑĢÐµÐ´Ð»Ð°Ð³ Ð°ÐµÑĤ
Ð¼ ÐµÐ´
Ġ3 2
ĠÐľ ÐĺÐĶ
ĠÐ°Ð²ÑĤÐ¾Ð¼Ð¾Ð± Ð¸Ð»ÐµÐ¹
ĠÐ¿Ð¾ÑģÐ» Ð°Ð½
ĠÑĤÐµÑħÐ½ Ð¾Ð»Ð¾Ð³Ð¸Ð¸
ĠÐ´ÐµÑģ Ð°Ð½ÑĤ
ÑĦ ÑĤ
ĠÑİ Ð³
ĠÑĤÑĢÐµÐ± Ð¾Ð²Ð°Ð»Ð¾ÑģÑĮ
ĠÐ¿Ð¾Ð¿ ÑĢÐ¾ÑģÑĤ
Ð¼ Ð¾Ð»
ÐĲ Ð»
ÑıÑī Ð¸Ð¼Ð¸
ĠÑĪ Ð°Ð¼Ð¿
ĠÐ¿Ð¾Ð»ÑĥÑĩ Ð¸Ð²
Ð¾Ð»Ð¾Ð³ Ð¸
ĠÐ¾ÐºÑĤ ÑıÐ±ÑĢÐµ
ĠÐºÑĢ ÑĭÑģ
Ð¾Ð»Ð¾Ð² Ð¸Ð½Ñĥ
ÐµÐ² Ð°Ð»Ð¸
ĠÐ¾ÑĤÐºÑĢÑĭ Ð»Ð°ÑģÑĮ
ĠÐ² Ð¸Ðº
ĠÐ·Ð°Ñħ Ð²Ð°Ñĩ
ĠÐ´Ð²ÐµÑĢ ÑıÑħ
ÑĢÐ¸ ÑĢÑĥ
ĠÐ²Ð¸Ð´ Ñĭ
ĠÐ¿Ð¾Ð¿ÑĭÑĤ ÐºÐ°
ĠÐ¿ ÑĥÐ±Ð»Ð¸Ñĩ
ÐµÑĪ Ð°
Ð¡ ÐµÐ³Ð¾Ð´Ð½Ñı
ĠÐ¸Ð· Ð´ÐµÐ»
ĠÑĢ Ð¾Ð³
ĠÑģÐ²ÑıÐ· Ð°Ð½Ð½ÑĭÐµ
ÐµÐ¶ Ðµ
ĠÐ¿Ð°ÑĢ Ðº
ĠÐ²ÐµÑģ Ð½Ð¾Ð¹
ĠÐĳ Ð°ÑĤ
ĠÑģÑĤÐ¾Ð» Ð±
ÐµÑģ Ð¾Ð¼
ĠÐ¼Ð¸Ð» Ð°Ñı
ĠÑģÐ²Ð¾ Ñı
ĠÐ½ÐµÐº Ð¸Ð¹
ĠÐ¿ÐµÑģ Ð¾Ðº
ĠÐ¢ Ð¾Ð½Ð¸
ÐµÐ½ ÑģÐºÐ¸Ð¹
ĠÐ·Ð°Ð¿ Ð¸ÑģÑĮ
ĠÑģÐ¾Ð±ÑģÑĤÐ²ÐµÐ½ Ð½ÑĭÐ¼
ĠÐ¾Ð¿ÐµÑĢÐ° ÑĨÐ¸Ñİ
ĠÐ¿ ÑĮÑıÐ½
Ðº Ð¾Ð»ÑĮ
Ð¾Ð· ÐµÑĦ
ĠÐ³ÑĥÐ± Ð°Ð¼
ÑĥÑħ Ð¾Ð²
ĠÐĴ ÐµÑĢÐ°
Ð¸Ð½Ð° ÑĨÐ¸Ð¸
ĠÐ¿Ð¾Ð³ Ð»Ñı
ĠÐ¿ÑĢÐ¾Ð³ÑĢÐ°Ð¼ Ð¼Ðµ
ĠÑĥÐ´Ð¾Ð± Ð½Ð¾
ÐĺÐ½ÑĤÐµÑĢ ÑĦÐ°ÐºÑģ
ĠÐĴ Ð¾Ð´
ĠÐļ Ð¾Ð»ÑĮ
ĠÐ¿Ð¾Ñģ ÑĩÐ¸ÑĤ
ĠÐ´ ÐµÐ»ÑĮ
ĠÐĽÑĮ Ð²
ÑĪ Ð°ÑĢ
ĠÐĺ Ð´Ð¸
ĠÐ¿ÑĢÐ¾Ñī ÐµÐ½Ð¸Ñı
Ð· ÑĮ
ĠÑĥÐ´ÐµÑĢÐ¶ Ð°ÑĤÑĮ
ĠÑģÐ¾Ð¿ÑĢÐ¾ÑĤÐ¸Ð² Ð»ÐµÐ½Ð¸Ðµ
ĠÐ¿Ð¾ÐºÐ°Ð· Ð°Ð»Ð°ÑģÑĮ
ĠÑģÐ¾Ð²ÐµÑĢÑĪ Ð¸ÑĤÑĮ
ĠÐł ÑĥÐ±
ĠÐ²Ð¾ Ð¸Ð½Ñĭ
n e
Ð¸ÑĢ Ð°ÐµÑĤÑģÑı
ĠÑĥÐº Ð¾ÑĢ
ĠÐ´Ð¸ÑģÐº ÑĥÑģ
ĠÐ¸Ð³ÑĢ Ð¾ÐºÐ¾Ð²
ĠÐŃÑĤ Ð¾Ð³Ð¾
ĠÑĥÑģÐ¿ÐµÑħ Ð¾Ð¼
ĠÑĩ Ð°ÑĢ
ĠÐ»ÑĥÑĩ ÑĪÐ¸Ð¼
ĠÐ´ÐµÐ½ÑĮÐ³ Ð°Ð¼Ð¸
Ð¸Ñħ Ð¸Ðº
ÑĤÐ°Ðº ÑĤÐµ
ĠÑĢÐµÐ± ÑĳÐ½
ĠÐ¿ÑĢÐ¸Ð´ÑĥÐ¼ Ð°ÑĤÑĮ
ĠÐ¿ÐµÑĪ ÐºÐ¾Ð¼
Ġ194 5
Ð¾Ðº Ð°Ð·
ĠÐ¡ÑĤ Ð°Ð²
ĠÑĤÐµÑĢ ÑıÑĤÑĮ
ĠS p
ĠÐł Ð°ÑģÑģ
ĠÐ·Ð°ÑĤ Ð°
Ð¾Ð²Ð°Ð½ Ð½Ð¾
ĠÑĦÐµÐ²ÑĢ Ð°Ð»Ðµ
ĠÑĤ ÑĥÑĩ
Ð¶Ñĥ Ð°Ð·
ĠÐºÐ¾ÑĢÐ¾Ð» ÐµÐ²Ð°
ĠÐ¿ÐµÑĢÐµÐ´ Ð¾
ĠÐ¿Ð»Ð°ÑĤ ÑĦÐ¾ÑĢÐ¼
ĠÑģÐ¼ ÐµÑĪÐ½Ð¾
Ð¢ Ðĺ
ĠÐ¾ÑģÑĤÐ°Ð² Ð¸Ð»Ð°
ÐµÑģÑģ Ð¸
ĠÐ³Ð¾ÑĢÐ¾Ð´ Ð¾Ð¼
Ð²Ð¸Ð½ ÑĥÑĤÑĮ
ĠÐ²Ð°ÑĪ ÐµÐ¼Ñĥ
ĠÐ²ÑĭÑģ ÑĪÐµÐ¹
ĠÐ¿ÐµÑĢÐµÐ² ÐµÐ»
ĠÑĢÐµÐ·ÑĥÐ»ÑĮÑĤ Ð°ÑĤÐ¾Ð²
ĠÐ²ÑĭÐ±ÑĢ Ð°ÑĤÑĮÑģÑı
Ð·Ð°Ð¿ Ð°Ð´
ĠÐŃÐ¼ Ð¸Ð»Ð¸
ÐŁ ÐµÑĢ
ĠÑĥÑĩÐµÐ½ ÑĭÑħ
ĠÐ¾ÑģÑĤ Ð°ÑİÑĤÑģÑı
ĠÐŃ Ð´Ñĥ
ĠÐ¿Ð¾Ð¿ÑĢÐ¾ÑģÑĤ Ñĥ
ĠÑĥÑĩÐ° ÑģÑĤÐ²Ð¾Ð²Ð°ÑĤÑĮ
ĠÐĵ ÑĥÐ±
ĠÐ¥ Ñĥ
ĠÐ¿Ð¾Ð»Ð¸ÑĤ Ð¸ÐºÑĥ
ĠÐļÐ¸ÑĢ Ð¸Ð»Ð»
ĠÐ¼Ð°Ð»ÐµÐ½ÑĮ ÐºÐ¾Ð³Ð¾
ĠÐ²ÑĤÐ¾ÑĢ Ð½Ð¸Ðº
ru e
ĠÐ½Ð°ÑģÑĤÐ¾ÑıÑī Ð¸Ð¼
ÐµÑģÑĤ Ð¾Ñĩ
ĠÑģÐ¾Ð±ÑĢ Ð°Ð»ÑģÑı
ĠÐ¼Ð¾ ÑĤÐ¾
ÑĥÐ¶Ð´ ÐµÐ½Ð¸Ðµ
ĠÐ¤ ÑĢÐµÐ´
ÐµÑĢ Ð°Ñħ
Ð°Ð½ ÐºÑĥ
ĠÐ¿ÑĢÐµÐ·Ð¸Ð´ÐµÐ½ÑĤ Ð¾Ð¼
ĠÑģÐ¾Ð±ÑģÑĤÐ²ÐµÐ½ Ð½Ð¾ÑģÑĤÐ¸
ĠÐ¿ÑĢÐ¾Ð²ÐµÑĢ ÐºÐ¸
ĠÐ¿ÑĢÐ¸ Ð¿Ð¸Ñģ
ĠÐ»ÐµÑģÑĤ Ð½Ð¸ÑĨÑĭ
ĠÑĤÐ¸Ñħ Ð¾Ð½ÑĮÐºÐ¾
ĠÐĿÐ¸ÐºÐ°Ðº Ð¸Ñħ
ĠÐ¾Ð± Ð¾Ð·
ĠÐºÐ°ÑĤÐµÐ³Ð¾ÑĢ Ð¸Ð¸
ÐŁÐµÑĤ ÐµÑĢÐ±ÑĥÑĢÐ³
ĠÑĪÑĤÑĥÑĢ Ð¼
ĠÐ²Ð¸Ð´ ÑıÑĤ
ĠÐ²ÑĭÐ½ÑĥÐ¶Ð´ ÐµÐ½Ñĭ
ĠÐ¿Ð¾Ð² Ð°Ð»
ĠÐ²Ð¾Ñģ ÐµÐ¼
ĠÐ¶ÑĥÑĢÐ½ Ð°Ð»Ð°
ÑģÑĤÐ²ÐµÐ½ Ð½Ð¾Ð¼Ñĥ
ĠÐ½Ð¾Ð² Ð¾ÑģÑĤÑĮ
ĠÐ£ Ð¿ÑĢÐ°Ð²
ĠÐºÑĢÐ°Ñģ Ð¸Ð²Ð¾
ĠÐ½ÐµÑģÐºÐ¾Ð»ÑĮ ÐºÐ¸Ð¼Ð¸
ĠÐ¿Ð¾Ñį Ð·
ĠÑĤÑĢÐ°Ð² Ñĭ
ĠÑĢÐ°ÑģÑģÐµ ÑıÐ½
ĠÐ¿ÑĢÐ¾ ÐµÐ·Ð¶
ĠÑĤÐº Ð°Ð½Ð¸
ĠÐ¿Ð¾Ðº Ð¾Ðµ
ĠÐ¤ÐµÐ´ Ð¾ÑĢÐ¾Ð²
ĠÐ±Ð¾ÐµÐ² ÑĭÐµ
ĠÐ¿Ð¾ÑĤÑĢÐµÐ± Ð¾Ð²Ð°Ð»
ĠÐ²Ð¾Ð·Ð¼Ð¾Ð¶ Ð½Ð¾ÑģÑĤÐµÐ¹
ĠÐ´Ð¾Ð¿ ÑĥÑģÑĤÐ¸ÑĤÑĮ
ĠÐº ÑĥÑĪ
ĠÐ¡ ÑįÐ¼
ĠÐ½ÐµÐ³ÑĢÐ¾Ð¼ ÐºÐ¾
Ð½ Ð°ÑĤ
ĠÐ¸ÑģÐ¿Ð¾Ð»ÑĮÐ· ÑĥÐµÑĤÑģÑı
ĠÐ°Ð¼ÐµÑĢÐ¸ÐºÐ°Ð½ ÑģÐºÐ¾Ð³Ð¾
ĠÐ¡Ð»Ð¾Ð² Ð½Ð¾
Ñĩ Ð¾Ðº
ĠÐ¼Ð°ÑĤ ÑĢÐ¾Ñģ
ĠÐ²Ð¾ÐµÐ½Ð½Ð¾ ÑģÐ»ÑĥÐ¶
19 6
ÑĥÑĤ Ð¸
ĠÑģÐ¼Ð¾Ð¶ ÐµÑĤÐµ
ĠÐĶÐ¾Ðº ÑĤÐ¾ÑĢ
ĠÐ¸ÑģÐº Ð°Ð¶
ĠÑĤÑĢÐµÑĤÑĮ ÐµÐ¹
ĠÐĶÐ¶ Ð¾Ð½Ð°
ĠÐ¿Ð¾ÑģÐ»ÐµÐ´ Ð¾Ð²Ð°Ð»
Ð½ÑĥÑĤ ÑĭÐ¹
ĠÐ¿Ð¾Ð²Ð¾ÑĢ Ð¾ÑĤ
ĠÑĤÐµÑģ Ð½Ð¾
ĠÐ·Ð°Ð¿Ñı ÑģÑĤÑĮ
ĠÐ´ÑĥÑħ Ðµ
ĠÑħÐ¾ÑĢÐ¾ÑĪ Ð¸Ð¼
ÑĥÑī Ð°Ñı
ĠÑįÐºÐ¸Ð¿ Ð°Ð¶Ð°
ĠÐ®Ð¶ Ð½Ð¾Ð¹
Ð°Ñī Ð¸Ð¼
Ð¡Ð¿ Ð°ÑĢÑĤ
ĠÐ¸Ð· Ð»Ð¾Ð¶
ĠÐ´ÐµÑģÑıÑĤ ÐºÐ°
ĠÐ½Ð°Ð¿ÑĢÐ°Ð² Ð¸Ð»Ð°ÑģÑĮ
ÑīÐµ ÐµÑģÑı
ĠÐ¼ÐµÐ½ ÑıÑĤÑĮ
ĠÐŀÑĩ ÐµÐ²Ð¸Ð´Ð½Ð¾
ĠÐ¿Ð¾Ð»Ð¾Ð² Ð¸Ð½Ð¾Ð¹
Ð°ÑĤÐµÐ»ÑĮ ÑģÑĤÐ²Ð¾Ð¼
ĠÐºÑĢÐ°Ñģ Ð¸Ð²Ð°Ñı
7 2
ĠÐ¿Ð¾Ðº Ð°ÑĤ
ĠÑģÐµÑĢÐ´Ð¸ ÑĤÐ¾
Ð¸ÑĢ ÐµÐ¿
ĠÐ·Ð°ÑģÑĤÐ°Ð² Ð¸Ð»Ð°
ĠÑĢÐ°ÑģÑģÐ»ÐµÐ´ Ð¾Ð²Ð°Ð½Ð¸Ðµ
ĠÐļ Ð¾Ð·
ÑĭÐ² ÑĪÐ¸Ð¹
ĠÐ½Ð°ÑĢÑĥÑĪ ÐµÐ½Ð¸Ñı
ĠÐµÐ´Ð¸Ð½ ÑģÑĤÐ²ÐµÐ½Ð½Ð°Ñı
ÐµÐ» ÐµÐ½Ð¸Ðµ
ĠÐ¿ÑĢÐ¸Ð¼ Ð¸ÑĢ
ĠÐ±Ð¾Ð¼Ð±Ð°ÑĢÐ´ Ð¸ÑĢÐ¾Ð²
ĠÐļ ÐµÐ¼
ĠÐ±ÐµÑģÑģ Ð¼ÐµÑĢÑĤ
ĠÐ¿Ð¾ÑģÑĤÑĥÐ¿ Ð¸ÑĤÑĮ
ĠÐĺ Ð´
ĠÐ£ Ð¸Ð»
ĠÑıÐ¹ ÑĨÐ°
i re
Ð¸Ð² Ð½Ð¾
ĠÐ°ÑĤÐ°Ðº Ñĥ
ĠÐ½Ð¾Ñģ Ð¸ÑĤÑĮ
ĠÐ¾Ð· Ð½Ð°ÐºÐ¾Ð¼
ĠÐ»ÑİÐ´ ÑıÑħ
Ð°Ð´ Ð¾Ð¹
ĠÐľ Ð°Ñģ
ĠÐ¶Ð°Ð» Ð¾Ð±
ĠÐ·Ð°ÑīÐ¸Ñī Ð°ÑĤÑĮ
Ð½Ñĥ ÑĤÐ°
ĠÑģÑĤÐ°Ð² Ð¸ÑĤÑĮ
ĠÐ¡Ð¾Ð»Ð½ ÑĨÐµ
ĠÑĪ Ð²ÑĭÑĢ
ĠÑģÑĢÐµÐ´ ÑģÑĤÐ²Ð¾
Ġ199 9
ĠÐŃ ÑģÑĤ
ĠÐ²Ð· ÑıÐ»ÑģÑı
ĠÐ¿Ð¾Ð² Ð¾Ð·
ĠÐ¸ÑģÐ¿ÑĥÐ³ Ð°Ð½Ð½Ð¾
Ð´ Ð¾Ð½
ĠÐ¿Ð¾Ð¼ Ð½Ð¸ÑĪÑĮ
ĠÐ¿ÑĢÐ¾Ð±Ð¾ÑĢÐ¼Ð¾ÑĤ Ð°Ð»Ð°
ĠÐ¡ Ð°Ð¼Ð°
ĠÑį Ð¼Ð¸Ð³
ĠÐ¿ÑĢÐ¾ÑĦÐµÑģÑģ Ð¾ÑĢÐ°
ĠÐ¸Ð¼Ðµ ÐµÐ¼
ĠÐ¿ÑĥÐ½Ðº ÑĤÐ°
ĠÐ·Ð° ÑĨÐµÐ¿
Ð°Ð½Ð´ Ð°ÑĢ
ĠÑĦ ÑĢÐ°Ð·Ñĥ
ĠÐ¾Ð³ Ð»ÑĥÑĪ
ĠÐ¸Ð·Ð´ Ð°Ð½Ð¸Ñı
ĠÑĥÐ± Ð¾ÑĢ
ĠÐŁÐ¾Ð¶Ð°Ð»ÑĥÐ¹ ÑģÑĤÐ°
ĠÐĶ Ð·
ĠÐĹ Ð°Ñħ
ĠÑģÐ»ÑĭÑĪ Ñĥ
ĠÑģÐ¿Ð°Ñģ ÐµÐ½Ð¸Ñı
Ð¼Ð¾ÑĤÑĢ ÐµÑĤÑĮ
ĠÑĨÐµÐ½ Ñĥ
ĠÐ¸Ð½ÑģÐ¿ ÐµÐºÑĤÐ¾ÑĢ
ĠÑįÐ¿Ð¸Ð· Ð¾Ð´
Ðķ Ð²
ĠÐ´Ð¸ Ð°Ð»
s e
ĠÐ´Ð¾Ð¶Ð´ Ñı
ĠÑĦ Ð°Ñģ
ĠÐ²ÑĭÑģ Ð°Ð´
ĠÐĽ ÑĥÐºÐ°
Ð»Ð¸Ð· Ð°Ð²
ĠÐ¿ÑĢÐ¸Ð¶ Ð¸Ð¼
ĠÑĤÐ¾Ð²Ð°ÑĢÐ¸Ñī Ð¸
ĠÐ½Ð°ÑģÑĤÐ¾ÑıÑī ÐµÐ¹
ĠÑģÐ¸Ð´ ÐµÐ½ÑĮÐµ
ĠÑģÐ¸Ð»ÑĮ Ð½ÑĭÐµ
ĠÑĤÐ¾Ð»Ð¿ Ñĥ
Ð»Ñı Ð¼Ð¸
ĠÐ·Ð°Ñħ Ð¾ÑĩÐµÑĤ
ĠÐ²Ð·ÑĢÑĭÐ² Ð°
ĠÐ²Ñĭ ÑħÐ²Ð°ÑĤ
ĠÐ²Ñģ Ñħ
ĠÐ±ÑĢÐ°ÑĤ Ð¾Ð¼
ĠÐ»Ð¸Ñĩ Ð½Ð¾Ð¹
ĠÐļÐ°Ð· Ð°Ñħ
ĠÐ¿ÑĢÐ¸Ð± ÑĭÑĤ
Ð»ÐµÐ½ Ð½Ð¾ÑģÑĤÐ¸
ĠÐ¸Ð½ÑĤÐµÑĢÐµÑģ ÑĥÐµÑĤ
ĠÑģÐ¾Ð¾ÑĤÐ²ÐµÑĤ ÑģÑĤÐ²ÑĥÐµÑĤ
ÂłÐĹ Ð°
ĠÐ¿Ð¾ÑħÐ¾Ð¶ Ð°
Ð¿ Ð»Ñı
ĠÐºÑĥÑĢ ÑģÐ°
ĠÐ¿Ð¾Ð± Ð»Ð¸Ð·Ð¾ÑģÑĤÐ¸
ĠÐ¾Ð± ÑĥÐ²
ĠÐļ Ð°Ñģ
ĠÐ¾Ð± Ð»Ð¸
ĠÐ·Ð°Ð³Ð»Ñı Ð½ÑĥÐ»
ĠÐ¶Ð¸Ð² ÑĭÐ¼
ĠÐ¿ÑĢÐ¸Ð½ÑĨÐ¸Ð¿ Ð¸
ĠÐ¿ÑĢÐ¾ÑĤÐ¸Ð² Ð½Ð¸Ðº
ĠÑģÐ¾ÑģÑĤÐ°Ð² Ð¸Ð»
ĠÐ´ÐµÑĢÐ¶ Ð¸ÑĤ
ĠÐ½Ð°Ð» ÐµÑĤ
ĠÑħ Ð¸Ð¶
ĠÐ¾Ð±ÑĥÑĩ ÐµÐ½Ð¸Ñı
ĠÐ¸ÑģÑĤÐ¾Ñĩ Ð½Ð¸ÐºÐ¾Ð²
Ð¾Ð»ÑĮ Ð´
ĠÐ½ÐµÐº ÑĥÐ´Ð°
ĠÐ²Ð»Ð°ÑģÑĤ ÑĮÑİ
ĠÐ¸Ð·Ð²ÐµÑģÑĤ ÐµÐ½
ĠÑĢÐ°ÑģÐº Ð°Ð»
ĠÑģÐ»ÑĥÑĩ Ð¸ÑĤÑĮÑģÑı
ĠÐ¿Ð¾Ð»ÐºÐ¾Ð² Ð½Ð¸ÐºÐ°
ĠÐ²ÑĭÑģÐ¾Ðº Ð¸Ð¼
ĠÐ½ÐµÐ¼ÐµÑĨ ÐºÐ¸Ñħ
Ð°Ð» Ð¸Ð¼
ĠÐ³ÑĢÑĥ Ð±Ð¾
ĠÐ¿ÑĢÐ¾Ð³ÑĢÐ°Ð¼ Ð¼Ð°
ÑĳÐ½ Ð½Ð¾Ð¹
ĠÑĥÑī ÐµÑĢÐ±
ÑĪ ÐºÑĥ
Ð¾Ð¶ ÐµÐ»
ĠÐ¶ Ð°Ð¶
ĠÐĴ Ð°
ĠÑģ Ð°Ð¶
ĠÐ¸ÑģÑĤ Ð¸Ð½Ñĭ
ĠÐ´ÑĥÑħ Ð¾Ð¼
ĠÑģÐ¾Ð±ÑĭÑĤ Ð¸Ðµ
Ðĵ Ð´Ðµ
Ð¸ÑĤ Ð¾Ð³Ð¾
ĠÑĪÐº Ð¾Ð»Ð°
ĠÐ½ÐµÐ´ Ð²Ð¸Ð¶
ĠÐºÐ»Ð¸ ÐµÐ½ÑĤÐ¾Ð²
ĠÑįÑĤÐ°Ð¿ Ðµ
Ð¾Ð½ Ð°Ð²
ĠÐ¸Ñİ Ð½Ðµ
ĠÐ¿ÑĢÐµÐ´Ð¿ÑĢÐ¸ÑıÑĤ Ð¸Ð¹
ĠÐ´Ð² ÐµÑģÑĤÐ¸
ĠÐ±ÐµÐ· Ð½Ð°Ð´ÐµÐ¶
ĠÐĳ Ð°Ð³
Ð¸ÑĪ ÐºÐ°
ĠÐ¿Ð¾Ð´Ð½Ñı Ð»Ð¸ÑģÑĮ
ĠÑģÐ½Ð¸Ð· Ñĥ
ĠÑģÐ¿Ð¾ÑģÐ¾Ð± Ð½Ð°
ĠÐ¿ÑĢÐ¾ÑħÐ¾Ð´ Ð¸Ð»Ð¸
ĠÐ¾ÑĦÐ¸ÑĨÐ¸ Ð°Ð»ÑĮÐ½ÑĭÐ¹
ĠÑįÐºÐ¸Ð¿ Ð°Ð¶
ĠÐ½ Ð°Ð³Ð¾
Ġ )
ÐĽ ÑİÐ±
ĠÐ¼ÑĥÐ·Ñĭ ÐºÐ¸
ĠÑģÐ²ÑıÑĤ Ð¾Ð¹
ĠÐ´ÑĥÐ¼ Ð°ÑİÑĤ
ĠÐ´ÐµÐ¿ÑĥÑĤ Ð°ÑĤÐ¾Ð²
ĠÑĢ ÑĤÑĥ
ĠÐ·Ð°Ð¼ Ð¾Ð»ÑĩÐ°Ð»
it y
Ð°Ð²ÑĪ Ð¸Ð¼Ð¸
ic h
ĠÑĤÑİÑĢÑĮ Ð¼Ðµ
Ð°Ð² ÑĪÐµÐµ
ĠÐ³Ð°ÑĢ Ð¼
ĠÑĢÐ°Ð±Ð¾Ñĩ Ð¸Ðµ
ĠÐ±Ð¾Ð´ ÑĢ
ÑĪ Ð¸Ð½Ð°
ĠÐ³ÑĢÑĥÐ¿Ð¿ Ð¾Ð¹
ĠÐ¿ÑĢÐµÐ´ÑĥÑģ Ð¼Ð°ÑĤÑĢ
ĠÑĩÐµÑĢ ÑĤÐ°
ĠÐ¿ÑĢÐ°ÐºÑĤ Ð¸ÐºÐµ
ĠÐ¿ÑĢÐ¾Ðº Ð¾Ð¼
ĠÐ²ÑĢÐ°Ñĩ Ð°
ĠÑģÑĨÐµÐ½ Ñĥ
ĠÐ³Ð½ÐµÐ² Ð°
ĠÐ·Ð°Ð¿ ÑĢÐ°Ð²
ĠÐ¿ÑĢÐ¾Ð¸Ð·Ð¾ÑĪ ÐµÐ´
ĠÑĤÐ¾ÑĢÐ³Ð¾Ð² Ð»Ð¸
ĠÐĳ ÐµÐ´
Ð°Ð»Ð¸ÑģÑĤ Ñĭ
ĠÐĴ Ð¾ÐºÑĢÑĥÐ³
Ð²Ð°ÑĤ Ð¸ÑĤ
ĠÐĵ Ð»Ð°Ð²Ð°
ĠÐ¼ÑĭÑģÐ»Ñı Ð¼Ð¸
it h
ÑĤ ÑĥÐ·Ð¸
Ñı Ð½Ðµ
ÑģÐ¿ Ð¾ÑĢÑĤ
ĠÑĩÐµÑĤÐ²ÐµÑĢ Ð¾
ĠÐĽÐµÐ½ Ð¸Ð½Ð°
ĠÐ¿Ð¾ÑĤÐ¾Ð» Ð¾Ðº
ĠÐ¿ÑĢÐ¾Ð¸ÑģÑĪÐµ ÑģÑĤÐ²Ð¸Ñı
ĠÐ¯ ÑĢÐ¾ÑģÐ»Ð°Ð²
ĠÐĶ Ð¾Ð±ÑĢ
ĠÐ¿Ð¾Ð± Ð¾Ð»ÑĮÑĪÐµ
ĠÐ± Ð»Ñİ
ÐŁ ÐµÑĢÐµÐ´
ĠÑħ ÑĢÑĥÐ¿
ĠÐ¿ÑĢÐµÐ´ ÑĩÑĥÐ²
ĠÐŁÑĢ Ð¾ÑĤÐ¸Ð²
Ðĳ Ð¾Ð»ÑĮÑĪ
ĠÑģÐ¾Ðº ÑĢÑĥÑĪ
ĠÐºÐ½Ð¾Ð¿ ÐºÑĥ
ĠÐ¾Ð±ÑĭÑĩ Ð½ÑĭÐ¹
ĠÐ¸Ð·Ð¼ ÐµÐ½Ñı
ĠÐ·Ð°Ð¼ÐµÑĤ Ð¸Ð²
ĠÐ£ÐºÑĢÐ° Ð¸Ð½Ñĥ
ĠÐ¿ÑĢÐµÐ´ÐµÐ» Ð°Ð¼Ð¸
ĠÐ± Ð¾Ñģ
ĠÐ´ÑĢ Ð°ÐºÐ¾Ð½
ĠÑģÐ¿ Ð¸Ð½Ñĭ
ĠÐ½ÐµÐ¿ ÑĢÐµÐ´
ĠÐ¾Ð¿ Ð¾Ð·Ð´
ĠÐºÐ¾Ð» ÐµÐ½
ĠÐ°Ð¼ÐµÑĢÐ¸ÐºÐ°Ð½ ÑģÐºÐ¾Ð¹
ĠÐ²Ð¸ÑĢ ÑĤÑĥ
ĠÐļ Ð¸Ð¼
ĠÐŁÐµÑĢÐ² Ð°Ñı
ĠÑģÐµÐºÑĢÐµÑĤ Ð°ÑĢÑĮ
ĠÑģÐ¿Ð°Ð»ÑĮ Ð½Ñİ
ĠÐ°ÐºÐ°Ð´ÐµÐ¼ Ð¸Ð¸
ĠÐľÐ°ÑĢ Ð¸Ð½Ð°
Ñĩ ÐµÐ³Ð¾
Ð°Ð·ÑĭÐ² Ð°ÐµÑĤÑģÑı
ÑĢÐ¸ Ñİ
Ð»Ð¾Ð½Ð¸Ð² ÑĪÐ¸ÑģÑĮ
ĠÐĶ Ð¶Ðµ
Ñĩ Ð¸Ð½Ñĭ
ĠÑĥÐ³ Ð¾Ð²Ð¾ÑĢ
f t
ĠÐ¿Ð¾Ð¿ÑĭÑĤ Ð°ÑĤÑĮÑģÑı
ĠÑģÐ¾ÑģÑĤÐ¾ Ð¸ÑĤÑģÑı
ĠÐ±Ð»Ð¸Ð¶Ð°Ð¹ ÑĪÐ¸Ðµ
ĠÐ½ÐµÐ¿Ð¾Ð´Ð²Ð¸Ð¶ Ð½Ð¾
Ð¾Ñĩ Ð½ÐµÐµ
ĠÐ¿ÑĢÐµÐ´ÐµÐ» Ð°Ñħ
ĠÐ°Ð²Ð¸ Ð°ÑĨÐ¸Ð¸
ĠÐ½Ðµ ÑĥÐ¶ÐµÐ»Ð¸
ĠÐºÑĢ ÑİÑĩ
ĠÐ¿ÐµÑĢÐ² ÑĭÐ¼Ð¸
ĠÑģÐ½ÐµÐ³ Ð°
ÑĢÐµÐ´ ÐºÐ°
ÐµÐ´ Ð¸Ð½Ðµ
ĠÐ½ÐµÐ²Ð¾Ð· Ð¼ÑĥÑĤ
Ð¸Ð»Ð¸ ÐµÐ¼
Ð¿ÑĢ Ð¾Ð´
ĠÐŁÐ¾Ð· Ð¶Ðµ
ĠÐ¿ÑĢÐ¾Ð´ÑĥÐº ÑĤ
Ð¸Ð²ÑĪ Ð¸Ð¼
Ñĥ Ð¿ÑĢ
ĠÐ²ÑģÐ»ÐµÐ´ ÑģÑĤÐ²Ð¸Ðµ
ĠÐ¿Ð»Ð°Ð¼ ÐµÐ½Ð¸
Ð°Ð»ÑĮ Ñİ
ĠÐĳ ÑĢÐ°ÑĤ
ĠÐļÐ¸ÑĤ Ð°Ñı
ĠÐº Ð»Ð¾Ñĩ
ĠÑĤÑĢ ÐµÐ·
ĠÐ° ÑĦ
ĠÐ¿ÐµÑģ Ð½Ñİ
ÐµÐº ÑĢÐ°Ñģ
ĠÐ±ÑĢ ÐµÐ·
ÐĻÐ¾ÑĢ Ðº
ĠÑģÐ»ÐµÐ´ ÑģÑĤÐ²Ð¸Ðµ
ĠÐºÐ°ÑĩÐµ ÑģÑĤÐ²Ð¾
Ð¼ ÐµÐ½ÑĤÐ¾Ð²
ĠÐ¼Ð¾Ð½ ÐµÑĤ
Ð± ÑĢÐ°Ð½
ĠÐ¿ÑĢÐ¸Ð½ÐµÑģ Ð»Ð¸
ĠÐ½Ð° ÑĢÐ°ÑģÑĤ
ÐĿ Ð°ÑģÑĤ
Ð¸ÑĢÐ¾Ð² Ð°Ð»Ð¸ÑģÑĮ
ĠÑĥÐ³Ð¾Ð»Ð¾Ð² Ð½Ð¾Ðµ
ĠÐĶÐµÐ¹ÑģÑĤÐ² Ð¸ÑĤÐµÐ»ÑĮÐ½Ð¾
ĠÑĢÐ°ÑģÑģÐ¼Ðµ ÑıÐ»Ð°ÑģÑĮ
ĠÐ½ÐµÐ´Ð¾ÑģÑĤ Ð°ÑĤ
** *
ÐµÑĨ ÐºÐ¸Ð¹
ĠÑĥÑģ Ð¼ÐµÑĪ
ĠÑĢÐ°Ð±Ð¾ÑĤ Ð½Ð¸ÐºÐ¾Ð²
ĠÑĤÑİÑĢÑĮ Ð¼Ñĭ
ĠÐĲÐ½ Ð³
Ð°Ð»Ð¸Ð·Ð° ÑĨÐ¸Ñı
ĠÐŁÐµÑĤÐµÑĢÐ±ÑĥÑĢ Ð³Ðµ
Ð¾Ð² ÐºÐ°
ĠÐĶ Ð°Ð»ÑĮÑĪÐµ
ĠÐ³Ð°Ð· ÐµÑĤÐµ
ÐµÐ½ÑĮ ÐºÐ¸Ðµ
ĠÐ¿ÑĢÐ¸ÑħÐ¾Ð´ Ð¸Ð»
ĠÐºÑĢÐ°Ñģ Ð½ÑĭÐµ
ĠÐ²ÑĭÐ¿Ð¾Ð»Ð½ ÐµÐ½Ð¸Ñı
ĠÐ¼ÐµÑĤÐ°Ð» Ð»
ĠÐµÐ²ÑĢÐµ ÐµÐ²
ÑĢ ÐµÑī
ĠÐ¾Ð±ÐµÑĢ Ð½ÑĥÐ»Ð°ÑģÑĮ
ÐµÐ½ ÑĭÐµ
ÑĢÐ°Ð² ÑĪÐ¸ÑģÑĮ
ĠÐ±Ð¾Ð» Ð¾ÑĤ
ĠÐ²ÐµÑĢÑĤ Ð¾Ð»ÐµÑĤ
ĠÑģÐ¿ ÐµÑĢÐ²Ð°
ĠÐ¾ÑĤ Ð±Ð¾ÑĢ
ĠÑĢ ÐµÑģÐ¿ÑĥÐ±Ð»Ð¸
ÑĨ Ð¾Ð²Ð°
ĠÐ¸Ð·Ð¼ÐµÐ½ ÐµÐ½Ð¸Ð¹
ĠÐ¾Ð±ÑĢ ÐµÑĩ
ĠÐ´ÐµÐ» Ð°Ñı
ĠÐ°Ð¿ Ð¾ÑģÑĤ
ĠÑĩÐµÐ»Ð¾Ð²ÐµÐº Ðµ
ĠÐ½Ð°Ð·ÑĭÐ² Ð°Ð»
ĠÐ²ÐµÑĩ ÐµÑĢÑĥ
ĠÐ·Ð°Ð½Ð¸Ð¼ Ð°Ð»Ð¸ÑģÑĮ
ĠÐĳ Ð°Ðº
ĠÑĢÐ°ÑģÑħÐ¾Ð´ Ñĭ
ĠÐ¾Ð´Ð¸Ð½Ð¾ÑĩÐµ ÑģÑĤÐ²Ðµ
Ð¾Ñĩ Ð°Ð¹
ĠÐ¿ÑĢÐµÐ´ÑģÑĤÐ°Ð²Ð»Ñı ÑİÑĤ
ĠÐ²Ð¾Ð·Ð½Ð¸Ðº Ð»Ð¾
ĠÐ¿ÑĢÐ¸Ñģ Ð²Ð¾
ĠÐ²ÑĭÐ¿ Ð°Ð»
ĠÐºÐ¾Ð½ÑģÑĤ Ð¸ÑĤÑĥ
ĠÑĢÐµÐ¼ ÐµÑģ
5 4
ĠÐ¡ Ñĭ
ĠÐ± ÑĢÑĭÐ·
ĠÐ½Ð°ÑĩÐ¸Ð½ Ð°Ð»
ĠÐ°Ð¿ Ð¿ÐµÑĤ
ĠÐł Ð¡
Ðŀ Ð´Ð¸Ð½
ĠÐ²ÑģÑĤÑĥÐ¿ Ð¸Ð»
ĠÐ°Ð½Ð³Ð»Ð¸Ð¹ ÑģÐºÐ¸Ð¹
ĠÐºÑĢÑĥÐ³ Ñĥ
Ð°ÑĤÑĥÑĢ Ðµ
ĠÑĤÑİ ÑĢÐµÐ¼
ĠÑģÐµÐ»ÑĮ ÑģÐºÐ¾Ð³Ð¾
ĠÐ¡Ð» ÑĭÑĪ
ĠÐ¿ÑĢÐ¾Ð´Ð¾Ð»Ð¶ Ð¸ÑĤÑĮ
Ð»Ð¸ ÑĢÐ¾Ð²
Ð¤ ÐĲ
Ð°Ð½ Ð½Ð¾Ð¼Ñĥ
ĠÐ¿Ð¾ÑģÐ¼Ð¾ÑĤÑĢ Ð¸Ð¼
ĠÐ³Ð¾ÑĢÑı Ñī
ĠÑģ Ð°ÑĤ
ÂłÐ¢ Ð¾Ð»ÑĮÐºÐ¾
ĠÐ¿ÑĢÐ¾ÐºÐ¾Ð¼ Ð¼ÐµÐ½ÑĤ
ÑģÑĤÐ²ÑĥÑİÑī Ð¸Ðµ
ĠÐ¿ÑĢÐµÐ± ÑĭÐ²Ð°Ð½Ð¸Ñı
ĠÐ·Ð°ÑģÐµÐ´ Ð°Ð½Ð¸Ð¸
ÑĥÐ² ÐµÐ»Ð¸Ñĩ
ĠÐ¼ÐµÑĩ Ð¾Ð¼
Ðº ÑĥÑĤ
ĠÐĶ Ð°Ð½Ð¸
ĠÐĴ ÑĢÐ¾Ð´Ðµ
Ð¿ Ðµ
ĠÑģÑĤÐ°ÑĤÑĮ Ñİ
ĠÑģÐµÑĢÑĮÐµÐ· Ð½ÑĭÐµ
ĠÑĤÑĢ Ð¾ÑĤÑĥ
on t
ĠÐ¾Ð±ÑĭÑĩ Ð½Ð¾Ð¹
ĠÑįÐ»ÐµÐº ÑĤÑĢÐ¾
5 7
ÐµÐ½ Ð½Ð¾ÑģÑĤÑĮÑİ
ĠÐ³ÑĢ Ð¸Ð¼
ĠÐ±ÑĢÐ¸Ð³ Ð°Ð´Ñĭ
ĠÐ½ÐµÐ¿ÑĢÐ°Ð² Ð¸Ð»ÑĮÐ½Ð¾
ĠÐ¼Ð½Ð¾Ð³ Ð¸Ð¼
ĠÐĳÑĭ Ð»Ð¸
ĠÐ¾Ð´ÐµÐ¶ Ð´Ðµ
ĠÑģÐ°Ð¼ ÑĭÐ¼Ð¸
ĠÐ·Ð°Ð¼ ÐºÐµ
ĠÐ±ÐµÐ´ Ð½Ñı
ÑĢÑĭÑĤ Ð¸Ðµ
ĠÐ²Ð°Ð¶ Ð½ÑĭÐ¼
ÐµÑģÑģ Ð¾ÑĢ
g le
ÐŃ Ð½
ĠÐ¿ÐµÑĢÐµÐ± Ð¸Ð»
ĠÐ¿ Ð¸Ð²
ĠÐºÐ¾Ð½ ÐºÑĥ
ĠÐ¿Ð»Ð¾ÑīÐ°Ð´ ÐºÐµ
ĠÑĥÑģÑĤÑĢÐ¾Ð¹ ÑģÑĤÐ²Ð¾
ÐµÐº Ð²Ð°ÑĤ
ĠÑħÐ¾Ð»Ð¾Ð´ Ð½ÑĭÐ¹
Ð¸ÑĪ ÐºÐ¸
ĠÐĴÐĴ Ð¡
ÐĹ Ð´ÐµÑģÑĮ
ĠÐ¿Ð¾ÑĪ Ð»Ð¾
ĠÐ¿ÑĢÐ¸Ð² Ð»ÐµÑĩÑĮ
ĠÑĤÐµÐ¼ Ð°
Ð»Ð¸ ÑĢ
ÐµÑģÑģ Ñĥ
/ .
ĠÐ·Ð½ Ð°Ð½Ð¸Ð¹
ĠÐ¸ÑģÐ¿Ð¾Ð»ÑĮÐ· ÑĥÑİÑĤ
Ð¾Ð» Ñĥ
Ð¸ÑĤÐ° ÑĨÐ¸Ð¸
ĠÐ½Ð¾ ÑıÐ±ÑĢÐµ
ĠÑģÐ¾Ð·Ð´ Ð°Ð½Ð¸Ð¸
ĠÑģÐ¾Ð³Ð»Ð°ÑĪ ÐµÐ½Ð¸Ñı
ĠÐ±ÑĥÑĢ ÐºÐ½ÑĥÐ»
ĠÑĢÐ°Ð· Ð¾Ð³
ĠÐ¾ÑĢ Ð´ÐµÐ½Ð°
ĠÐĴÑģ ÐµÐ²
9 9
ĠÐ¾ÑĤ Ð¿ÑĢ
ĠÐ²ÐµÑĢ Ð½ÑĥÑģÑĮ
ĠÐ·Ð² Ð°Ð½Ð¸Ðµ
ĠÑģÐ¼Ð¾ÑĤÑĢ ÑıÑĤ
ĠÐ·Ð°ÑĢ ÑĥÐ±ÐµÐ¶
ĠÑĪ Ð°Ð¹
Ð¸ÑĢÐ¾Ð²Ð°Ð½ Ð¸Ð¸
ĠÐ¸Ñİ Ð»Ðµ
ĠÐºÐ¾Ð¼Ð¼Ñĥ Ð½Ð¸ÐºÐ°
Ð¾Ñģ ÐµÑĢÐ´
ĠÐºÐ¾Ð¼ Ð±Ð¸Ð½
ĠÑĢÐµÑĪ ÐµÐ½Ð¸Ð¹
ĠÐķÐ²ÑĢÐ¾Ð¿ ÐµÐ¹
ÑĢ ÐµÐºÐ¸
ĠÐ³ÑĢÑıÐ· Ð¸
wit ter
Ð°ÐµÐ¼ ÑĭÐ¼
ĠÐ½Ð°Ð¿ Ð¾Ð»Ð¾Ð²Ð¸Ð½Ñĥ
ĠÑħÐ¾Ð´ Ð¸ÑĤ
ĠÐ²ÑĭÑĢ Ð°Ð±Ð¾ÑĤ
Ð°ÑĤ Ð°Ñħ
ÐµÐ· Ð´Ñĥ
ĠÐ¿Ð¾Ð² ÑıÐ·
ĠÐļÐ°Ð¿ Ð¸ÑĤÐ°Ð½
ĠÐ¿Ð¾Ð´ÑħÐ²Ð°ÑĤ Ð¸Ð»
ĠÐĿ Ð¾ÑĢ
ĠÐĿÐ° ÑģÐºÐ¾Ð»ÑĮÐºÐ¾
Ð¸Ð¼ Ð¸Ð½
ĠÑģÑĢÐµÐ´ Ð½ÐµÐ³Ð¾
ĠÐļ Ð½Ð¸
ĠÐ²Ð¾Ð· Ð»ÑİÐ±
ĠÐ¸Ð·Ð²ÐµÑģÑĤ Ð½Ñĭ
ĠÑģÐ»ÑĥÑĩ Ð°Ð¸
ĠÐŁÐµÑĤ ÐµÑĢÐ±ÑĥÑĢÐ³
ĠÐ½ÐµÐ´Ð¾Ð²Ð¾Ð»ÑĮ Ð½Ð¾
ĠÐºÐ°ÑĢÑĮ ÐµÑĢÑĥ
ĠÑĥ ÑĨÐµÐ»
Ðľ Ð¾ÑģÐº
ou t
Ð¹ ÑģÑı
ĠÐ²Ð´ Ð²Ð¾ÐµÐ¼
ĠÐ¼ÐµÑģÑĤ Ð¾Ð¼
Ġ200 3
ĠÐºÑĢÐ°Ñģ Ð½Ð¾
ÐĽ Ðķ
Ðº Ð»ÑİÑĩ
Ð½ÐµÐ¼ ÑģÑı
ĠÑĢÐµÑĪ Ð¸Ð»ÑģÑı
ĠÐ² Ð¸Ð½Ñĥ
ÐºÑĥ ÑĪ
ĠÐ¿ÑĢÐ¾Ñģ ÑĭÐ¿
ĠÐ²ÐµÑĢÑĤ Ð¸Ðº
. âĢĶ
ĠÐĳ Ð¸ÑĢ
ĠÐľ ÐµÐ»ÑĮ
ĠÐŁ Ð¾Ð½ÑıÑĤÐ½Ð¾
ĠÐĽ ÐµÑģ
ĠÑĥÑĩÐ°ÑģÑĤ Ð½Ð¸ÐºÐ¸
Ð¢ Ð¾Ð³Ð´Ð°
Ð½Ð°Ñĩ Ð°Ð»Ñĥ
ĠÐ´ÐµÑĢÐµÐ² Ð½Ñİ
Ġre f
Ð°ÑİÑī ÐµÐ¼
ĠÑįÐ¼Ð¾ ÑĨÐ¸Ð¸
ĠÑĢÑĥÑģ ÑģÐºÐ¸Ð¼
ĠÐºÑĢ Ð¾ÑħÐ¾ÑĤ
ĠÐĵ Ð£
ĠÐĹ Ð°Ð³
Ð· ÑĢ
ĠÐ¤ÑĢÐ°Ð½ ÑĨ
ĠÐ¼Ð°Ñģ Ð»Ð¾
ĠÑģÐ¿ÐµÑĨÐ¸ ÑĦ
ĠÐ¿ÐµÑĢÐµÐº Ð»ÑİÑĩ
ĠÐ³Ð¾Ð´ Ð°Ð¼Ð¸
ÐĲ Ð´
ĠÐ¿Ð» Ð°Ð½Ð¾Ð²
ĠÐ± Ð¸ÑĤÑĮ
ÐµÐ½ÑĮ ÐºÐ¾Ð¹
Ð½ ÐµÐ»Ð¾
ĠÐºÐ¾ÑĢ ÑĢÑĥÐ¿
ĠÐĹ Ð¾Ð»Ð¾ÑĤ
ĠÐ½Ð°Ð³ ÑĢÐ°Ð¶Ð´
ĠÑħ Ð¾ÑħÐ¾ÑĤ
ĠÐ²Ð´Ð¾Ñħ Ð½Ð¾Ð²
ĠÐļ ÑĢÐ¾Ð²
tt p
ĠÐ¿Ð¾Ð· Ð°Ð±
Ðĵ Ð»Ð°Ð²
ĠÐ¾Ð·Ð½Ð°Ñĩ Ð°Ð»Ð¾
ĠÐĵÑĢÐµ ÑĨÐ¸Ð¸
ĠÐ¼ÐµÑĪ Ð°ÐµÑĤ
Ð°Ð± ÐµÑĤ
ĠÐ»Ð¸Ðº Ð²Ð¸Ð´
ĠÐ² Ð¸
Ð§ ÐµÑĢ
ĠÐºÐ°ÑĢÑĤ Ð¸Ð½
ĠÑģÐ¾ ÑģÐº
ĠÐ¿ÑĢÐµÐ´ÑĥÐ¿ÑĢÐµÐ´ Ð¸Ð»
Ð¸Ð² ÑĪÐµÐµÑģÑı
ĠÐ¿Ð¾Ð»Ñĥ Ð¾ÑģÑĤ
Ġh ttp
ĠÐ¿Ð¾Ñģ ÑĭÐ¿
Ñĥ Ð¿ÑĢÐ°Ð²
Ñİ Ð·Ð°
ĠÐ¼Ð°Ð³ Ð½Ð¸ÑĤ
ĠÑĢÐ°ÑģÑģÐºÐ°Ð· Ð°Ð»Ð¸
ĠÐ¾Ñģ Ð°Ð´
ĠÐ¾Ñģ ÐµÐ½ÑĮÑİ
ÐºÐ¾Ð² ÑĭÐ¹
ĠÑĥ Ð¿ÐµÑĢ
ÑĢÐ¸Ñĩ Ð°Ð»
ĠÐ¿ÑĢÐ¸Ð½ÐµÑģ Ð»Ð°
ĠÐĶ ÐµÑĤ
Ġl a
ĠÐ¾Ð± ÑģÑĤÑĢÐµÐ»
ĠÐŁÐ¾Ð» Ð¸ÑĤ
ĠÐ²Ð¾Ð¾ÑĢÑĥÐ¶ ÐµÐ½Ð½ÑĭÑħ
ĠÐ¾Ð³ÑĢÐ¾Ð¼ Ð½ÑĭÐ¼
ĠÐºÐ°ÑĢÐ¼Ð°Ð½ Ðµ
ĠÐ¿Ð¾Ð´Ð¾Ð¶Ð´ Ð°ÑĤÑĮ
ĠÐ½ Ð¾ÑĢ
ĠÐ¡ Ð¡
ĠÑħÐ¾Ð» Ð¼
Ð¾ ÑıÑĤÑĮ
ĠÐ¶ÐµÐ» Ð°Ð»
ĠÐ¼ÐµÐ» ÐºÐ¸Ñħ
ĠÐ² ÐµÑĪ
Ð¼ Ð¸ÑĤ
ĠÐ¾Ð±ÑĢÐ°Ñī Ð°ÑĤÑĮÑģÑı
ĠÑĥÐ±Ð¸Ð¹ ÑĨÐ°
ĠÐº Ð»Ñİ
ĠÐ³Ð»ÑĥÐ± Ð¸Ð½Ñĭ
Ð½Ð° ÑĨÐ¸Ð¾Ð½
ĠÐĳÐ»Ð°Ð³Ð¾Ð´Ð°ÑĢ Ñı
ĠÐ³Ð¾ ÑĢÐ°Ñħ
ĠÑĥÐ¿Ð¾ÑĢ Ð½Ð¾
ĠÐ¿ Ð¸Ð²Ð°
ĠÐ¿ÑĢÐµÐ²ÑĢÐ°ÑĤ Ð¸Ð»ÑģÑı
ĠÐ¿Ð¾Ð· Ð¾ÑĢ
ĠÑģ Ð°Ð¹
Ðķ Ðµ
ĠÐĴ Ð¸ÑĤÐ°Ð»
ÑįÐ¹ Ð½
ĠÐ²Ð¾ÑģÑģÑĤÐ°Ð½Ð¾Ð² Ð¸ÑĤÑĮ
ĠÐ¾ÑĢÑĥÐ´ Ð¸Ð¹
Âł ÑĤÐ°Ðº
ĠÑıÐ² Ð»ÐµÐ½Ð¸Ðµ
ĠÑģÑĢÐµÐ´ Ð½ÐµÐ²
ĠÐ¼ÑĥÐ· ÐµÐ¹
Ð°Ð¹ Ð¼
ÑĢÐ° Ð¸Ð»ÑĮ
Ð¸ÑĢÐ¾Ð² ÐºÑĥ
ĠÐ² Ð¸Ð½Ñĭ
ĠÑģÐ¿ÐµÑĨ ÑģÐ»ÑĥÐ¶
-- --
ÐĿÐ¾Ð² Ð¾ÑģÑĤÐ¸
ĠÐ· Ð°Ð½Ð¾Ð²Ð¾
ÐµÐ» ÐµÐ²
ĠÑħÐ¾Ð»Ð¾Ð´ Ð¸Ð»ÑĮ
ĠÐ²Ð· Ð²Ð¾Ð´
ĠÐ¼ÐµÐ´ Ð²ÐµÐ´
Ð» ÐµÑĩÐµÐ½Ð¸Ðµ
ĠÐ¿Ð¾ÑĢÐ°Ð¶ ÐµÐ½Ð¸Ñı
ĠÑĩ Ð¸Ð½
ĠÑģÑĤÑĢÑĥÐºÑĤ ÑĥÑĢÑĭ
ĠÑģÐ¾Ð²Ð¼ÐµÑģÑĤ Ð½Ð¾
ĠÑĩÐµÐ»Ð¾Ð²ÐµÑĩÐµÑģÐº Ð¸Ñħ
ĠÐ¿ ÑĥÑĩ
on d
ĠÐ´ ÐµÐ·
ĠÐ·Ð°Ðº Ð¾Ð½Ð¾Ð²
ĠÐ¿Ð¾Ð´Ðº ÑĢÐµÐ¿
ĠÑĢÑĥÑģ ÑģÐºÐ¾Ð¼
ĠÑģ ÐºÐ°Ñĩ
ĠÑĥÐ´Ð°ÑĢ Ð¾Ð²
Ġw h
ĠÐ² Ð»Ð¾Ð¶
ĠÐ¿Ð¾ Ð½Ð°ÑĩÐ°Ð»Ñĥ
ĠÐ²ÑĭÐ´ÐµÑĢÐ¶ Ð°Ð»
ĠÐ²Ñĭ Ð´Ð°ÑİÑī
ĠÐ±Ð»Ð°Ð³ Ð¾Ð¿ÑĢÐ¸ÑıÑĤ
ĠÐ¿Ð¾Ð½Ð¸Ð¼ Ð°Ð»Ð¸
ĠÐ¾ÑĤ ÑĢÐµÐ°Ð³
ĠÐ±ÑİÐ´Ð¶ ÐµÑĤÐ°
ĠÐ¡ ÑĥÑħ
Ð» ÐµÐµ
ĠÑĩÐµÑĢ Ð½Ð¾Ð¼
Ðĵ Ðĺ
ĠÐ·Ð°ÑıÐ² Ð»ÐµÐ½Ð¸Ñı
ĠÑĦÑĢÐ¾Ð½ ÑĤÐµ
ĠÐ½Ðµ ÑĤÐ¾ÑĢÐ¾Ð¿
ĠÐ»ÐµÐ³ ÐºÐ¾Ð¹
Ðĳ Ð£
ĠÐ¾Ð¿ÑĢ Ð¾Ðº
iv e
ĠÐ¾ ÑĢÐ°Ð½Ð¶
ĠÐ¾ÑĤÑĩ Ð°ÑģÑĤÐ¸
ĠÑģÑĤÐ°ÑĢ Ð°ÑĤÐµÐ»ÑĮÐ½Ð¾
ĠÐĺÐ½ÑģÑĤ Ð¸ÑĤÑĥÑĤ
ÂłÐ¢ ÐµÐ±Ðµ
ĠÑĤÐµÐ» ÐµÑģ
ĠÐ±ÑĭÐ² Ð°Ð»
ĠÑģÐº Ð°Ð»Ñĭ
ÐłÑ ķ
ĠÐ¿Ð°ÑĢ Ð°Ð¼ÐµÑĤ
ĠÐ¿ÑĢÐ¾ ÑģÐº
ÑģÑĤÐ²Ñĥ Ñı
ĠÐ°Ñģ ÑĦÐ°Ð»ÑĮ
ĠÐ¾Ð±Ð» Ð°ÐºÐ°
ĠÐ²ÑĭÑģÑĤÑĥÐ¿ Ð°ÐµÑĤ
ĠÑĢÐ°Ð· Ð³ÑĢÐ¾Ð¼
ĠÐ±ÐµÑģ ÑĪ
ĠÐ¿ÑĢÐ¾ÑĨ ÐµÐ½ÑĤ
ĠÐºÑĢÐ¸Ð· Ð¸ÑģÐ°
ĠÐ¸Ð·Ð½Ð°Ñĩ Ð°Ð»ÑĮÐ½Ð¾
Ð°Ðº ÑĤÐ°
ĠÑĢÐ°Ð· Ð³Ð¾
ĠÑĤÐ°Ð¹ Ð½Ñĭ
ĠÐĶ ÑĥÐ±
ĠÐºÐ°Ð¿ ÐµÐ»ÑĮ
Ð²Ð¸Ð¶ ÐµÐ½Ð¸Ñı
ĠÐ¶ Ð°Ð¶Ð´
ĠÐ¡ Ð¾ÑĤ
Ðľ Ð¸ÑĢ
ĠÐ½Ð°Ð±Ð»Ñİ Ð´Ð°Ñı
ĠÑįÐº Ð·ÐµÐ¼
Ðĳ ÐµÐ»
ĠÐ¿Ð¾Ð´ Ð°ÑĤÑĮ
ĠÐ¼ÑĥÑģ Ð¾ÑĢ
ĠÐ¿Ð¾Ð´ Ð¾Ð¹ÑĤÐ¸
ĠÑģÐ¾Ð²ÑĢÐµÐ¼ ÐµÐ½Ð½ÑĭÑħ
a il
ĠÑĢÐ°Ð· ÑĢÐµÐ·
ĠÐ¿ÑĢÐ¸Ð¼ÐµÐ½ ÐµÐ½Ð¸Ñı
ÐµÐ¼ Ñĩ
ĠÐ´Ð¾ÑģÑĤ Ð¸ÑĩÑĮ
ĠÐ½ÐµÐ±Ð¾Ð»ÑĮÑĪ Ð¸Ðµ
Ð¿ Ð¸
ÐĿ Ð°Ñĩ
ĠÑħÐ¾ÑĢÐ¾ÑĪ ÐµÐ¹
Ð²Ð¸Ð´ Ñĥ
ĠÐ½ÐµÐ½Ð°Ð²Ð¸ÑģÑĤ ÑĮ
ĠÐ¾ ÑĪÐµÐ»Ð¾Ð¼
Ð¾ÑĦ ÐµÑĢ
ĠÑģÐ¾Ð³Ð»Ð°ÑĪ ÐµÐ½Ð¸Ðµ
ĠÐŁÐ¾Ð´ Ð¾Ð±
ĠÐ³Ð¾ÑĢÐ¸Ð· Ð¾Ð½ÑĤ
Ñı ÐºÐ¸
ĠÐºÐ¾Ð¼ ÑĦÐ¾ÑĢÑĤ
ĠÐ½Ð°ÑĢÑĥÑĪ ÐµÐ½Ð¸Ðµ
Ð·Ð° Ñī
ÐĲ Ðł
ĠÐ³Ð¾ÑģÐ¿ Ð¾Ð¶Ð°
ĠÑĩÐ¸ÑģÑĤ Ð¾Ð¹
Ð¸ÑģÑĤ Ð°Ð¼Ð¸
ĠÐ´Ð¾Ð± ÑĢÐ°
Ð¸Ð²ÑĪ Ð¸Ð¼ÑģÑı
ĠÐ¿Ð¾Ð»Ð°Ð³ Ð°Ñİ
Ñĳ Ð¿
ĠÐ¿ÑĢÐ¾Ð´ Ð²Ð¸Ð³
ĠÐŁÑĢ Ð¾ÑĪÑĥ
Ð¼Ð¸Ð½Ð¸ÑģÑĤ ÑĢ
ĠÐ¿ÑĢÐ¸Ð±Ñĭ Ð»ÑĮ
ĠÐºÑĢÐµÐ¿ Ð¾ÑģÑĤÑĮ
ĠÐºÑĢÑĭÐ»ÑĮ Ñı
ĠÐ¿Ð¸Ñī Ð¸
Ð½ÐµÐ¹ ÑĪÐ¸Ðµ
ĠÐ½ÐµÐ±Ð¾Ð»ÑĮÑĪ Ð°Ñı
ĠÑĢÐµÐ¿ ÑĥÑĤÐ°
ÐµÐ»ÑĮ Ð´
Ð¾Ð¶Ð¸Ð´ Ð°Ð½Ð½Ð¾
ĠÐ³Ð¾ÑĢÐ¾Ð´ ÑģÐºÐ¾Ð³Ð¾
ĠÑģÐ¾Ð»Ð½ ÑĨÐµÐ¼
ĠÑģÐ»ÐµÐ´ ÑģÑĤÐ²Ð¸Ñı
ĠÐ´Ð¾ÐºÑĥÐ¼ ÐµÐ½ÑĤÐ°
ĠÐ¡ Ð½Ð¾Ð²Ð°
ĠÐ´Ð¾Ð» Ð³Ð¾Ð²
Ð»ÐµÐ½ Ð´
ĠÐ¡ Ð»Ð°Ð²Ð°
Ðľ Ð°Ð»
ĠÑĪ ÑĢÐ°Ð¼
ĠÐ¾Ð³ÑĢÐ¾Ð¼ Ð½Ð°Ñı
ĠÑģÐ¿ÑĢÐ°ÑĪ Ð¸Ð²Ð°Ñİ
ĠÑģÐ¸Ð½ ÑĤ
ĠÐ½Ðµ ÑģÐ»
ĠÐ¿Ð»Ð°ÑĤÑĮ Ñı
ĠÑĤÑĥ ÑĦ
Ð½Ð¾Ð¶ ÐºÐ¾
ĠÐ¸Ð´ ÑĳÑĤ
ĠÐ¾Ð±ÑĢÐ°Ñī Ð°ÑıÑģÑĮ
ĠÐ£ Ñģ
ĠÑĥÐ±Ð¸Ð¹ ÑģÑĤÐ²Ðµ
as t
ĠÐ¿Ð¾ÑģÑĤÑĢÐ¾ Ð¸ÑĤÑĮ
ĠÑĢÐ°Ð·Ð¼ÐµÑĢ Ð¾Ð²
ĠÑĤÐ¾Ð» ÐºÐ¾Ð¼
Ð» Ð°Ð¹Ð½
a z
ĠÑģÑĢÐµÐ´ Ð½ÐµÐ¼
ĠÐ¸Ð³ ÑĢÐ¾Ð²
ĠÐ¼ÐµÑĢÐ¾Ð¿ÑĢÐ¸ÑıÑĤ Ð¸Ñı
ĠÑĦÑĢÐ°Ð½ÑĨÑĥÐ· ÑģÐºÐ¸Ð¹
ĠÐĳ Ð¾Ð³Ð¾
ĠÐ½Ð° ÐµÐ´Ð¸Ð½Ðµ
Ð°Ñī ÐµÐ³Ð¾
ĠÐ·Ð°ÐºÐ¾Ð½ Ñĥ
ĠÐ½Ð°Ð´ ÐµÐ¶Ð´Ñĥ
ĠÑĥÑĩ ÐµÑĤÐ¾Ð¼
Âł Ð²Ñĭ
ĠÐ²Ð¾ÑģÑĤ Ð¾ÐºÐµ
ĠÐ¾Ð±Ñģ ÑĥÐ¶
ĠÑģÑĤ Ð¸Ð»ÑĮ
Ð¸ÑĢ Ð°Ð»Ð°
ÐĿ ÐµÑģ
ĠÑģÑĤÐ°Ð½Ð¾Ð² Ð¸Ð»ÑģÑı
ĠÐĵÐ¾Ð²Ð¾ÑĢ ÑıÑĤ
ĠÐ¸ Ð´Ñĥ
Ð½ÑĥÑĤ ÑĭÐµ
ĠÐµÐ´Ð¸Ð½ ÑģÑĤÐ²ÐµÐ½Ð½Ð¾Ð¹
ĠÐ±Ð»Ð¸Ð· ÐºÐ¸Ñħ
ÐµÐ»ÑĮ Ð³
ĠÑĪ Ð¾Ñĥ
ĠÐĴÐ¿ÐµÑĢ Ð²ÑĭÐµ
ĠÐºÐ¾Ð½ ÑĨÐµÐ½ÑĤ
Ð¸Ð²ÑĪ ÑĥÑİÑģÑı
ĠÐ¥ ÑĮÑİ
ÑĪÐ°Ñı ÑģÑı
Ð½Ñĥ ÑĢ
ÑĥÑħ Ñĥ
ĠÐ»ÑĥÑĩ ÑĪÐµÐ³Ð¾
ĠÐ½Ð°Ð± ÑĢÐ¾Ñģ
ĠÐ¿Ð¾Ð·Ð²Ð¾Ð½ Ð¸ÑĤÑĮ
ĠÐ½Ð¾Ñģ Ð¸ÑĤ
ĠÑģÑİÑĢ Ð¿ÑĢÐ¸Ð·
Ð°ÑİÑī Ð¸Ð¼ÑģÑı
ĠÐ¿ ÐµÐ¹Ð·
ĠÐ¿ÑĢÐ¸Ñģ ÐµÐ»
ĠÐ¿Ð¾Ð´ÑĢÐ°Ð· ÑĥÐ¼
ĠÑĢÐ°Ð·ÑĥÐ¼ Ð°
ĠÑģÑĩÐ¸ÑĤ Ð°Ð»Ð°
Ð² ÐµÐ·Ð´
ĠÑĪ ÑĤÐ¾ÑĢ
ĠÐ·Ð°Ð¿ ÐµÑĩÐ°ÑĤ
ĠÐ¾Ð´ÐµÑı Ð»Ð¾
Ð¾Ñģ ÑĥÐ´
ĠÐ¼Ð°ÑĢÑĪ ÑĢÑĥÑĤ
ĠÐ¸Ð¼ÑĥÑīÐµ ÑģÑĤÐ²Ð°
ĠÐ¿ÑĥÐ½Ðº ÑĤÐ¾Ð²
Ð¸Ð½Ð°Ð¼ Ð¾
ĠÑģÑĤÐ¾ÑĢ Ð¾Ð¶
ĠÑģÐ»Ð¾Ð¶ Ð½Ð¾ÑģÑĤÐ¸
Ñĥ Ð½Ñĭ
ĠÐ½Ð°ÑħÐ¾Ð´ Ð¸Ð»Ð¾ÑģÑĮ
ĠÐ¾Ð±ÑīÐµ ÑģÑĤÐ²ÐµÐ½Ð½Ð¾Ð³Ð¾
ĠÑģÐ¾Ð·Ð½ Ð°Ð½Ð¸Ð¸
ĠÐ´Ð¾ÑģÑĤ Ð°ÑĤÑĮ
Ð¾Ð» Ð´
ÐºÐ¾Ð² ÑģÐºÐ¸Ð¹
ÐµÑĩ Ð½Ð¾Ð³Ð¾
ĠÐ½ÐµÐ»Ð¾Ð² ÐºÐ¾
ĠÐ¿ÑĢÐ¾Ð´Ð¾Ð»Ð¶ Ð°Ñı
or k
ÑĢÐ¾Ð¿ Ð¾Ð»
ĠÑĢÐ¾Ð´ÑģÑĤÐ²ÐµÐ½ Ð½Ð¸ÐºÐ¾Ð²
ĠÐ´ ÐµÑĢÐ³
ĠÑģÐ¿Ð¾ÑĢÑĤ ÑģÐ¼ÐµÐ½
ĠÐ²Ð·Ð´ÑĢÐ¾Ð³ Ð½ÑĥÐ»
ĠÑĢÑıÐ´ Ñĭ
Ð» ÑĭÐ»
ĠÐĸ Ð¸Ð·Ð½ÑĮ
Ð¸Ñĩ ÐµÐ¹
ĠÐ¼ÑĥÐ¶Ñĩ Ð¸Ð½Ð¾Ð¹
ĠÐļ ÑįÑĢ
ÐµÑĩ Ð½ÑĭÑħ
ĠÑĤÐµÐº ÑģÑĤÐ°
ĠÐ½Ð°Ð¿ÑĢÑı Ð¼
ĠÑĤÑĢÐ°Ð½ÑģÐ¿ Ð¾ÑĢÑĤÐ°
Ð§ Ð¡
ÐµÐ³Ð¾ ÑĢÐ¾Ð´
ĠÐ¿ÑĢÐ¸ÐµÑħ Ð°Ð»Ð°
ĠÐŁÑĢÑı Ð¼Ð¾
ĠÑĦ Ð°Ð±ÑĢ
ĠÐ¿Ð¾Ð· Ð²Ð°Ð»
ĠÐµÐ¶ÐµÐ´Ð½ÐµÐ² Ð½Ð¾
Ð°ÑĢÑĤÐ°Ð¼ ÐµÐ½ÑĤÐ°
ĠÑģ ÐµÐ»Ðµ
Ñĩ ÐºÐ°
ÑĭÑħ Ð°Ð»
ÐµÐ² ÑĪÐµÐ¹
ĠÐ¿Ð¾Ðº ÑĥÑĪ
ĠÑĥÑģÑĤÑĢÐ¾Ð¹ ÑģÑĤÐ²Ð°
ĠÐ¸ÑģÐ¿Ð¾Ð»ÑĮÐ· Ð¾Ð²Ð°Ð»
ĠÐºÐ¾Ð½ÐµÑĩ Ð½Ð¾Ð¼
Ġ Z
Ġ3 7
ĠÑĥÐ»Ð¸ ÑĨÐ°Ð¼
ĠÐ¼Ð¾ Ð¸Ð¼Ð¸
ÑĤÑĢ Ð¾Ð¿
ĠÐ±Ð»Ð°Ð³Ð¾ ÑĤÐ²Ð¾ÑĢ
ĠÐ¿Ð¾Ðº ÑĢÑĭ
ĠÐ¿ÑĢÐ¸Ð·Ð½ Ð°ÑĤÑĮÑģÑı
ac k
ĠÐľ Ð°ÑĪÐ°
ĠÐ·Ð°Ð¼ Ðº
ĠÐ¼Ð°ÑģÑģ Ñĥ
Ð¾Ð½ Ð½ÑĭÐ¹
ĠÐ¿Ð¾Ð¿ÑĭÑĤ ÐºÑĥ
ÂłÐŁ ÑĢÐ°Ð²
ÑĳÐ½ Ð½Ð¾Ð³Ð¾
Ð¾Ñħ Ð°
ÐµÐ½ÑĤ Ðµ
ĠÐ¿ÑĥÑĤÐµÑĪÐµ ÑģÑĤÐ²ÐµÐ½
ĠÐł Ð°Ð´Ð¸
ĠÐ·Ð°Ð± Ð¾Ð»
ĠÐ¾Ð¿ÐµÑĢÐ° ÑĨÐ¸Ð¹
ĠÐ½Ð°Ð±Ð»ÑİÐ´ ÐµÐ½Ð¸Ñı
ĠÐĲÐ»ÐµÐºÑģÐµ Ñı
Ð¾Ð»Ð¾Ð³ Ð¸ÑĩÐµÑģÐºÐ¾Ð¹
ĠÐº Ð°Ð»Ð¸
ÐºÐ¾Ð¼ Ð¿
ĠÐ´Ð¾Ð¶ Ð¸Ð´Ð°
ĠÐ¼ ÐµÐ½ÑĤ
ĠÐ½Ð°Ñĩ Ð½ÐµÑĤÑģÑı
ĠÐ´Ð¾ÑĪ Ð»Ð¾
ĠÐ·Ð°ÐºÑĢÑĭ ÑĤÑĮ
ĠÐ·Ð°Ð¿ Ð»Ð°Ðº
ĠÐ¶ Ð°Ð½
ÑģÐ¿ ÑĢÐ°ÑĪ
ĠÐ³Ð»ÑĥÐ± Ð¶Ðµ
ĠÐ¿Ð¸Ñģ Ð°ÑĤÐµÐ»Ñı
ĠÑĥÑĩÐ¸ÑĤ ÑĭÐ²Ð°Ñı
ĠÐ²ÐµÐ»Ð¾ÑģÐ¸Ð¿ ÐµÐ´
Ð¸ÑĤ Ð»ÐµÑĢ
ĠÑģÐ»ÐµÐ´ Ð¾Ð²Ð°ÑĤÑĮ
ĠÐ¿ÐµÑĩ Ð°Ð»ÑĮÐ½Ð¾
Ð¾ ÑĤÐ¾ÑĢ
Ðļ Ð¾Ð»
ĠÑģÑĩ ÐµÑĤÑĥ
ĠÐºÐ°ÑĢ Ð´Ð¸Ð½
ÐµÐºÑĤ Ñĭ
ĠÐ¼Ð¸Ð» ÑĭÐ¹
ĠÐ·Ð°Ð¼ ÑĭÑģÐ»
ĠÑĤÑĥ Ð°Ð»ÐµÑĤ
ĠÐ°ÑĢÑħ Ðµ
u re
ÑĥÐ´ ÑĪ
Ð¸ÑģÑĤ ÑģÐºÐ¾Ð¹
ĠÑĥÑģÑĤ Ð°Ð»Ð¾
Ð°ÑģÑĤ Ð¾
ĠÐ¿Ð¸ÑĤ Ð°Ð½Ð¸Ñı
ĠÑĢÐµÐ»Ð¸Ð³ Ð¸Ð¸
ĠÐ¿ÑĢÐµÑģÑĤÑĥÐ¿ Ð»ÐµÐ½Ð¸Ðµ
ÐŃ Ð¡
ĠÑģÐ»ÐµÐ· Ð°Ð¼Ð¸
ĠÑģÐ¾ ÑİÐ·Ð°
Ð¸Ð´ÐµÑģÑı ÑĤ
ĠÑģÐµÑģÑĤ ÑĢÑĥ
ĠÑĢÑĭÐ± Ñĭ
ĠÐ¾Ð±ÑĢÐ°Ñī Ð°Ñı
Ð¼ Ð°Ð·
ĠÐ¾ÑĤÐ´ÐµÐ»ÑĮ Ð½Ð¾
Ð· Ð°Ð¼
ĠÑĥÐ± ÐµÐ³
ĠÑĢÐµÐº Ð¾ÑĢÐ´
ĠÑĢÐµÐ¶Ð¸Ð¼ Ðµ
Ð°ÑĢ Ð°Ð±
ĠÑıÐ² Ð»ÐµÐ½Ð¸Ñı
ĠÐ²ÐµÐ»Ð¸Ðº Ð¾Ð¹
ĠÐ½ÐµÑĢ ÐµÑĪ
ĠÐ¦ Ð¡ÐļÐĲ
Ġ3 9
ĠÑħÐ¾Ð·ÑıÐ¹ ÐºÐ°
ĠÐķ ÑĦ
ĠÐ¿ Ð°Ð»Ð°
ĠÐ² Ð½Ð°ÑĩÐ°Ð»Ðµ
ĠÐ½Ð°Ð·ÑĭÐ² Ð°ÐµÑĤ
T he
ĠÐ¿Ð¾ÑģÑĤÐ°Ð² Ð¸Ð»Ð°
ĠÑĦÐ¸Ð»ÑĮ Ð¼Ðµ
ĠÐ¼Ð¾Ð»Ð¾Ð´ ÑĭÐ¼
Ð»ÑĥÑĪ Ð°Ð¹ÑĤÐµ
ĠÐ¾Ð±ÑĬÑıÑģÐ½ ÑıÑĤÑĮ
ĠÐ¿Ð¾ ÐµÐ·Ð´Ð°
ĠÐ½Ð¸ ÑģÐºÐ¾Ð»ÑĮÐºÐ¾
19 0
ĠÐ¼ Ð¾ÑĪÐµÐ½
ÐºÐ¾Ð² ÑĭÐµ
Ð¾ Ð½Ð¾
ÑĥÑĪ Ð°
ĠÐ¼Ð¾Ð¼ÐµÐ½ÑĤ Ñĭ
ĠÐ°ÐºÐºÑĥ ÑĢÐ°ÑĤ
ĠÑĪ Ð¾Ðº
ĠÑĥÐ½Ð¸Ð²ÐµÑĢÑģ Ð¸ÑĤÐµÑĤÐµ
ĠÑĦÐ°Ð¼ Ð¸Ð»Ð¸Ñı
Ñģ ÐµÐ³Ð¾
Ð¶ ÐµÑĢ
ÑĨÐ¸Ð¾Ð½ Ð½Ð°Ñı
ĠÐ¿Ð¾ÑģÐºÐ¾ÑĢ ÐµÐµ
Ñĩ ÐµÐ¹
ĠÑģÐ²ÑıÑĤ Ð¾Ð³Ð¾
ĠÐ¿ÑĢÐ¸Ð· Ð²Ð°Ð½
ĠÐ¸Ñī ÐµÑĤ
ĠÑģÐ¼ ÑıÐ³Ñĩ
ĠÐ¿Ð¾ÑĤÐµÑĢ Ñı
ĠÑĦ ÑĢÐ°Ð½
ĠÐ¾ÑĤÐ¿ÑĢÐ°Ð² Ð¸Ð»Ð°ÑģÑĮ
ĠÐľÐ¸ÑħÐ° Ð¸Ð»Ð°
ĠÐ²Ð¿ÐµÑĢ ÑĳÐ´
ĠÐ²ÑĭÐ¿ Ð°Ð´
ĠÐ¿Ð¾Ð¼Ð¾Ñī Ð½Ð¸Ðº
ĠÐº Ð³
ĠÐ¾Ð· Ð°Ð´Ð°Ñĩ
ĠÐ·Ð°ÐºÐ¾Ð½ Ð¾Ð¿ÑĢÐ¾
ĠÑĤÐ¾Ð»Ð¿ Ðµ
ĠÐµ Ð³Ð¸Ð¿
ĠÐ²Ð¾Ð·Ð²ÑĢÐ°Ñī Ð°ÐµÑĤÑģÑı
Âł ÑįÑĤÐ¾
Ð» Ð¾ÑģÑĤÑĮ
ĠÐ¿ÑĢÐ¾ÑĢ Ð²
Ð¸Ñģ Ñĭ
ĠÐ¿ÑĢÐ°Ð² ÑĥÑİ
ĠÐ¿Ð¾Ð¿ÑĢÐ¾Ñģ Ð¸ÑĤÑĮ
ĠÑĥÑħ Ð°Ð¶
ĠÐ¡ÐµÐ² Ð°ÑģÑĤ
ĠÑĪ Ð¾ÐºÐ¾Ð»
at e
Ð³ Ð¾Ð»ÑĮ
ĠÑģÐ¾Ð´ÐµÑĢÐ¶ Ð°Ð½Ð¸Ñı
ĠÐ½Ð°Ð´ Ð»ÐµÐ¶
Ð¡ ÑĤÑĢ
Ð¾ÑĢ Ð°ÑĤÐ¸Ð²
ĠÑĥÑĩÐ°ÑģÑĤ Ð¸ÐµÐ¼
ÐµÑģ ÑĩÑĥÑĢ
ĠÐ¶Ð¸Ð²Ð¾ÑĤ Ð½Ð¾Ðµ
ĠÐ³Ð»Ñı Ð½ÑĥÐ»
ÐĴ ÑĤÐ¾ÑĢ
ĠÑģÐ¿ÑĥÑģÑĤ Ð¸Ð»ÑģÑı
ĠÑģÑĤÐ°Ð± Ð¸Ð»ÑĮ
ÑĥÑĢ Ð¸
Ð¸Ð¼ ÑĥÑİ
ĠÑģÐ²ÑıÐ· Ð°Ð½
ĠÐ½ÐµÐ½ Ð°Ð´Ð¾Ð»Ð³Ð¾
ĠÐ¾ÑĨÐµÐ½ Ð¸ÑĤÑĮ
ĠÑģÐ² Ð°ÑĢ
ĠÐ² Ð³Ð»ÑıÐ´
ĠÐĲ Ð¼ÐµÑĢÐ¸ÐºÐ°Ð½
ĠÑįÐ½ ÑĤÑĥÐ·Ð¸
ĠÐ¼ÐµÐ¶Ð´ÑĥÐ½Ð°ÑĢÐ¾Ð´ Ð½ÑĭÑħ
ĠÐŁÑĢÐ¸ÑĪ Ð»Ð¾ÑģÑĮ
Ðł Ð
Ðł Ð°Ñģ
ĠÐ¿ÑĢÐ¸ÑģÑĤ Ð°Ð²
5 3
ĠÐ¼Ð¾ÑĢ Ð³
ĠÑģÐ¾Ðº ÑĢÐ°ÑĤ
ĠÐĴÐ°ÑģÐ¸Ð»ÑĮ ÐµÐ²Ð¸Ñĩ
ĠÐºÐ¾Ð½ÑĤ Ð¸Ð½
ĠÐ¿ÐµÑģ ÐµÐ½
ĠÐ²ÑģÑĤÑĢÐµÐ² Ð¾Ð¶
ĠÑĦ Ð¸
ĠÐ¿Ð¾ÐµÐ·Ð´ ÐºÐ¸
ĠÑģÐ¾Ð¾Ð±Ñī Ð°ÐµÑĤÑģÑı
ĠÐ¦ ÐµÑĢÐºÐ²Ð¸
ÐµÐ¹ Ð´
Ð¿ÑĢ ÐµÐ·
ĠÐĵ Ð°Ð·
ĠÐ´Ð² Ð°Ð´ÑĨÐ°ÑĤ
ĠÐ¿Ð¾Ð´Ð½ Ð¾Ð¶
Ð½Ð°Ð¿ ÑĢÐ¸Ð¼ÐµÑĢ
ĠÐ² Ð¿ÑĢÑıÐ¼
ÑĥÑĢ Ñģ
ĠÑĤ ÑıÐ³
ĠÐŁÑĢÐ¾ ÑĦ
ĠÐ¿Ð¾ÐºÐ»Ð¾Ð½ Ð¸Ð»ÑģÑı
ĠÑĦÐ°Ð¼ Ð¸Ð»Ð¸Ð¸
ĠÐ¼Ð½Ð¾Ð³Ð¾ÑĩÐ¸Ñģ Ð»ÐµÐ½Ð½ÑĭÑħ
Ð»ÐµÐº ÑĤÑĢ
ĠÐºÐ°Ð¼ ÐµÑĢÑĭ
ÂłÐ§ ÐµÐ³Ð¾
ĠÐ³Ð°ÑĢ Ð½Ð¸Ð·
ĠÑħÑĥÐ´Ð¾Ð¶ Ð½Ð¸ÐºÐ°
ĠÑĢÐ°ÑģÑĤ ÐµÐ½Ð¸Ñı
Ġ4 00
ĠÐ¿ÑĢÐ¾ÑģÑĮ Ð±Ð¾Ð¹
ĠÑģ Ð´Ð°
Ð² ÐµÐ¶
ĠÐ³Ð¸ Ð¿ÐµÑĢ
ĠÑĤÐµÐ¼ Ð½Ð¾Ð¹
ĠÐ¤ ÑĢÐ¸Ð´
ÑĥÐ» Ñĥ
on e
ĠÑĥÑĩÐµÐ½Ð¸ ÐºÐ¾Ð²
ĠÐ¾Ð¿ÑĢÐ¾Ð² ÐµÑĢÐ³
Ð¸Ðº Ð°Ñħ
ĠÑĢÐ°ÑģÑģÑĩÐ¸ÑĤ ÑĭÐ²Ð°ÑĤÑĮ
ĠÐ½Ð°Ð± Ð¾ÑĢ
ĠÐ¼Ð°Ð³Ð°Ð· Ð¸Ð½Ð°
ĠÑģÐ»ÑĥÐ¶ Ð±Ð°
ĠÑĥÐ»Ð¸ ÑĨÐ°Ñħ
Ð´ Ð¸Ðº
ĠÑģÑĥÐ´ÑĮ Ð±Ðµ
ĠÐº Ð¾Ð²Ð°ÑĢ
ĠÐ¾ÑĤÐºÑĢÑĭÑĤ Ð¸Ñı
ĠÑģÐº ÑĥÐ¿
ĠÐ³ÐµÑĢ Ð¾ÐµÐ²
ĠÐ¾ÑĤÐ²ÐµÑĢ Ð½ÑĥÐ»ÑģÑı
ĠÑĥÐ² Ð¾Ð»
ĠÑģÑĤÑĢÐ°ÑĪ Ð½Ð¾Ð³Ð¾
Ð°ÐµÐ¼ Ð°Ñı
Ð² ÑģÐµ
ĠÐ¿Ð¾Ð» Ð¾ÑģÐº
ĠÑģÐ²ÐµÑĤ Ð»Ð¾
t rue
ĠÐĿ Ð°Ð³
ĠÐ¢ Ð°Ð½Ñı
ĠÐ¿ÑĢÐ¾Ð´ Ð°Ð¶
ĠÑĢÐ°Ð·Ð² Ð»ÐµÐº
ÑĢÑĭÑĤ Ð¸Ñı
ĠÐ±Ð¸ÑĤ Ð²Ñĭ
ĠÐ¸Ð³ÑĢ Ð¾Ðº
ĠÐ½Ð°Ð¿ ÑĢ
ĠÑįÐºÐ·ÐµÐ¼ Ð¿Ð»Ñı
ĠÐ¾Ð´ ÐµÐ²
ĠÐ±ÐµÑģ ÑĨ
Ñģ ÑĢ
ÐĹ Ð°ÑĤÐµÐ¼
ĠÐ»Ð¸ÑĤÐµÑĢÐ°ÑĤÑĥÑĢ Ðµ
ÑĤÑĢ Ð¸Ð½
ĠÐ»ÐµÐ³ ÐºÐ¸Ð¹
ĠÐ¿Ð°ÑģÐ¿ Ð¾ÑĢÑĤ
ÑĢÐ¸ ÑĦ
Ðľ Ð¾Ð¶ÐµÑĤ
ĠÐ±Ð» Ð¾Ð½
ĠÐºÐ¾Ð¿ ÑĭÑĤ
5 1
ĠÐ´ Ð½Ð¾
ĠÐ´ Ð°Ð¼Ð°
Ð¸ÑĢ ÐµÐºÑĤÐ¾ÑĢ
ÑĥÐ»ÑĮ ÑĤÐ°
ĠÐºÑĥÑħ Ð½Ð¸
ÐŁ Ðŀ
ĠÑģÐ²ÑıÐ· Ð°Ð½Ð½ÑĭÑħ
ĠÑĤÑĢÐµÑĤÑĮ ÐµÐ¼
ĠÐ²ÑĭÑģÑĤÑĥÐ¿ Ð°Ð»
ĠÑĢÐ°Ð·Ð² Ð¾ÑĢÐ°Ñĩ
ĠÐļÑĥÐ· ÑĮ
Ñģ ÐµÐ»ÑĮ
ĠÑĥÑģÐ»ÑĭÑĪ Ð°Ð²
ĠÐ²Ð½ÑĥÑĤÑĢÐµÐ½ Ð½Ð¸Ð¹
Ð½ Ð¸Ð»Ð°
ÐĲ Ð¹
ĠÐ¾Ð´ Ð½Ð¾Ðº
ĠÑĥÑĩ Ð¸Ð»ÑģÑı
ĠÐ¿ ÑĥÐ·Ñĭ
ÑĪ Ð°Ð»
Ð¸Ñģ Ð¾Ð²
ĠÐ¿ ÑĥÑħ
Ġ19 20
ĠÐ´Ð¾Ð² Ð¾Ð»ÐµÐ½
ĠÑģÑĤÑĥÐ´ ÐµÐ½ÑĤÐ¾Ð²
ĠÑģÐ¾Ð± ÑĢÐ°Ð»
ÐµÑĢÑĮ ÑĤÐµ
ĠÑģÐ¿ÐµÑĨÐ¸Ð°Ð»Ð¸ÑģÑĤ Ñĭ
ĠÐ¿ÑĢÐµÐºÑĢÐ°ÑĤ Ð¸ÑĤÑĮ
ĠÐ¿ÑĢÐµÐ´ Ð¿Ð¸Ñģ
ĠÐºÐ¾Ð¼ ÐµÐ½Ð´
Ð°ÑĤÐµÐ»ÑĮ Ð½Ð¾Ð¼
ĠÐ¿ Ð¾Ð±Ñĭ
ĠÐ°Ð²ÑĤÐ¾ Ð½Ð¾Ð¼
ĠÐ¿ÑĢÐ¾Ð½ ÐµÑģ
ĠÐ±ÐµÐ» ÑĭÐ¼
ĠÐ¼Ð°ÑĤÐµÑĢÐ¸ Ð°Ð»Ð°
Ð´Ð¸ ÑĪÑĮ
Ð°Ð²ÑĪÐ°Ñı ÑģÑı
ĠÑģÑĤÐ°Ð´ Ð¸Ð¸
ĠÐ§Ð°ÑĢ Ð»Ð¸
ĠÑģ Ð½Ð¸Ñģ
ĠÑģÑĢÐµÐ´ Ð½ÐµÐ¹
Ñĳ ÑĤÐ°
ĠÐ¼Ð¾Ð½Ð¸ ÑĤÐ¾ÑĢ
ĠÐ¾Ð± Ð¾Ð»
ĠÐĳ Ð°
ĠÐ¸Ð¼Ð¿ ÑĥÐ»ÑĮ
ÑģÐ»ÑĥÐ¶ Ð±Ðµ
ĠÐ·Ð°Ð» Ð¸Ð²
ĠÑİ Ð³Ðµ
ĠÑĤÑıÐ¶ ÑĳÐ»
ĠÐ¡ÑĤÐ¾ Ð¸ÑĤ
ĠÐ¼Ð¾Ð½ Ð°ÑĢÑħ
ĠÐ¿Ð¾ÑģÑĢÐµÐ´ ÑģÑĤÐ²Ð¾Ð¼
ĠÐĲ ÑģÑģ
ĠÐºÐ»ÐµÑĤ ÐºÐ¸
ÐĶÐµÐ² ÑĥÑĪÐºÐ°
ĠÐ¿Ð°ÑĢ ÑĤÐ¸Ñİ
ĠÐ¿Ð¾ÑĤÐµÑĢ ÑıÐ²
ĠXV III
ĠÐ½Ð°Ð·Ð² Ð°Ð»Ð¸
Ð¸ÑĢ Ð¾Ð¼
Ð¸ÑĢÐ¾Ð²Ð°Ð½ Ð½Ð°Ñı
ĠÐĶ Ð½ÐµÐ¿
ĠÑģÑĥÑħ Ð¾
Ñı Ð»Ð¾ÑģÑĮ
ÑĢÐ¾Ð¼ Ð°
ĠÐ¿ÑĮ ÐµÑģ
Ñħ Ð°Ð½
Ġ3 3
ĠÑģÑĤ ÑĥÐ»ÑĮ
ĠÑģÑĥÐ´ ÑĮÑı
ĠÑĢÐµÐ°Ðº ÑĨÐ¸Ñı
ĠÐºÐ°Ð¼ Ð¿Ð°Ð½Ð¸Ð¸
Ð°Ð½Ð¾Ð² Ð¸Ñĩ
ĠÐ²Ð¾Ð¹ÑģÐº Ð°Ð¼Ð¸
ĠÐĺ Ð³ÑĢ
ĠÐ°Ðº ÑĨÐµÐ½ÑĤ
ĠÑĨÐµÐ» Ð°Ñı
ĠÐ¾ÑĤÐºÑĢÑĭ Ð»Ð¸
ĠÐļ Ð°Ð´
ĠÐ½ÑĥÐ¶ Ð´Ñĭ
ÑĥÐ´ ÑĢÑı
Ð¾Ð³ÑĢÐ°Ð¼ Ð¼
ĠÑįÑĤ Ð°Ð¶Ð°
ĠÐ¾ÑĦÐ¸ÑĨ ÐµÑĢÑĭ
ĠÐ¿Ð¾ÑħÐ¾Ð¶ Ð¸Ð¹
ĠÐ³Ð¾Ð²Ð¾ÑĢ Ð¸Ð»Ð¾ÑģÑĮ
Ð½Ð¾Ñģ Ð¸ÑĤÑĮ
ĠÐ·Ð²ÐµÑĢ ÑĮ
ÐµÐ¿ ÑĢÐ¸Ð¿
Ðĵ Ð¾ÑĢ
ĠÐ´ Ð¸ÑģÐ¿
ĠÐŀ ÐºÑĤ
ĠÐ§ ÐµÑĤ
ĠÐ¿ÑĢÐ¾ÑģÑĤ Ñĭ
ÂłÐ¢ Ð¾
ĠÑģÐ¾Ð¼Ð½ÐµÐ² Ð°ÑİÑģÑĮ
ĠÐ²ÐµÑĢÑħ Ð½ÐµÐ¹
ĠÑģÐ¾ÑĨÐ¸ Ð°Ð»Ð¸ÑģÑĤ
Ð¾Ð»ÑĮ Ð²ÐµÑĢ
Ñĩ ÐµÐ¼
Ð¸Ð» ÐµÐ¼
ĠÐŁÑĢ Ð¾ÑĤ
ĠÐ± ÐµÑģÑĤ
ĠÐĺÑĢ Ð¸Ð½Ð°
ĠÐ¼ Ð°Ð·
ĠÐ¶ÐµÐ½ Ð¸ÑĤÑĮÑģÑı
ĠÐ¡ ÑĥÐ¼
ĠÐ»Ð¾Ð¶ ÑĮ
Ð»Ð°Ð½ ÐµÑĤ
ĠÐºÐ¾Ð¼ Ð±
ĠÐ¿ÑĢÐ¾Ð¿ Ð¾Ð²ÐµÐ´
ĠÐł ÐµÐ³
ĠÑĦÑĥÐ½Ð´ Ð°Ð¼ÐµÐ½ÑĤ
ĠÑģÐµÐ³Ð¾Ð´Ð½ÑıÑĪ Ð½Ð¸Ð¹
Ð» Ð¸Ð½Ðµ
ĠÐ¿ÑĥÑģÑĤ ÑĭÐ½
ĠÐ¾Ð± ÑģÐ»ÐµÐ´
ÑĭÑĪ ÐºÐ°
ÑĢ Ð¾Ð¶
Ðķ Ð´Ð¸Ð½
ĠÐ²ÑĤÐ¾ÑĢ Ð¶
ĠÑĨÐµÐ½ Ð½Ð¾ÑģÑĤÐ¸
ĠÐºÐ¾Ð» ÑİÑĩ
ĠÑĩÐµÐ¼Ð¾Ð´ Ð°Ð½
ĠÐļ Ð¾Ð¿
ĠÑģÐ¾ÑĢ Ð¾ÐºÐ°
ĠÐ¿Ð¾Ð¼Ð½ Ð¸ÑĤÑĮ
ĠÐ±ÑĭÐ² ÑĪÐ¸Ñħ
ĠÐĲ Ð¿
ĠÑģÐº Ð¾Ð»ÑĮ
ÐµÑĢÐ± Ð°Ð¹Ð´Ð¶
ĠÐ¿Ð¾Ð± Ð»ÐµÐ´
ĠÑģÑĤÐµÐ¿ ÐµÐ½ÑĮ
ĠÐ¿ÐµÑĩ Ð°ÑĤÐ¸
ĠÐ¸Ð¼Ðµ ÑİÑĤÑģÑı
ĠÐºÑĥÐ» Ð°ÐºÐ¾Ð¼
ĠÐĶ ÐĿÐł
ĠÐĲ ÑģÑĤ
ĠÑģÐ»Ð¾Ð² Ñĥ
ĠÐ¾ÑĤÑĭÑģÐº Ð°ÑĤÑĮ
ĠÐķÐºÐ°ÑĤÐµÑĢ Ð¸Ð½Ð°
ĠÐŁ Ð°ÑĤÑĢ
Ðĳ ÐµÐ·
ĠÐ²Ð¾Ð»Ð½ ÐµÐ½Ð¸Ñı
Ð³Ð¾ Ñģ
ĠÐ²Ð· Ð´ÑĥÐ¼
ĠÐĸ Ð°Ð»ÑĮ
ĠÐ´Ð¾ÐºÐ°Ð· Ð°ÑĤÐµÐ»ÑĮÑģÑĤÐ²Ð°
ĠÑĢÐµÐ¼ Ð¾Ð½
ĠÑģÑĤÑĢÐ°Ð½ Ð½ÑĭÐµ
ĠÐķ Ð»Ð¸Ð·Ð°Ð²
ĠÐ¾ÑĤÐ² ÐµÐ´
ĠÑħÐ¾Ð´ ÑıÑĤ
ĠÑĩÐµÑĢ Ð½Ð°Ñı
ĠÐĲÐ»Ð¸ ÑģÐ°
ĠÐ¡ÑĤÐµÐ¿ Ð°Ð½
ĠÑģÑĢÐµÐ´ Ñĭ
ĠÐ½ÐµÐ½ ÑĥÐ¶
ĠÐĳ Ð¾
ĠÐ¿ÑĢÐ¾ÑĤÐ¸Ð² Ð¾ÑģÑĤÐ¾Ñı
ĠÑĥÑħ ÑĥÐ´ÑĪ
Ðĵ Ðĳ
ÐµÐ½ ÑĩÐµÑģÐº
ĠÐºÑĢÐµÐ¿ Ð¾ÑģÑĤ
ĠÐ¾Ð´ Ð°ÑĢ
ĠÐĵ Ð°Ð½
ĠÐºÑĢÑĥÐ³ Ð°
ĠÐºÑĢÑĭÑĪ Ð¸
ÐµÑĤ ÑĤÐ°
ĠÑģÑĥÑīÐµ ÑģÑĤÐ²ÐµÐ½Ð½Ð¾
ĠÐ´Ð¾Ð³Ð¾Ð²Ð¾ÑĢ Ð¸Ð»Ð¸ÑģÑĮ
Ð»Ð¸Ð² ÑĭÑħ
ĠÐ²ÑģÑħ Ð»Ð¸Ð¿
ĠÐ± Ð¾Ð¶
ĠÐºÐ°Ð´ ÑĢÐ¾Ð²
ĠÐľÐ¸ÑħÐ°Ð¹Ð»Ð¾Ð² Ð¸Ñĩ
ĠÐķ Ð´Ð²Ð°
ĠÐ¾ÑĤÐ´ÐµÐ» ÐµÐ½Ð¸Ðµ
ĠÐ·Ð² ÑĥÐºÐ¾Ð²
ĠÐ¿ÑĢÐµ ÑĥÐ²ÐµÐ»Ð¸Ñĩ
ÑĪÐ¸Ð¼ ÑģÑı
ĠÐ¸ ÑĢ
ĠÐ½Ð°Ð± ÑĢÐ°Ð»
ĠÐĲÐ» Ð»Ð°
ĠÐ·Ð°ÐºÐ»ÑİÑĩ ÐµÐ½Ð¸Ñı
ĠÐ¿Ð¾Ð» ÐµÑĤÐ°
ĠÐ½Ð°Ð¿ ÐµÑĩÐ°ÑĤ
ĠÑĤÐµÐ» ÐµÐ¿
ĠÑģÐºÐ¾ÑĢ Ð±
Ð²Ð¸Ð¶ ÐµÐ½Ð¸Ðµ
ĠÐ¾ÑģÐº Ð¾Ð»
ĠÐ¿Ð¾Ð´ Ð²Ð¸Ð¶
ĠÐľÐ¾ÑģÐºÐ¾Ð² ÑģÐºÐ¾Ð¹
ĠÑĥÐºÐ°Ð·ÑĭÐ² Ð°ÐµÑĤ
ĠÑģÐ¾Ð·Ð´ Ð°Ð²
Ð°Ð¿ ÐµÐ²
ĠÑĢÐ°ÑģÑģÐ»ÐµÐ´ Ð¾Ð²Ð°Ð½Ð¸Ñı
ĠÐ±Ð¾Ð»ÑĮ Ð½ÑĭÑħ
ĠÑģ Ð¾Ð¼
ĠÐ¼ÐµÑĢÑĤÐ² ÐµÑĨ
ĠÐ½ÐµÑĥÐ´ Ð¾Ð±
ĠÐ´ Ð°Ñĩ
Ð°ÑĤÐµÐ»ÑĮ Ð½Ð¾ÑģÑĤÑĮ
ĠÐ²ÑĭÑģÐ¾Ðº Ð°Ñı
ĠÑĤÐ¾Ð²Ð°ÑĢÐ¸Ñī Ð°
ĠÑģÐ¸Ð³Ð°ÑĢ ÐµÑĤÑĥ
ĠÐ± Ð°Ñģ
ĠÑĩ ÑĮÑı
Ð¸Ð² Ð°ÑİÑīÐ¸Ðµ
ĠÐ²Ð¾Ñģ Ð¿ÑĢÐ¸Ð½
ĠÑģÐµÑĢÐµÐ± ÑĢÐ¸ÑģÑĤ
7 4
ĠÑĤÐµÐ»ÐµÑĦ Ð¾Ð½Ð°
ĠÐ¿Ð¾Ñģ Ð¸Ð´
ĠÐ°Ð»ÑĮ ÑĤÐµÑĢÐ½Ð°ÑĤÐ¸Ð²
ĠÐ±Ð»Ð°Ð³Ð¾Ð¿Ð¾Ð»ÑĥÑĩ Ð½Ð¾
ĠÐ²ÑĢÐ°Ð³ Ð¸
Ð¸Ð´ ÐµÑĢ
ÑĥÑİÑī Ð°Ñı
as s
ĠÑĥÐ´Ð° ÐµÑĤÑģÑı
ĠÑįÐ»ÐµÐ¼ ÐµÐ½ÑĤÐ¾Ð²
ĠÑĤÐ¸ÑĪ Ð¸Ð½Ðµ
Ñı Ð½Ð¾ÑģÑĤ
Ð½Ñĥ ÑĤÑĢ
ĠÐ¿Ð°Ð´ Ð°ÐµÑĤ
ĠÐĽ ÐµÐ½Ð°
ĠÑģÑĥÐ¼ Ð¼Ð°
ĠÑĦ Ð¾ÐºÑĥÑģ
ĠÐ»ÑİÐ±Ð¾Ð¿ÑĭÑĤ ÑģÑĤÐ²Ð¾Ð¼
" )
ĠÑĤÑİÑĢÑĮ Ð¼Ñĥ
ĠÐļÐ¾ÑģÑĤ Ñı
ÐĹ Ð°Ðº
ĠÐ¿ÐµÑģ Ð½Ñı
ĠÐ³Ð»ÑĥÐ±Ð¾Ðº Ð¸Ð¹
ĠÐ¾Ð± Ð²
ĠÐ¿ÑĢÐ¸Ð½ ÑĨÐ°
ĠÑĥÐ²Ð¸Ð´ Ð¸ÑĤ
ĠÐ¾Ð±Ð½Ð°ÑĢÑĥÐ¶ Ð¸ÑĤÑĮ
ÐĴ Ð¸Ð´
ĠÐ±ÐµÐ» Ð¾Ð¼
ĠÐ²Ð°Ð¶ Ð½ÑĭÑħ
Ð¾Ð¿ Ð¸Ð»
ĠÑģÐ¿ ÐµÐº
ĠÐĴÑĭ Ð¿
ĠÑģÐ² ÑıÑĤÐ¾
ĠÐ¿ÐµÑĢÐµÐ³ Ð»Ñı
ĠÐ½ÐµÐ¿ÑĢÐ¸ÑıÑĤ Ð½Ð¾
ĠÐ»Ð°Ð±Ð¾ÑĢÐ°ÑĤÐ¾ÑĢ Ð¸Ð¸
ĠÐ²Ð´ Ð°Ð»Ð¸
ĠÐ¡ Ðļ
ĠÐ½Ð¸Ð· ÐºÐ¾
ĠÐ¾Ð´Ð¸Ð½Ð°ÐºÐ¾Ð² Ð¾
ĠÐ² Ð»ÐµÐ·
ĠÑĥ ÑĢÐ¾Ð½
ĠÐ¾ÑĤÐ¾ ÑĪÐµÐ»
ĠÑĩÐ°ÑĪ ÐºÑĥ
ĠÐŁ Ð¾Ð±
ĠÐ¸ÑģÐ¿Ð¾Ð»ÑĮÐ· Ð¾Ð²Ð°Ð»Ð¸
ĠÐ¿ÐµÑĢÐµÑģÑĤ Ð°Ð»Ð°
ĠÐ¿Ð¾Ð´ Ð½ÐµÑģ
ĠÑĢÐ°Ð· ÑĭÐ³ÑĢ
ĠÐ³ÑĢÐ¾Ð· Ð¸ÑĤ
ĠÐ¿Ð¾Ð·Ð½Ð°ÐºÐ¾Ð¼ Ð¸ÑĤÑĮÑģÑı
ĠÐĽ ÐµÐ±
ĠÐ¾ÑģÑĤ Ð°Ð»ÑĮÐ½ÑĭÐ¼
ĠÐ½Ð¾Ñģ Ñĥ
ĠÐ¡ Ð¾Ð·Ð´
ĠÐŁ ÑĥÑģÑĤ
ĠÐ²Ð¾Ð» Ñı
ÑĢÑĥ ÑĩÐ¸Ð²
ĠÐ´Ð»Ð¸Ð½ Ð½ÑĭÐ¼Ð¸
ĠÐ¾Ñĩ Ð°ÑĢÐ¾Ð²
ĠÐ·Ð°Ð½Ð¸Ð¼ Ð°Ð»
ĠÐ¾Ð±ÑıÐ· Ð°Ð½Ñĭ
ĠÐĳÑĢ Ð°Ð¹
ÑĢÐ°ÑģÑĤ ÑĢÑĥÐºÑĤ
ĠÑı Ð´Ð¾Ð²
ĠÑĤÑĢÐ°Ð² Ñĥ
ĠÐ´Ð¾Ð»Ð³ Ð¸Ðµ
ĠÐ³ÑĢÑıÐ· ÑĮ
ĠÑĥÑĢ Ð¾Ð¶
ĠÐ¿Ð¾ÑĢ Ð°Ð±Ð¾ÑĤ
ĠÑĨÐµÐ» ÑĭÑħ
ĠÐ±Ð°Ð½ ÐºÐ¸
ĠÐ²ÑĢÐµÐ¼ ÐµÐ½Ð½Ð¾
ĠÑĤÐ¾Ñĩ ÐºÐ°
ÐµÐ»Ð° ÐµÑĪÑĮ
ĠÑĦ ÑĢÐ°Ð³
ĠÐ½Ð°Ð½ Ð¾Ñģ
ĠÐĿÐ¸Ðº Ð¸ÑĤÐ°
ĠÐł ÐµÑĩÑĮ
ĠÐ¾Ð±Ð¾ÑĢ Ð°Ñĩ
ĠÑĢ Ð°ÐºÐ¾Ð²
ĠÐ¿ÑĢÐ°Ð² ÐµÐ´
ĠÑĥÐ¶Ð°Ñģ Ð¾Ð¼
ÂłÐĲ Ð³Ð°
Ð»Ñı ÑİÑīÐ¸Ð¹
ĠÐ¾Ñĩ ÐµÑĢÑĤ
ĠÑģÐ»ÑĥÑĩ Ð°Ð»Ð¾ÑģÑĮ
ĠÐºÐ¾ÑģÑĤ ÑĢÐ°
ĠÑħ ÑĢÐµÐ½
ĠÐ¿ÑĥÐ»ÑĮ Ñģ
Ð¾Ð»Ð¾Ð³ Ð¸ÑĩÐµÑģÐºÐ¸Ðµ
ĠÑģÑĤÐ°Ð½Ð¾Ð² Ð¸Ð»Ð¸ÑģÑĮ
ĠÐº Ð¸ÐµÐ²
ĠÑĩÐµÑĢ Ð½Ð¾
Ġ4 8
ĠÑĪÑĥÑĤ ÐºÑĥ
ĠÐ²Ð¾ÑģÑĤ Ð¾Ðº
ĠÑģÐ¾ Ð¾ÑĤ
ÐĴ Ð¾Ð»
ĠÐ·Ð°Ð¼ ÐµÑĢÐ·
ĠÐ¾ÑģÐ¾Ð± ÑĭÑħ
Ð¸Ð»ÑĮ Ð´
ĠÑĥÐ² Ñĭ
ĠÐ·Ð² ÑĥÐºÐ°
Ġ199 8
ĠÐĺ ÑĢÐ°Ð½
ÐĴ Ð¿ÑĢÐ¾ÑĩÐµÐ¼
ĠÑĢÐ°Ð· Ð¾ÑĪ
ĠÐ·Ð°ÑħÐ¾ÑĤ ÐµÐ»
Ðµ ÑĥÐ³Ð¾Ð»ÑĮ
ĠÐ½Ð°Ñĩ Ð½ÑĥÑĤ
ĠÐºÐ°ÑĢ Ð°Ð½Ð´Ð°
Ð§ ÑĤÐ¾Ð±Ñĭ
ĠÑįÐ¼Ð¾ ÑĨÐ¸Ð¹
ĠÑģÑĬ ÐµÐ·Ð´
ĠÐĴ Ð¿
ĠÐ¢ ÑĮ
ĠÑĤÑĢ Ð¾Ð¹
Ð¤ ÑĢÐ°Ð½
Ñĭ Ð³Ð°Ð½
ÐºÑĥ Ð¿Ð°
ĠÐ²ÑĭÐ²Ð¾Ð´ Ñĭ
ĠÐ¾ÐºÐµ Ð°Ð½Ð°
ĠÐļ Ð¾Ð¼Ñĥ
Ġ199 6
ĠÑģÐ¸Ð¼ Ð¿
ĠÐ¾ÑĦÐ¸ÑĨ ÐµÑĢÐ°
Ð¾Ð»ÑĮ ÑĤÐµ
ĠÐ¾Ð±ÑĢÐ°ÑĤ Ð¸Ð»Ð°ÑģÑĮ
ĠÐĴÐµÐ»Ð¸Ðº Ð¸Ð¹
ĠÐ¥ÑĢÐ¸ÑģÑĤ Ð¾Ñģ
ĠÐ¿ÑĢÐ¾Ð² Ð¾Ð¶
ÑĥÐ¼ Ð±
ĠÐ¿ÑĢÐ¾Ð´ Ð°Ð¶Ð¸
ĠÐ²ÑģÑĤÑĢÐµÑĩ Ð°Ð»Ð¸ÑģÑĮ
ĠÐ¿Ð»Ð¾ÑĤ Ð¸
ÑĮÑı Ð½Ðµ
ĠÐļ ÑĢÑĥÐ³
ĠÐ¾Ð± ÑĥÑģÐ»Ð¾Ð²
Ð¸ÑĤÐµÐ»ÑĮ Ð½Ð¸ÑĨÐ°
Ð¸ÑĤÐµÐ»ÑĮ Ð½Ð¾ÑģÑĤÑĮÑİ
ĠÐ¸ÑģÑĤÐ¾Ñĩ Ð½Ð¸ÐºÐ¸
ĠÐĴ ÑģÑĤÑĢÐµÑĩ
ÂłÐŃ Ð¹
Ð½ ÐµÑĤÐµ
ĠÑĥ Ð½ÐµÑģ
Ð½Ñı Ð»Ð¸ÑģÑĮ
ĠÐ¾Ðº ÐºÑĥÐ¿
ĠÐ²ÐµÑĢ ÑģÐ¸Ñı
ĠÐ·Ð°ÑģÑĤÐ°Ð² Ð»ÑıÐµÑĤ
ĠÐºÐ°ÑĦ ÐµÐ´
ĠÐ²ÐµÐ»Ð¸ÑĩÐµ ÑģÑĤÐ²Ð¾
ĠÐł Ð¾Ð¶Ð´Ðµ
ĠÐ¿Ð¾Ñģ Ð²ÑıÑĤ
ĠÑģÐ¼ ÐµÑĤ
ĠÑĩÐµÑĢ ÐµÑģÑĩÑĥÑĢ
ÐĶ Ð¸Ð½Ð°Ð¼Ð¾
ĠÐ¿Ð¾Ð»Ð¸ÑĨÐµÐ¹ ÑģÐºÐ¸Ñħ
ĠÐ²Ð¾Ñģ Ð¿ÑĢ
ĠÑħ Ð²Ð°Ð»
ĠÐ¿ÑĢÐ°Ð²Ð¸Ð» Ð°Ð¼
ĠÑĤÐ¾ ÑģÐº
ĠÐºÑĢÐ°ÑģÐ¸Ð² ÑĭÐ¹
ĠÐºÐ¾ÑĢÐ°Ð± Ð»Ðµ
Ġ an
ĠÑģÑĥÑīÐµ ÑģÑĤÐ²Ð¾Ð²Ð°ÑĤÑĮ
ĠÐ²Ð¿ÑĢÑıÐ¼ ÑĮ
ĠÑĥÐ³ Ð»Ð°
ĠÑģÑĥÐ´ Ð½Ð°
ĠÐĶ Ð²Ðµ
ĠÐĲÑĢ Ñģ
ĠÐ½Ð°Ð¿ÑĢÑıÐ¶ ÐµÐ½Ð¸Ðµ
Ð½Ð¾ ÑģÑı
ĠÑĦ ÑĢÐ°Ðº
ĠÐĹ Ð°Ñģ
ĠÐ¼Ð¾Ð¼ÐµÐ½ÑĤ Ð°Ð»ÑĮÐ½Ð¾
ÐµÐ½ ÑģÐºÐ¾Ð³Ð¾
Ð°Ð¶ ÐµÑĪÑĮ
ĠÐ½ÐµÐ² ÑĭÑģÐ¾Ðº
ĠÐĲÑĦ Ð³Ð°Ð½
ĠÐ¿Ð¾Ð² Ð»Ð¸
ĠÐ¿ Ð¾Ð±ÑĢ
ĠÐ¡ ÑĩÐ¸ÑĤ
Ð¼ ÐµÑĩ
ĠÐ·Ð°Ð² ÐµÑī
ĠÐ½Ð¾Ð² Ð¾Ð¼Ñĥ
ĠÐ¿Ð¾ÑģÑĤ Ð¸Ð³
ĠÑĪÑĤ Ð°Ð½Ñĭ
ĠÑĥ ÑĢÐ°Ð²
ĠA l
Ð· Ñĥ
ĠÐ³ÑĢÐ°Ð¼ Ð¾ÑĤ
ĠÐ¾Ð±Ð½Ð°ÑĢÑĥÐ¶ Ð¸Ð»Ð°
ÐĿ Ðļ
Ð¾Ð²Ð°ÑĢ Ð¸Ñī
ĠÐ¿Ð¾ÑĢ Ð¾Ð³
ĠÐ²ÑģÐµÐ² Ð¾Ð·Ð¼Ð¾Ð¶
ĠÐ½ÐµÐ¼ Ð½Ð¾Ð³
Ð¸Ð² ÑĭÐµ
ĠÐ·Ð½ Ð°Ð½Ð¸Ðµ
âĢ¦ âĢ¦
ĠÐ¿Ð¾Ð±ÐµÐ´ Ð°
Ð¢ ÑĢ
ĠÐº ÑĢÑĥÑĪ
Ð¾Ð½ÑĮ ÐºÑĥ
ĠÐ¼ Ð°Ñĩ
ĠÐŀ Ð¼
ĠÐĳ ÐµÐ¹
Ð¾Ð´ Ð¾ÑĢ
ĠÐ±Ð¾ ÐµÐ¿ÑĢÐ¸Ð¿
Âł ÑĤÑĭ
e x
ĠÐ¿ÑĢÐ¾Ðº Ð°ÑĤ
Ð°ÑĤ ÑĭÑħ
ĠÐºÐ¾Ð½ ÑĮ
Ġ199 7
ĠÐ±Ð»Ð¾Ð½ Ð´Ð¸Ð½
ĠÐ²Ð¾Ñģ Ð¿ÑĢÐ¾
ÂłÐĴ Ð¾
ĠÐ¿Ð¸ÑĪ ÑĥÑĤ
ĠÐ½Ð°Ñģ ÐµÐºÐ¾Ð¼
ĠÑĢÐ°ÑģÑĤ ÐµÐ½Ð¸Ð¹
ĠÐ²Ð¾Ð¹ÑģÐº Ð¾
ĠÐ¢Ð°ÑĤÑĮÑı Ð½Ð°
Ð¸Ð¹ ÑģÐºÐ¾Ð¼
ĠÐ´Ð°Ð¼ Ñĭ
ĠÐ¿Ð¾Ñį ÑĤÐ°
ĠÑģÐ¿ Ð¸Ð½ÐºÑĥ
Ð¾Ð·Ñı Ð¸Ð½
ĠÑĤÐ¾ÑĢ Ð¼Ð¾Ð·
ĠÑģÐ¾Ð±Ð¸ÑĢ Ð°ÑĤÑĮ
Ð½ÐµÐ¹ ÑĪÐ¸Ð¼
ĠÐ¾Ð· ÐµÑĢÐ¾
ĠÐ¼ÐµÑĤ Ð¾Ð´Ñĭ
ĠÑģÑĤÐµÐ½ Ð¾Ð¹
ĠÐºÑĥÐ» Ð°Ðº
ĠÐ½Ð¾Ñģ Ð°
ĠÐ¿Ð¾ ÐµÑħÐ°ÑĤÑĮ
ĠÑĢÐ°Ð· Ð½ÑĭÐ¼Ð¸
ĠÑĢÐ°Ð¹Ð¾Ð½ Ð°Ñħ
ĠÐ½Ð¾Ð² ÑĭÐ¼Ð¸
ĠÑĦ Ð¾Ð½ÑĤ
Ð³Ð¾Ð» ÑĥÐ±
Ð¡ Ðĳ
ÑĤÐ° ÑģÐº
ĠÑģÐ¸Ð»ÑĮ Ð½Ð¾Ðµ
ĠÐ¼Ð°Ð»ÑĮÑĩÐ¸ÑĪ ÐºÐ°
ĠÐ½ÐµÐ±ÑĢÐµÐ¶ Ð½Ð¾
ĠÑģÐ¾Ð±Ð¸ÑĢ Ð°ÑİÑĤÑģÑı
ĠÐ¿ÑĢÐ¸Ð³Ð¾ÑĤÐ¾Ð² Ð»ÐµÐ½Ð¸Ñı
ĠÐ¼Ð¾Ð½Ð°ÑģÑĤÑĭ ÑĢÑĮ
ĠÐĳ Ð°Ð»ÑĤ
ĠÐĴ Ð¸ÑĢ
ĠÐ¥ Ð¾ÑĩÐµÑĪÑĮ
ĠÐ³ÑĢÐ°Ð¶Ð´Ð°Ð½ ÑģÐºÐ¾Ð¹
Ð¸Ð³ Ð°
ĠÑģÐ»ÐµÐ´ÑĥÑİÑī Ð¸Ð¼
ĠÐ¾Ð±ÑĬ ÐµÐºÑĤÐ°
ĠÐ³Ð¾ÑģÑĤÐ¸Ð½ ÑĥÑİ
ĠÑģÐ¾Ð´ ÐµÐ¹ÑģÑĤÐ²
ĠÐľ ÑįÑĤ
ĠÐ¾ÑģÐ²Ð¾Ð±Ð¾Ð´ Ð¸ÑĤÑĮ
ĠÐ¿Ð¾ÑĤÑı Ð½ÑĥÐ»ÑģÑı
ÑģÑĤ Ñĭ
ĠÐ²Ð¾Ð·Ð¼Ð¾Ð¶ Ð½ÑĭÐ¼
ĠÐ¾ÑĤÑģÑĥÑĤ ÑģÑĤÐ²Ð¸Ñı
ĠÐ¼Ð¸Ð»Ð»Ð¸Ð°ÑĢÐ´ Ð¾Ð²
Ð°Ñī ÐµÐ¹
ĠÐ²ÐµÑĢÑħ Ð¾Ð¼
ĠÐ¾Ð¶Ð¸Ð´ Ð°Ð½Ð¸Ñı
ĠÐľ ÑįÐ¹
ĠÐ¼ÑĥÐ¶ Ñĥ
ĠÐ¿Ð¾Ð´ÑĢÑĥÐ³ Ð¸
ĠÐ±Ð°ÑĤÐ°Ð»ÑĮ Ð¾Ð½Ð°
ĠÐľ Ð¾Ð½ÑĤ
ĠÐ¢ Ð¾Ð½
Ð´ Ð°ÑĢ
ĠÑį Ð³Ð¾
ĠÐºÐ°Ð¼ ÐµÑĢ
ĠÐºÐ¾Ð»Ð¸ÑĩÐµ ÑģÑĤÐ²Ðµ
ĠÐºÐ¾Ð½ÑĦ ÐµÑĢÐµÐ½ÑĨÐ¸Ð¸
Ð½ ÐµÐº
ĠÐ³ÑĥÑģÑĤ Ð¾Ð¹
Ð°Ð½ ÑĤÐµ
ĠÐ¡ Ð°ÑĢÐ°
ÑģÐ»Ð¸ Ð²
ĠÑĥÑĩÐ°ÑģÑĤ ÐºÐµ
Ð°Ð½ Ñħ
ÑĢÐ°Ñģ Ð¿
ĠÑĦÑĥÐ½Ðº ÑĨÐ¸Ð¾Ð½Ð¸
Ð³Ð¸ ÐµÐ¹
ĠÑĤÑĢÐ°Ð² Ðµ
ĠÐ½ÐµÐ·Ð°Ð²Ð¸Ñģ Ð¸Ð¼Ð¾
ĠÐ¿Ð¾Ð¹Ð¼ Ð°Ð»
Ð¸ Ð½ÑĭÐ¼
ĠÐ¾ÑĤ Ð»Ð¾Ð¶
ĠÐľ Ð¸ÑģÑĤÐµÑĢ
ĠÐĶ ÐµÐ¿
ĠÐ³Ð¸Ð± ÐµÐ»ÑĮ
7 1
ĠÐºÐ¾Ð½ ÑĮÑı
ĠÑįÐº ÑģÑĤÑĢÐµÐ¼
ĠÑĤÑıÐ¶ÐµÐ» Ð¾Ð¹
ĠÐ»ÐµÑĩ ÐµÐ½Ð¸Ñı
ĠÑĢÐ°Ð·Ð²ÐµÑĢ Ð½ÑĥÐ»ÑģÑı
ĠÐ²Ð± Ð»Ð¸Ð·Ð¸
ĠÐ³ÑĢÐ¾Ð¼ ÑĩÐµ
ĠÑĩÐµÑĢ ÑĤÑĥ
ĠÐ²Ð°Ð¶ Ð½ÑĭÐµ
ĠÑĢÐ°Ð±Ð¾Ñĩ ÐµÐ³Ð¾
ĠÐ¿Ð¾ÑģÐµÐ» ÐµÐ½Ð¸Ñı
ĠÐ¿ÑĢÐ°Ð² Ð´Ðµ
ĠÐ¿Ð¾Ð· Ð¸ÑĨÐ¸Ñı
ĠÐ¼Ð¾Ð½Ð°ÑģÑĤÑĭ ÑĢÑı
ĠÑħ Ð¾Ñħ
ĠÐ·Ð°Ð¿ Ð»Ð°Ð½
ĠÐ±ÑĥÑĢ Ð¶ÑĥÐ°Ð·
ĠÐ¿ÑĢÐµÐ´ Ð²Ð¸Ð´
ĠÐ·Ð°ÑĤ Ð¸Ñħ
ĠÑĥÑģ ÐµÐ»ÑģÑı
ĠÑĥÐ² Ð»ÐµÑĩ
ĠÐ·Ð°Ð´ ÑĭÑħ
ĠÐ¸Ð¼ÑĥÑīÐµ ÑģÑĤÐ²Ð¾
ĠÐ¿ÑĢÐ¸ÑĪ ÐµÐ´
ÑĥÑĩ Ð°ÑģÑĤ
ĠÐ¾ÐºÑĢÑĥÐ³ Ðµ
ĠÐ¼Ð¾ Ñĳ
ÂłÐķ ÑīÐµ
ĠÑĥÑħÐ¼ÑĭÐ»ÑĮ Ð½ÑĥÐ»ÑģÑı
ĠÐ¿Ð¾Ð´ Ð½Ð¾Ñģ
Ð± Ð¾Ð»Ð°
ĠÑģÑĤÐ°ÑĢ Ð°Ð»Ð¸ÑģÑĮ
ĠÐ·Ð² ÐµÐ·Ð´Ð°
ĠÐ²ÑĭÐ¿ Ð¸Ð»
ÂłÐĵ Ð¾ÑģÐ¿Ð¾Ð´
Ð°ÑĢ ÐºÐ°
Ð¼ Ð°Ð»
ĠÑĥÐ¿ Ð°Ð´
ĠÑĪÑĤ ÑĥÐº
ĠÐ´ Ð¾Ð³Ð¾
ĠÑĤ ÑĥÐ½Ð½
ĠÐŁ Ð»Ð°
ĠÐ³ÑĢ Ð¸Ð²
ĠÑĢÐ°Ð·ÑĢÐµÑĪ ÐµÐ½Ð¸Ðµ
ĠÐ·Ð°Ðº ÑĥÑĢ
ĠÐ²ÐµÑīÐµ ÑģÑĤÐ²Ð°
ĠÐ¾Ð±ÑĭÑĩ Ð½Ð¾Ð³Ð¾
ĠÑģÑĤÐ¾ÑĢÐ¾Ð½ Ð¾Ð¹
ĠÐ±ÑĥÑĤÑĭÐ» ÐºÐ¸
ĠÐ¿ÑĢÐµÐ¸Ð¼ÑĥÑīÐµ ÑģÑĤÐ²ÐµÐ½Ð½Ð¾
ĠÐ¿ÑĢÐ¾Ð² Ð¾Ð»
ĠÐ¾Ð±ÐµÑģÐ¿ Ð¾ÐºÐ¾
ĠÐŁÐ¾Ð»ÑĮ ÑĪÐ¸
ÑĥÑģ Ñĭ
ĠÑĦÐ¸Ð³ ÑĥÑĢÑĥ
ĠÐ¼Ð¸Ð» Ð¾ÑģÑĤÑĮ
Ñı Ð½Ð¾Ð¹
ĠÐ²ÑĭÑĢÐ°Ð¶ ÐµÐ½Ð¸ÐµÐ¼
ĠÐ·Ð°Ð³Ð¾ ÑĢ
ĠÑĢÐ°Ð· Ð±Ð¾ÑĢ
ĠÐºÑĢÐ¸Ðº Ð½ÑĥÐ»Ð°
ĠÑĤÐµÑĢ Ð·
ĠÐļÑĢ ÐµÑģÑĤ
ĠÐ·Ð¾Ð» Ð¾ÑĤÐ¾Ð¼
ĠÑģÐ¼Ð¾ÑĤ ÑĢÑı
ĠÐ±ÐµÑĢ ÐµÐ¶
ĠÐ²Ð½ÑĥÑĤÑĢÐµÐ½ Ð½ÐµÐ³Ð¾
ĠÐµÐ²ÑĢÐ¾Ð¿ÐµÐ¹ ÑģÐºÐ¸Ñħ
ĠÐ½Ð°Ð» Ð¾Ð¶
ĠÐ¾Ð±ÑĬÑıÑģÐ½ ÐµÐ½Ð¸Ñı
Ð°Ð³ Ðµ
ĠÑģÑĢÐµÐ´ Ðµ
ĠÐºÐ¾Ð» Ð¾ÐºÐ¾Ð»ÑĮ
ĠÐ¾Ð± Ð»Ð¾Ð¶
ĠÐ»ÐµÐ³ ÐºÐ¸Ðµ
ĠÐ²ÐµÐº Ð¸
ĠÑĢÐ°ÑģÑĤ ÐµÑĤ
ĠÐ¾Ð³ÑĢÐ¾Ð¼ Ð½ÑĥÑİ
ĠÐ±ÐµÐ· Ð¶Ð°Ð»
ĠÐ°Ð²ÑĤÐ¾ÑĢ Ð¾Ð²
ĠÐ°ÑĢÑħ Ð¸
ĠÐļÐ¸ ÐµÐ²Ð°
ĠÐ· ÐµÐ²
ĠÐ³Ð¾ÑģÑĤ Ñı
ĠÐ¾ÑĤ Ð´Ð°
ĠÐ¾ÑĤÐ¿ ÑĥÑģÑĤÐ¸Ð»
ĠÑįÐ»ÐµÐ¼ ÐµÐ½ÑĤÑĭ
ĠÑģÐµÐ² ÐµÑĢÐµ
ĠÐ§ ÑĥÑĤÑĮ
ĠÐ¿Ð¾Ñĩ ÐµÑĤ
ĠÐ¿ÑĢÐ¸Ð´ Ð²Ð¾ÑĢ
ĠÑģÐ¾Ð´ ÑĢÐ¾Ð³
ĠÑģÐ¾Ð·Ð´ Ð°Ð²Ð°ÑĤÑĮ
ĠÐ¼Ð°ÑĤÐµÑĢÐ¸Ð°Ð» Ð°Ð¼Ð¸
Ð¸Ð» Ð¸Ðµ
Ð¸Ð¼ Ð¾ÑģÑĤÑĮÑİ
ĠÑĪ ÐµÐ¿ÑĤ
ĠÐ¿ÑĢÐ¸ÑĢ Ð¾Ð´Ð°
Ð¸Ð² Ð°ÑİÑīÐ¸Ñħ
ÑģÑĤÐ² Ð°Ð¼
ĠÐ±Ð¾Ð»ÑĮ Ð½Ð¸ÑĨÑĭ
ĠÐ¿Ð¾Ð·Ð²Ð¾Ð» Ð¸Ð»Ð°
ĠÐ²Ð· Ð¾ÑĢ
ĠÐ¿ÑĢÐ¸Ð½ ÑıÐ»Ð¸ÑģÑĮ
ĠÐºÐ¸Ñģ Ð»Ð¾ÑĢ
ĠÐ¿ÐµÑĢÐµÐ² ÐµÐ´
ĠÐ¾ÑĤÐºÑĢÑĭÑĤ ÑĭÐ¼
ĠÐĿÐ°ÑĤ Ð°ÑĪÐ°
ĠÐ¿ÑĢÐµÐ´Ð¿Ð¾Ñĩ ÑĤ
Ð°Ð½ ÑĮÑı
ÂłÐķ ÑģÑĤÑĮ
ĠÐºÐ¾Ð» Ð»ÐµÐ´
ĠÐ¾Ñī ÑĥÐ¿
Ð°ÑĢÐ¸ ÐµÐ²
Ð°ÑĢÑĤ Ð°Ð¼ÐµÐ½ÑĤ
ĠÑĩÑĥÐ¶ Ð¸Ðµ
Ð¾Ð¿Ð¸Ñģ Ð¸
6 8
ĠÐ» Ð°
ĠÐ²ÑĭÐ± ÑĢÐ°Ð½
ĠÐ¿ÑĢÐ¸Ð´ÑĥÐ¼ Ð°Ð»
ĠÐ² Ð¿ÑĢ
ĠÐĴ Ð¾Ñģ
ĠÐĶ Ð¾Ð»Ð³Ð¾
ĠÐ²Ð¾Ð¿ ÑĢÐµÐºÐ¸
ÐµÑģÑĤ ÑĮÑİ
ĠÐĳ Ð°Ð¹
Ð¸Ð² Ð°ÑİÑģÑĮ
Ð¢ÐĲ Ð¡Ð¡
ĠÐºÐ¾Ð¼Ð¿Ð»ÐµÐº ÑģÐ°
Ð°Ð± Ð°
Ð°Ð¿ Ð¸ÑĤÐ°Ð½
ĠÐ¿Ð¾Ð»ÑĥÑĩ Ð°Ð»Ð¾ÑģÑĮ
ĠÐ¿ÐµÑĢÐµÐ´ Ð²Ð¸Ð³
ĠÐ¢ Ð°Ð»
ÑĥÐ³ ÑĥÐ±
ĠÑĢÐ°ÑģÑģÐºÐ°Ð·ÑĭÐ² Ð°Ð»Ð°
ĠÐºÑĥÑģÑĤ Ð°ÑĢ
ĠÑĢ ÑıÐ²
ĠÐ¿Ð¾Ð´ Ð¿ÑĢÑĭÐ³
Ðŀ Ðº
ĠÐ¿ÑĢÐ°Ð·Ð´ Ð½Ð¸Ñĩ
ĠÑģÐ¿ Ð°Ð»Ð°
ĠÐ¸Ð½ ÑĤÑĥ
ĠÐĶÐ¶ÐµÐ¹ Ð¼Ñģ
ĠÑģÐ°Ð½ÑĤ Ð¸Ð¼ÐµÑĤ
ĠÐ¡ÐµÑĢÐ³Ðµ ÐµÐ²Ð¸Ñĩ
ĠÑģÐ»ÐµÐ´ Ð¸Ð»
oo gle
Ð² ÐµÐ´ÑĮ
ĠÐ¿Ð¾ÐºÐ°Ð· Ð°Ð½Ð¸Ñı
ĠÑĢÐ°Ð·Ð²Ð¸ÑĤ Ð¸Ñİ
ÑĤÐ¾Ð² ÑĭÑħ
Ð¢ ÐŁ
ĠÐ± Ð¾ÑĢÐ¼Ð¾ÑĤ
ĠÑģÐ» Ñİ
ĠÐ¿ÐµÑĢ ÐµÐ·
Ð°ÑİÑī ÐµÐ¼Ñĥ
ĠÐ³ÑĢÐ°Ð´ ÑĥÑģÐ¾Ð²
ĠÐ½ÐµÐ¼ Ð½Ð¾Ð¶ÐºÐ¾
ÐµÐ½ Ð³
ĠÐł ÐµÐ²
ĠÐ¿Ð¾Ð¿ Ð¾Ð»Ð½
ĠÐ·Ð½Ð°ÐºÐ¾Ð¼ ÑĭÐµ
ĠÐ¿ÑĢÐ¸Ð² ÐµÐ»Ð°
Ð¸Ð· Ñĭ
or e
ĠÐ·Ð°ÐºÐ»ÑİÑĩ Ð¸Ð»
Ð¸Ð½ ÑģÐºÐ°Ñı
ÂłÐŀ ÑĩÐµÐ½ÑĮ
ĠÐ´ÐµÐ²ÑĥÑĪ ÐºÐ¾Ð¹
ĠÐĶÐ¾Ð½Ð±Ð°Ñģ ÑģÐµ
Ð¾ÑĢ Ðº
Ð¸ÑĤ ÑĭÐ¼
ĠÐºÑĢÐ°Ñģ Ð½Ð¾Ð³Ð¾
ĠÐŀ Ðĳ
ĠÐ¿ÑĢÐ¸Ð²ÑĭÐº Ð»Ð¸
ĠÐĿ Ð°Ð¹
ĠÐ·Ð°ÑħÐ²Ð°ÑĤ Ð¸ÑĤÑĮ
Ð¾Ð½ Ð°Ð¼Ð¸
ĠÐ³Ðµ Ð¾Ð³ÑĢÐ°ÑĦ
ĠÐ²ÑģÐ¿Ð¾Ð¼Ð¸Ð½ Ð°Ð»
Ðľ ÐµÐ¶Ð´Ñĥ
ĠÐ¿Ð¾Ñħ Ð»Ð¾Ð¿
Ð½Ð¸ Ð²ÐµÑĢÑģ
ĠÐĽ Ð¾Ð³
ĠÐ¿Ð¾Ð¿ ÑĥÑĤ
ĠÐºÑĢ Ð¸Ð¼Ð¸Ð½
ĠÑĨÐ²ÐµÑĤ Ð°Ð¼Ð¸
ĠÑĨÐ°ÑĢ Ð°Ð¿
o y
ĠÐ¿Ð¾Ð´Ð¿Ð¸Ñģ Ð°Ð»
ĠÐ¿ ÑĥÑĪÐºÐ¸
ĠÐ³Ð¾ÑĤÐ¾Ð² Ð¸ÑĤÑĮ
ĠÑĢÐµÐ² Ð¾Ð»ÑĮÐ²ÐµÑĢ
ĠÐ´Ð¸Ð½ Ð°ÑģÑĤ
ĠÐ¼ Ð°
Ð¸Ð² Ð°ÑİÑīÐ¸Ð¹
ĠÐ»Ð¸ÑĨ ÐµÐ½Ð·
ĠÐľÑĥÐ¶ ÑĩÐ¸Ð½Ð°
ĠÑĤÐ°Ð½ ÐºÐ¸
ĠÑĥÐ»ÑĭÐ± Ð°Ð»ÑģÑı
ĠÐ¿ÐµÑĢÐµÐ² Ð¾ÑĢÐ¾ÑĤ
ĠÑĥÑģÐ¼ÐµÑħ Ð½ÑĥÐ»Ð°ÑģÑĮ
Ð¾Ð¿ Ð°Ð´
ĠÑģÑĥÐ¿ÑĢÑĥÐ³ Ð°
ĠÐ½Ð°Ð¼ ÐµÑĩ
ĠÐ½Ð°ÑĩÐ¸Ð½ Ð°ÑĤÑĮ
ĠÑģÑĢÐ°Ð² Ð½Ð¸Ð²
Ġw as
ĠÐ´Ð°ÑĢ Ð¾Ð¼
ĠÐ°Ð½ Ð°Ð»Ð¸Ð·Ð°
Ñī ÑĥÐ¿
Ð°ÐºÑĤ Ð¸ÑĩÐµÑģÐºÐ¸
ĠÐ¿ÑĢÐ¾Ð² Ð¾ÐºÐ°
ĠÑĥÑĪ Ð°Ñħ
ÑĤÑĢ Ð°Ðº
ĠÐ¨ Ð²Ðµ
im e
Ð°Ð² Ð¾Ðº
Ðľ ÑĥÐ¶
m an
ĠÐ³Ð¾ÑĤÐ¾Ð² Ð½Ð¾ÑģÑĤÐ¸
Ð¾Ð½ Ð³
ÐµÐ½ Ð½Ð°
ĠÐ¼ÐµÑģÑĤ Ð½Ð¾Ð¹
ĠÑĩÐµÑĢ Ð½ÑĭÐ¼Ð¸
ĠÐ± Ð¾ÑģÑģ
Ð¾Ð¹ Ð´Ñĥ
ĠÑĤÐ²Ð¾ ÐµÐ¼
ÐµÐ»ÑĮ Ð½Ð¾Ð¹
Ð½Ð¸ ÑĨÐ°Ð¼Ð¸
Ð¸ÑģÑĤ Ð¾ÑĢ
ÑħÐ¾Ð´ Ñı
ĠÐ½Ð°Ð¹ Ð´ÐµÑĤ
ĠÐ¾Ð± Ð¾Ð´
Ð°ÑĢÑĮ ÐºÐ¾Ð²
ĠÐĴÐµÑĢÑħÐ¾Ð² Ð½Ð¾Ð³Ð¾
ĠÐ¼Ð¾ÑĤÐ¾ ÑĨÐ¸Ðº
ĠÑģÐºÐ°Ð¶ Ð¸ÑĤÐµ
ĠÑĢÑĥÐºÐ¾Ð²Ð¾Ð´ Ð¸ÑĤÐµÐ»Ñı
ĠÐ¿Ð»ÐµÐ¼ ÐµÐ½Ð¸
ĠÑģÑĤ Ð¸Ñģ
ĠÑı Ñħ
Ð°Ð²ÑĪ ÐµÐ¼Ñĥ
ĠÑĥÐ³ÑĢÐ¾Ð· Ñĥ
ĠÐ°ÐºÑĤ Ñĥ
ĠÑĤÐµÐ¼Ð½Ð¾ ÑĤÑĭ
ĠÐ³ÑĥÐ±ÐµÑĢÐ½Ð° ÑĤÐ¾ÑĢÐ°
Ð½Ð¸ÑĩÐµ ÑģÑĤÐ²Ð¾
ĠÐ¾ÑĤ Ð¾Ð¼
ĠÐ½ÐµÐ¶ ÐµÐ»
ĠÑĥÐº ÑĢÐ°Ð´
ĠÑĢÑĥÐ±Ð°ÑĪ ÐºÑĥ
ĠÑģÐºÐ°Ð· Ð°Ð²
ÑĢÑĥ Ð¶Ðµ
ĠÑģÐ»Ð°Ð± Ð¾ÑģÑĤÑĮ
Ðµ ÑıÐ»
ĠÐ³Ð»Ð°Ð· Ð¾Ð¼
ĠÑģÑĤÑĢÐ°Ñħ Ð¾Ð¼
ĠÐ²Ð¾ÑģÑħ Ð¸ÑĤ
Ð¼Ð¾ÑĤÑĢ ÐµÐ»
ĠÐ·Ð° ÑģÐº
ÂłÐ¡ ÐµÐ¹ÑĩÐ°Ñģ
ĠÐ¡Ð¾Ð² ÐµÑĢÑĪ
ĠÐ½ÐµÐ¿ÑĢÐ¸ÑıÑĤ Ð½Ð¾ÑģÑĤÐ¸
ÐµÑĢ ÐºÑĥ
Ð± ÑĢ
ĠÐļ Ð¸Ð½
ĠÑĤÐµÐ»ÐµÐ³ ÑĢÐ°Ð¼
ĠÑĥÑģÑĤÐ°Ð½Ð¾Ð² ÐºÐ¸
ÐµÑģÐº Ð¾Ð¹
ĠÐ´Ð¾ÑģÑĤ Ð¾Ð²ÐµÑĢ
ĠÐ³ ÑĢÐ¾ÑħÐ¾ÑĤ
Ð¾Ð¿ Ñĭ
ĠÐ½Ð°ÑĥÑĩ Ð½Ð¾
ĠÐ¾Ð±Ð»ÐµÐ³Ñĩ ÐµÐ½Ð¸ÐµÐ¼
ĠÐĺÐµÑĢ ÑĥÑģ
ĠÑģÐ¼ ÐµÑģÑĮ
ĠÑĢÐ¸ÑĤ Ð¼
ĠÑĢ ÐµÐ»ÑĮ
Ð¸ÑģÑĤ Ð°Ñı
ĠÐ¿Ð¾Ð· Ð¸ÑĤÐ¸Ð²
Ð°ÑĤ ÑĭÐ¼
ĠÐ¿Ð¾Ð»Ð¸ÑĤ Ð¸ÑĩÐµÑģÐºÐ¸Ðµ
ĠÑģÐ¾Ð±ÑĢÐ°Ð½ Ð¸Ðµ
ÐµÑģ ÐµÐ»
ĠÐĶÐ°Ð» ÐµÐµ
ĠÐ³ Ð¾Ð²
ĠÐ²Ñĭ ÑĢÑĭÐ²
ĠÐ¡ ÐµÑĢÐ´ÑĨÐµ
Ð¾Ð¶Ð´ ÐµÐ½Ð¸Ð¸
Ð¾Ð½Ð¸ Ñİ
ĠÐ½Ðµ Ð¸Ñģ
ĠÑĤÑĢ Ð¾Ð¸Ñħ
ĠÐ±ÑĥÐ¼Ð°Ð³ Ñĥ
Ð²Ð°ÑĤ Ð¸Ð²
ÑĢÐ°ÑģÑģ ÑĥÐ´
ĠÐĵ Ð¾Ð´
ĠÐ¾Ð±ÑĢÐ°Ñī ÐµÐ½Ð¸Ðµ
ĠÑģÐ¾Ð³Ð»Ð°Ñģ Ð¸Ñı
ĠÐ·Ð½Ð°ÐºÐ¾Ð¼ Ñĭ
ĠÐ½ÐµÐ½Ð°Ð²Ð¸ÑģÑĤ Ð¸
ĠÐ²ÑĭÑĢÐ°Ð· Ð¸Ð»
ĠÐ¡ Ð¸Ð³
ĠÐ¿Ð¾ÑģÐ»ÐµÐ´ Ð½ÐµÐ¼
ĠÐ³Ð»Ð°Ð² Ð½Ð°Ñı
ĠÐ¾Ð±Ñī Ð°ÑĤÑĮÑģÑı
ĠÑĦÐ°ÐºÑĤ Ñĥ
ĠÐ±ÐµÑģÐº Ð¾Ð½ÐµÑĩÐ½Ð¾
ĠÐ¿Ð¾Ð½Ð¸Ð¼ Ð°Ð½Ð¸Ñı
ĠÐ´ÑĢÐ¾Ð¶ ÑĮ
Ð½ Ð°Ð»Ð°
Ðĺ ÐĿ
ĠÐ¸Ð½ÑĦ ÑĢÐ°ÑģÑĤÑĢÑĥÐºÑĤ
Ð¾Ð²Ð°Ð½ Ð½Ð¾Ðµ
ĠÐ¿ÑĢÐ¸ÐµÑħ Ð°ÑĤÑĮ
ĠÐ¼ÑĥÐ¶ ÑģÐºÐ¾Ð¹
ĠÑĥÐ¼ Ð¾Ð»Ðº
ĠÑĤÐµÐ¼Ð¿ÐµÑĢ Ð°ÑĤÑĥÑĢÐ°
ĠÐ¿Ð¸ÑĢ Ð°Ð¼
ĠÐ±Ñİ ÑĢÐ¾
ĠÐ¿Ð¾Ð´ Ð¿Ð¾Ð»
ĠÐ½Ðµ ÑģÐ»Ð¸
ĠÐ¿ÐµÑĩ Ð°ÑĤÑĮ
ĠÐ±Ð¾Ð³ Ð¸
Ġ194 0
. "
ĠÐ¿Ð¾Ð´ Ð»ÐµÐ¶
ĠÐ¿ÑĢÐ¸Ð¶ Ð°Ð»
ĠÐ¿ÑĤ Ð¸ÑĨÐ°
ĠÐ½Ð°Ð¿ ÑĢÐ°ÑģÐ½Ð¾
ÐºÐ°Ðº Ð¸Ðµ
ĠÐ³Ð¾Ð´ Ð¾Ð¼
ĠÐ¿ÑĢÐ¸Ð¼ ÐµÑĩ
ĠÐ¿Ð°ÑĤÑĢÐ¸ Ð¾ÑĤ
7 3
ĠÐ´Ð¸ Ð°Ð»Ð¾Ð³
ĠÐ²Ð»Ð¸Ñı Ð½Ð¸ÐµÐ¼
ĠÐ³ÑĥÐ±ÐµÑĢ Ð½Ð¸Ð¸
ĠÐ¾ ÐºÑĥ
Ð¥ ÐĽ
ĠÐºÐ¾ÑĢÐ¸Ð´ Ð¾ÑĢÐ°
Ð¾ Ð¾ÑħÑĢÐ°Ð½
ĠÐ¿Ð¾ÑĤ Ð°
ÂłÐ¢ ÐµÐ¿ÐµÑĢÑĮ
ÑĢÐ¸ Ð±
ĠÐ¸Ð·Ð²ÐµÑģÑĤ Ð½Ð¾Ð³Ð¾
ĠÐĴ ÑĢÑıÐ´
ÐµÑħ Ð¾Ð²
ĠÐ¾Ð±ÑĬÑıÑģÐ½ ÐµÐ½Ð¸Ðµ
ÑĭÐ» ÐºÐ¸
ĠÑĤÐ°Ð¹ Ð½Ñĥ
ĠÐ²Ð¸Ñģ ÐµÐ»
Ðµ ÐµÐ¼
ĠÐ¼Ð¸Ðº ÑĢÐ¾
ĠÐŀÐ´ Ð½Ð¸Ð¼
ĠÐ±ÑĥÐº Ð²Ñĭ
ĠÐ¼Ð¾ÑģÑĤ Ð°
ĠÐĶÑį Ð²Ð¸Ð´
ĠÑĩ Ð°Ñı
ÐµÐ¹ ÑĤÐµ
ĠÐ·Ð°Ñĩ Ð°ÑģÑĤÑĥÑİ
ĠÐ¤Ð¸Ð½ Ð»ÑıÐ½Ð´
ĠÐ£ Ð»
ĠÐ¾ÑĤÐºÑĢÑĭÑĤ Ð¸Ðµ
ĠÐ¾Ð±Ð¾Ð¹ÑĤÐ¸ ÑģÑĮ
! Â».
ĠÐ² Ð¸Ñħ
ĠÐĳ Ð»Ð¸Ð¶
Ð°ÑĤ Ð¾Ð³Ð¾
Ð¥ Ð¾ÑĤÑı
ĠÐĿ ÐµÑĩ
ĠÐ½Ð°Ð¿ÑĢÐ°Ð² Ð¸Ð»
ĠÐ½ÐµÑģ ÐµÑĤ
6 6
ĠÐ»ÑİÐ± Ð¸Ð»Ð¸
ĠÑģÐ¿ÑĢÐ°ÑĪ Ð¸Ð²Ð°ÑĤÑĮ
ĠÑģÑİÐ¶ ÐµÑĤ
Ð°Ð½ Ð¾Ð¹
ĠÑģÑĤ ÑĢÐ°ÑģÑĤÑĮ
ĠÐ½Ð°ÑģÐº Ð²Ð¾Ð·ÑĮ
Ġ it
ĠÑħÐ°ÑĢÐ°ÐºÑĤÐµÑĢ Ð¸Ð·
ĠÐ¼Ð¸Ðº ÑĢÐ¾ÑĦ
ĠÐ¿Ð¾Ð´ÑĢÐ°Ð·Ð´ÐµÐ» ÐµÐ½Ð¸Ñı
ĠÐ²ÐºÐ»ÑİÑĩ Ð¸Ð»
Ġth at
ĠÐ´ ÑĭÑĢ
ĠĠĠĠ ĠĠ
ĠÑģÐ°Ð¿ Ð¾Ð³Ð¸
Ð¸Ñĩ Ð½ÑĥÑİ
ĠÐ¯ Ð²
ĠÐ³Ð¾Ð» Ð¾Ð´Ð°
ĠÑģ ÐµÐ»Ð¸
ÑģÑĤÐ°Ð½ Ð°Ð²Ð»Ð¸Ð²
ÑģÑĤ Ð¾Ð½
Ġ199 2
ÑĥÑģ Ðµ
1 00
ĠÑĥÐºÑĢÐ°Ð¸Ð½ ÑģÐºÐ¾Ð¹
Ð½ ÐµÐ½Ð¸Ð¹
Âł Ġ
ĠÐ» ÐµÐ½Ð¸
Âł Ð½
ĠÐ¿Ð¾Ð· Ð°Ð²
ĠÐ»ÑİÐ± ÑĭÑħ
ĠÐ¿Ð¾ÑģÐ»ÐµÐ´ Ð¾Ð²
Ġ199 3
ĠÐ´Ð¾ÑģÑĤÐ°Ð² Ð¸ÑĤÑĮ
ĠÐľ Ð§Ð¡
ĠÑģÑĤÑĢÐ°Ð´ Ð°Ð½Ð¸Ñı
Ñĥ ÑĤÐ¾Ñĩ
ĠÐķ Ñĳ
ĠÐ£ Ð²ÐµÑĢ
ĠÐ± ÑĢÐ°Ñģ
ĠÐļ Ð»Ð¸Ð½
ĠÐĴ Ð´
Ð½ÑĥÑĤ Ñĭ
ĠÐ½Ð°ÑģÑĤÑĥÐ¿ Ð»ÐµÐ½Ð¸Ñı
ĠÑĥÐ¿ÑĢ ÐµÐº
Ð½Ñı Ð»Ð°ÑģÑĮ
ĠÐ¿ Ð¸Ð²Ð¾
Ð± Ð¸ÑĢ
ĠÐ´Ð²Ð¾ÑĢ ÑĨÐµ
ĠÐ¿ÑĢÐ¸Ðº Ð¾Ñģ
ÐµÐ´ Ð»
ĠÐĴ Ð¸Ð»
ĠÑħÐ¾Ð» Ð¼Ð°
ĠÐ¾Ð±Ð¾ÑĢÑĥÐ´ Ð¾Ð²Ð°Ð½Ð¸Ðµ
ĠÐ¿Ð¾Ð²ÑĤÐ¾ÑĢ Ð¸Ð»Ð°
ĠÐķ ÑĢ
ĠÑĥÐ» Ð¾Ð¶
ĠÐĲÐ² ÑĤÐ¾ÑĢ
ĠÑĩÐ¸Ð½Ð¾Ð² Ð½Ð¸ÐºÐ¾Ð²
Ð¼Ð¾ÑĤ ÑĢÐ°
ĠÐ¶ÐµÐ½ Ð¸Ð»ÑģÑı
ĠÑĪ ÐµÐ¸
ĠÐ¾ÑģÑĤ Ð°ÑĤ
Ð¢ Ðķ
ĠÐ²ÑģÑı ÐºÐ¾Ðµ
Ñĥ ÐºÐ¾Ð¼
ĠÑĤÑĢÑĥÐ´ Ð½Ð¾ÑģÑĤÐ¸
ĠÑĤÐµÐ°ÑĤ ÑĢÐµ
ĠÐ²ÐµÑĤ ÑĢÐ¾Ð¼
ĠA r
ĠÐ½Ð°Ð¶ Ð°Ð»
ĠÐ²Ð¿Ð»Ð¾ÑĤ Ð½ÑĥÑİ
ĠÐ¾ÐºÑĢÑĥÐ¶ Ð°ÑİÑīÐ¸Ñħ
ĠÐ¸ÑģÐ¿ÑĭÑĤ Ð°Ð½Ð¸Ñı
ĠÑĢÐ°Ð±Ð¾Ñĩ Ð¸Ð¹
ĠÐ¾Ð±ÑĭÑĩ Ð½ÑĭÑħ
ĠÐ» Ð¾Ñħ
ĠÐ³Ð°Ð· ÐµÑĤÑĥ
ĠÐ¸ÑģÐ¿Ð¾Ð»ÑĮÐ· ÑĥÑı
ĠÑģÐ¾Ð²ÐµÑĤ ÑģÐºÐ¾Ð³Ð¾
Âł Ð¿Ð¾Ð´
ĠÐĵ ÐµÐ¹
ĠÐºÐ¾ÑĢ Ð¾Ð»Ñİ
ĠÐ¿Ð¾ÑĪ ÐµÐ²ÐµÐ»
ĠÑģÐ² Ð¸ÑĢÐµÐ¿
ĠÐºÑĢÐ°Ñģ Ð½Ð¾Ð¹
ĠÑģÐ°Ð¿ Ð¾Ð³
Ð°Ñī Ð¸Ð»
ÑĤÐµÐ½ Ð°Ð½ÑĤÐ°
ĠÐ²Ð·Ð° Ð¸Ð¼Ð¾
ĠÐ² ÑĢ
ĠÐ²Ñĭ Ð½ÑĥÐ»
ĠÐ²Ð¾Ð·Ð¼Ð¾Ð¶ Ð½ÑĭÑħ
Ð¸Ñħ Ð¾Ð½ÑĮÐºÑĥ
ĠÐŀÑĢ Ð³Ð°Ð½
ĠÐ·Ð°Ðº ÑĥÑģ
ĠÐ¿Ð¾Ð»ÑĥÑĩ Ð°ÑİÑĤ
ĠÐ·Ð°ÑĤ ÑĢÐ°ÑĤ
ĠÐ²ÑĭÐ¿ ÑĥÑģÑĤÐ¸Ð»
ĠÐ·Ð°ÑģÑĤÐ°Ð² Ð¸Ð»Ð¾
ĠÐ£Ð¸Ð»ÑĮ ÑıÐ¼
ĠÐ±Ð¾Ð»ÑĮ Ð½Ð¾Ð¹
ĠÐ±ÐµÐ·Ð¼ Ð¾Ð»Ð²
ÐµÐ½Ð¸ Ð¼
Ðº ÑĢÐ°ÑĦ
ĠÐ¼ Ð¸Ð½ÑĥÐ²
ĠÐ¡ ÐµÐ½ÑĤ
ĠÐ¿Ð¾ÑĤÑĢÐµÐ± ÑĥÐµÑĤÑģÑı
ĠÐ²Ð¾Ð·Ð´ÐµÐ¹ÑģÑĤÐ² Ð¸Ñı
ĠÐ¿ÑĢÐµÐ´Ð¼ÐµÑĤ Ð¾Ð²
ĠÐ¿ÑĢÐ¾ÑħÐ¾Ð´ ÑıÑĤ
ĠÐ¸Ð¼Ð¿ÐµÑĢ Ð°ÑĤÑĢ
ĠÐ±Ðµ ÑĤÐ¾Ð½
ÐŃ ÑĤÐ°
ĠÐ¼ÐµÑĩ ÑĤÑĭ
ĠÐ¾Ð¿ÐµÑĢÐ° ÑĨÐ¸Ñı
ÐµÐ½ ÐµÐ»
Ġ199 4
ĠÐ´ ÐµÑĢÑĮ
ĠÐ½Ð°ÐºÐ°Ð· Ð°Ð½Ð¸Ñı
Ð¸Ð½ ÑĨÐµÐ²
ĠÐĽ Ð°Ð¹
ĠÐ°ÑĢ Ð±
ĠÐ¾Ð±ÑģÑĤÐ°Ð½Ð¾Ð² ÐºÐµ
ĠÐ¿ÑĢÐ¸Ðº Ð»Ð°Ð´
ĠÑĢÐ°Ð± Ð¾Ð²
ĠÑĩ ÐµÐº
ĠÑĢÐ°Ð· Ð¾Ð·
ĠÐ¿ÑĥÐ»ÐµÐ¼ ÐµÑĤ
ĠÐ½Ð¾Ñĩ Ð°Ð¼
ĠÐ±ÑĢÐ°ÑĤ Ñĥ
ĠÐ¾ÑĤÑģÑĤÐ°Ð² ÐºÑĥ
ÂłÐŁ Ð¾Ð»
ĠÑģÐ¾ÑģÑĤÐ¾Ñı Ð½Ð¸Ñİ
ĠÐ¿ÑĢÐ¸Ð½Ð¸Ð¼ Ð°Ð»Ð¸
ÑĦ Ð¸Ð·
ĠÐĴ Ð°ÑĪÐµ
ÂłÐĶ Ð°Ð²Ð°Ð¹
ĠÑĦ ÑĥÐ½ÑĤÐ¾Ð²
ĠÐĺÐ³Ð¾ ÑĢÑı
ĠÐ¡Ð°Ð¼ Ð¾Ðµ
ĠÐ° Ð¼Ñĥ
ĠÐ¾Ð¿Ð¸Ñģ Ð°Ð½Ð¸Ðµ
Ð°ÑĢ ÑħÐ°
Ð»Ñİ Ñģ
Ġ199 5
ĠÐ¿Ð¾ ÑĥÑĩ
ÐµÑĢ ÐºÐ°
ĠÐ³ÑĥÐ± Ñĥ
ĠÐ½ÐµÑĢÐ² Ñĭ
ĠÐºÐ¾ Ð¾ÑĢÐ´Ð¸Ð½
Ð¸Ð¾Ð½ Ðµ
ĠÐ¾ÑĨÐµÐ½ ÐºÐ¸
ĠÑĢ ÑĭÐ²
ĠÐ¸Ð· ÑĢÐµÐ´ÐºÐ°
ĠÐŁ Ð°Ð¿
ĠÐŀ Ð»Ð¸Ð²
ÑĥÑĪ ÐµÐ²
ÑĥÑī Ð¸Ð¼
ĠÐºÐ°ÑĢ Ð°Ð²
ĠÑĥ Ð»ÑĮ
ĠÑĨÐµÐ¿ Ð¸
ĠÑįÐºÐ¾Ð½Ð¾Ð¼ Ð¸ÑĩÐµÑģÐºÐ¾Ð³Ð¾
ĠÐ½ÐµÑĥÐ²ÐµÑĢ ÐµÐ½Ð½Ð¾
ĠÐ¿Ð»Ð¾ÑĤ ÑĮ
ĠV I
ĠÑģÐ»ÑĥÑĩ Ð°Ñİ
ÑĤ Ð°Ð¹
ĠÑģÐ²ÑıÐ· Ð°Ð½Ð°
ĠÐ²ÑĭÐ´Ð¾Ñħ Ð½ÑĥÐ»
ĠÑģÑĩ ÐµÑĤÐ°
ĠÐ¨ ÐµÐ»
Ð¾Ñĩ ÑĮÑİ
ĠÑĥÐ´ Ð¾ÑģÑĤÐ¾
ĠÐ¿ÐµÑĢÐµÐ» Ð¾Ð¼
ĠÐ·Ð°ÐºÑĢÐ¸Ñĩ Ð°Ð»Ð°
ĠÐ¾Ð±Ð¾ÑĢÑĥÐ´ Ð¾Ð²Ð°Ð½Ð¸Ñı
ÐµÐ»ÑĮ Ð½ÑĭÐ¹
ĠÑĤÐ¾Ð½ ÐºÐ¸Ðµ
Ð» ÐµÑĤÐ°
ĠÐ´ ÑİÐ¶
ĠÐ¿Ð¾Ð´ ÑģÑĤÑĥÐ¿
ÑİÑī Ð¸Ð¼Ð¸
ĠÐ¿ÑĢ ÐµÐ³ÑĢÐ°Ð´
ĠÐ²Ð¸Ð´ Ð¸Ð¼Ð¾ÑģÑĤÐ¸
ĠÐ¿Ð¾Ñģ Ð¾Ð»
ĠÐ¿ÐµÑĢÐµÑģ Ð¿ÑĢÐ¾ÑģÐ¸Ð»
ĠÐĳÑĢ Ñİ
ĠÐĴÐ»Ð°Ð´Ð¸Ð¼ Ð¸ÑĢÐ¾Ð²
ĠÐ½Ñĭ Ð½
ĠÐ¿ Ð°Ð²
Âł âĢ¦
ÑĢÐ°Ð½ ÑĤÐ¾Ð²
ĠÐ¡ ÑĥÑīÐµ
ĠÐºÑĢÐ°Ñģ Ð½ÑĭÐ¼
ĠÐ²Ð¾ ÐµÐ²Ð°ÑĤÑĮ
ĠÑıÑĢ Ð¾ÑģÑĤÑĮ
ĠÐ¾ÑĤÐ· ÑĭÐ²
ĠÐĹ Ð°ÐºÐ¾Ð½
ĠÐĿ Ðļ
ĠÑģÑĥÑīÐµ ÑģÑĤÐ²Ñĥ
ĠÐ·Ð°ÐºÐ»ÑİÑĩ ÐµÐ½Ð¸Ðµ
ĠÐ²Ð¸Ð½ Ð¾Ð³ÑĢÐ°Ð´
ĠÐŀÑĤ ÑģÑİÐ´Ð°
ĠÐĶÐ¶ ÐµÐ¹Ð½
ĠÐ»ÐµÐ³ ÐºÐ¸Ð¼
ĠÑĦ ÐµÐ½Ð¾Ð¼
ĠÑĤÑıÐ¶ÐµÐ» ÑĭÐ¼
ĠÐ¼Ð¾Ð´ ÐµÑĢ
ĠÐ´Ð¾ÑģÑĤÐ¾Ð¸Ð½ ÑģÑĤÐ²Ð°
ĠÐ²ÑĭÐ± Ð¸ÑĢÐ°ÑĤÑĮ
ĠÑįÐ½ÐµÑĢÐ³ Ð¸Ñı
ĠÐ½ ÑĭÑĢ
ĠÑĥÑģ Ñĭ
ĠÐ¿Ð°ÑĢ ÑĥÑģ
Ð´ Ð°Ðº
ĠÐ£ ÑĤ
Ġ3 4
ĠÑģÐ¸Ð´ ÑıÑĤ
ĠÐ²ÑĤÐ¾ÑĢ ÑĭÐ¼
ĠÐ¿ÑĢÐ¾Ð²Ð¾Ð´ Ð¸ÑĤ
ĠÑĤ Ð°ÑģÐº
ĠÐ²ÑĭÑģÐ¾Ðº Ð¾Ð¼
ĠÑģ ÐµÐ½ÑĮ
Ñį Ð¿
ĠÐ¾ÑĤÐºÐ°Ð· Ð°Ð»Ð°ÑģÑĮ
ĠÐ¾ÑĤÐ¼ÐµÑĩ Ð°ÐµÑĤÑģÑı
ĠÑĤÑĢ Ð¾ÑĦ
ĠÐ·Ð°Ð´ÑĥÐ¼ ÑĩÐ¸Ð²
ĠÐ±Ð°Ð· Ñĥ
Ð¾Ð±Ð¾ÑĢ Ð¾Ð½Ñĭ
ĠÐĴÐµÑĢ Ñħ
ĠÐĴÑģ ÐµÐ»ÐµÐ½Ð½Ð¾Ð¹
Âł Ð¾ÑĤ
ĠÑģÑĥÐ¼ Ð¼Ñĭ
ĠÐ¿Ð¾Ð¼Ð¾ÑĢÑī Ð¸Ð»ÑģÑı
ĠÐĴÐµÐ»Ð¸Ðº Ð¾Ð³Ð¾
ĠÐ¾Ð¶Ð¸Ð´ Ð°Ð»Ð°
ĠÐľ ÐµÐ³
ĠÐºÐ¾Ð» ÑħÐ¾Ð·
ĠÐ¿ÑĢÐµÐ´ÑģÑĤÐ°Ð²Ð»Ñı Ð»Ð°
ĠÐŁÐµÑĢÐ² Ð¾Ð¹
ĠÐ²Ð¾ÑģÑĤÐ¾ÑĢ Ð¶
ĠÐŁ ÐµÑĢÐµÐ²
i p
ĠÑĢÐ°ÑģÐº Ð»Ð°Ð´
ÑĢÐ¾Ñģ Ñģ
ĠÐ¿ÑĢÐ¸Ñĩ Ð¸Ð½Ñĥ
ĠÑĢÐ°Ð·Ð²Ð¸ÑĤ Ð¸Ð¸
ĠÐŁÐµÑĢÐ² Ð¾Ðµ
ĠÑĢÐ°Ð·Ð¼ÐµÑĢ Ð¾Ð¼
ĠÐ¿ÑĢÐ¸Ð± ÑĭÐ²
ÑĨÐ¸Ð¾Ð½ Ð½Ð¾Ðµ
ĠÐ» Ð°Ðº
Ð¸ÑģÑĤ Ð¸Ð½Ðµ
ĠÐ²ÑģÐ¿Ð¾Ð¼Ð¸Ð½ Ð°ÑĤÑĮ
ĠÐĴ Ðľ
ĠÐ½Ð°Ð´ÐµÐ¶ Ð´Ðµ
ĠÐ²ÑĭÐ·Ð² Ð°Ð»Ð¸
ĠÐ°ÑģÑĤÑĢ Ð¾Ð½Ð¾Ð¼
ĠÐ¿ÑıÑĤ Ð¸Ð´ÐµÑģÑıÑĤÐ¸
Ð¶ Ð´Ñĭ
ĠÐ½Ð°Ð² Ð°Ð»
ĠÐ²ÐµÑģ ÐµÐ½
ĠÑħÐ» Ñĭ
ĠÐŀÐ± ÑīÐµ
ĠÐ²ÑĭÑħÐ¾Ð´ Ð¸Ð»
ĠÐ¼Ð°Ð½ Ð¸Ð¿
ĠÑĤÑĢÐ°ÑĤ Ð¸ÑĤÑĮ
ĠÐ¤ Ð¾ÑĤÐ¾
Ð¾Ð·Ð² ÑĢÐ°Ñī
ĠÐ¼ ÑĥÐºÐ¸
ĠÑĨÐµÐ» Ð¾Ðµ
ĠÑĥ ÑĪÐµÐ¹
ĠÐł ÑĭÐ±
ĠÑĥÐ²Ð¸Ð´ Ð¸ÑĪÑĮ
ĠÐºÐ¾ Ð°Ð»Ð¸
ĠÐ²ÑĢÐµÐ´ Ð°
Ð°Ð² Ð°ÑĤÑĮÑģÑı
ĠÐ¿Ð¾ÑģÐ» Ð°ÑĤÑĮ
ĠÐł Ð¾Ðº
ĠÑĥÑĩ ÐµÐ½Ð¸Ñı
ĠÐ¿ÐµÑĢÐµÐ´ ÑĥÐ¼
ÑĤ ÑıÐ¼Ð¸
ĠÐ± ÑĥÐ¹
ĠÐ¿Ð¾Ð¿ ÐµÑĢ
ĠÑĦÐ¸Ð· Ð¸Ð¾Ð½Ð¾Ð¼
Ð¸Ð¼ Ð¸ÑĢ
ĠÐĶ Ð¾Ð¼Ð°
ĠÑģÐ¸Ð»Ñĥ ÑįÑĤ
ĠÑĥÐºÑĢÐ°Ð¸Ð½ ÑģÐºÐ¾Ð³Ð¾
ĠÐ¿Ð¸Ñī Ñĥ
ĠÑģÐ°Ð½Ðº ÑĨÐ¸Ð¹
ĠÑĦÐ¾Ð½ Ð´Ð°
ĠÐ½ÐµÐ¼ÐµÑĨ ÐºÐ¸Ð¹
ĠÐ·Ð°ÐºÐ¾Ð½Ñĩ Ð¸ÑĤÑĮ
ĠÐļ ÐµÐ¹
ĠÐ½Ð°Ð¿ÑĢÐ°Ð² Ð¾
ĠÐ¿Ð¾Ð¼ Ð°Ñħ
ĠÐºÐ¾Ð¼Ð¿ Ð°Ð½Ð¸ÐµÐ¹
ĠÐ³Ð¾ÑģÑĥÐ´Ð°ÑĢ ÑĮ
ĠÑĥÑģ ÐµÑĢÐ´
ĠÐ¼ÐµÑĤ ÑĢÐ°
ĠÐ±Ð¾Ñı ÑĢ
ĠÑĢÑĥÐºÐ¾ ÑıÑĤ
ĠÐŁ Ð¾Ð¹Ð´ÐµÐ¼
ÂłÐĶ Ð¶
ĠÐ½Ð°ÑĥÑĩ Ð½ÑĭÑħ
ĠÐ¿ÐµÑĢÐµÑģÑĤ Ð°Ð»Ð¸
ĠÐĳÑĭ Ð»Ð°
ĠÑĢÑĥÑħ Ð½ÑĥÐ»
ĠÑĦÑĥÑĤ Ð¾Ð²
ĠÐ·Ð²ÑĥÑĩ Ð°Ð»
ĠÐ»ÑĥÐº Ð°Ð²
ĠÑĪÐ°Ð½Ñģ Ñĭ
ĠÐ²Ñĭ ÐºÑĥÐ¿
ĠÐ¿Ð¾ÑıÐ² Ð»ÑıÑİÑĤÑģÑı
ĠÐ¿ÑĢÐ¸ Ð¾ÑģÑĤÐ°Ð½Ð¾Ð²
ĠÑĢÐµÐºÐ¾Ð¼ ÐµÐ½Ð´Ð°
ĠÐ½ÐµÐ± Ñĥ
ĠÐ¿Ñģ ÐµÐ²
ĠÐ¡ÑĤÑĢÐ°Ð½ Ð½Ð¾
Ð¿ Ñĭ
Ð¸ÑĢ Ð°Ð»Ð¸ÑģÑĮ
ĠÐ³Ð¾ ÑĢÑĥ
ÐµÐ´ ÑĢÐ¾
ĠÐ¾ÑĢÐ³Ð°Ð½Ð¸Ð· Ð¾Ð²Ð°ÑĤÑĮ
ĠÐ·ÑĢ Ð¸ÑĤÐµÐ»ÐµÐ¹
ĠÐ¾ÑĪÐ¸Ð± ÐºÐ°
ĠÐ¸Ð³ÑĢÐ° ÑİÑĤ
ĠÐ³Ð¾ÑĢ Ð´Ð¾
ĠÐ·Ð¾Ð»Ð¾ÑĤ ÑĭÐµ
Ð°ÑĢ ÐµÐ²
Ð¾Ð´ Ð¸Ð½
ĠÐ° ÑģÑĤ
ĠÐ»ÐµÑĤ Ð°
Ð°ÑģÑĤ ÑĢ
ĠÐ²ÐµÑĢ Ð¸ÑĤ
ĠÐº Ð¾Ð¶Ðµ
ĠÑģÐ¾Ð²ÑĢÐµÐ¼ ÐµÐ½Ð½Ð¾Ð³Ð¾
ĠÐ¿ÐµÑĢÐµÑħÐ¾Ð´ Ð°
ĠÐ¿Ð¾Ð»ÑĥÑĩ Ð°Ð»
ĠÐ´Ð¾Ð± ÑĢÐ¾
ÑģÐµÐ´ Ð½ÐµÐ²
ĠÐ¼Ð°Ð¼ Ñĭ
ĠÑģÑħÐ²Ð°ÑĤ Ð¸Ð»Ð°
ĠÐ¿ÑĢÐ¸Ð·Ð½ Ð°ÐºÐ¸
ĠÐŁÑĢÐ¾Ð´ Ð¾Ð»Ð¶
ĠÐ¼Ð¾Ð½ ÑģÑĤÑĢ
ĠÑįÐºÐ¾Ð½Ð¾Ð¼ Ð¸ÑĩÐµÑģÐºÐ¾Ð¹
ĠÐ¿ÑĢÐ¾ÑĢ ÑĭÐ²
ĠÑħÐ¾Ð» Ð¾Ð´Ð°
ĠÐ½Ð°Ð¿ Ð°ÑĢ
ĠÐĴ Ð°Ð¹
Ð¾Ñĩ Ð¸Ð»Ð¸
ĠÑģÑĤÐ°ÑĢ Ð¾Ð¼
ĠÐ·Ð°Ð± ÑĭÑĤ
ÐĴ Ð¾Ð·
ĠÐ¡ÑĤÐ°ÑĢ Ð¸Ðº
ul a
ĠÑĢÐµÐ³ ÑĥÐ»Ð¸
ĠÐ¿ÑĢÐ¸Ð·Ð½ Ð°Ðº
ĠÑĢÐ°ÑģÑģÑĤ ÐµÐ³
ĠÐĳ ÐµÑģ
ĠÐ¿Ð¾Ð´ÑĬ ÐµÐ¼
ĠÐ¡ ÑĭÐ½
ĠÐ¥ Ð°Ð¹
ĠÐĹÐ°Ð¿ Ð°Ð´Ð°
ĠÐ½Ð°ÑģÑĤÐ¾ÑıÑī Ð¸Ðµ
ĠÑĪÐ¸ÑĢÐ¾Ðº Ð¸Ð¹
ĠÐºÐ¾Ð¼Ð°Ð½Ð´ Ð¾Ð²Ð°Ð½Ð¸Ðµ
ĠÐ²Ñĭ Ð²ÐµÑģÑĤÐ¸
ĠÐ¿Ð¾Ñģ Ð¼Ð¾ÑĤÑĢÐ¸
ĠÐ»ÑİÐ± Ð°Ñı
ĠÐļ Ð°ÑĢÑĤ
ĠÑĢÐ°Ð·Ð½Ð¾ ÑĨÐ²ÐµÑĤ
ÐµÐ½ÑĮ ÑĪÐµ
ĠÐ²ÑĭÑģÐº Ð¾ÑĩÐ¸Ð»
ĠÐ½Ð¾Ð² Ð¾ÑģÑĤÐµÐ¹
ĠÐ¿ÑĢÐ¸ÑħÐ¾Ð´ ÑıÑĤ
ĠÐ¾Ð¿ÑĢÐµÐ´ÐµÐ» ÐµÐ½Ð½Ð¾
ĠÐĶÐµÐ½Ð¸ Ñģ
ĠÐĺ Ð¼Ðµ
ĠÐ²ÐµÑģ Ð¾Ð¼
ĠÐ¿Ð¾Ðº Ð¸Ð½ÑĥÐ»Ð¸
ĠÐ¾Ðº Ð»Ð¸Ðº
ĠÐ½Ð°ÑģÑĤ Ð¾Ð¹ÑĩÐ¸Ð²
ĠÐ´Ð¾Ð²ÐµÑĢ ÑıÑĤÑĮ
ĠÐºÑĢ ÑĭÐ¼
ĠÐ½ÑĭÐ½ ÑĩÐµ
Ð£ Ð¶Ðµ
ĠÐ¼Ð¸ÑģÑģ Ð¸Ð¸
ĠÑī ÐµÐºÐµ
ĠÑģÑĢ Ð¾ÐºÐ°
ĠÑĤ ÐºÐ°Ð½
ĠÐ¡Ð²ÑıÑĤ Ð¾Ð³Ð¾
ĠÐ¾ÑĤÐ²ÐµÑĤ Ñĭ
ĠÐ½Ð°Ð¿ÑĢÑıÐ¶ ÐµÐ½Ð¸Ñı
ĠÐ¿Ð¾Ð±ÐµÑĢÐµÐ¶ ÑĮÐµ
ĠÐ½ÐµÑĥÐº Ð»Ñİ
Ð½ Ð¾Ð±
ĠÑģÑĤ Ñĭ
ĠÐ¿ÑĢÐ¾Ð¿ Ð°Ð»
Ð¾Ð¿ Ð¾Ð¼
ĠÑĨ ÑĭÐ¿
Ġ193 9
ĠÑģÑĤÑĢÐ°Ð½ Ð¸ÑĨÑĭ
ÐµÐ½ ÐµÐ¹
Ñĥ Ð»Ð¸Ð²
ĠÐ¨ Ð²ÐµÐ¹ÑĨÐ°ÑĢ
ĠÐ½Ð°ÑĥÑĩ Ð¸ÑĤÑĮÑģÑı
ĠÑĨÐ¸ÑĤ Ð¸ÑĢÑĥÐµÑĤ
ĠÑģÑĤ ÐµÐ½Ð°
Ð°Ð¿ ÑĢÐ°Ð²
ĠÐ¿ÑĢÐ¾Ð¸Ð· Ð¾Ð¹ÑĤÐ¸
ĠÐ¶ÐµÐ» Ð°Ð½Ð¸ÐµÐ¼
ĠÐ±ÑĢÐ¾Ñģ Ð¸Ð»Ð¸ÑģÑĮ
ĠÐ¸Ð· ÑĢÐ°Ð¸Ð»ÑĮ
ĠÐ½Ð°Ð» ÐµÐ²Ð¾
Ñĥ Ð°ÑĢ
ĠÐļ Ð¾Ð²
ĠÐ°Ð¿ ÑĤ
ĠÐ¿Ð¾Ð´Ñĩ Ð¸Ð½Ñı
ĠÑģÑĢÐµÐ´ÑģÑĤÐ² Ð°Ð¼Ð¸
ĠÐ¿ÑĢÐ°Ð² Ð´Ñĭ
ĠÑĤÐ¾ÑĢÐ¶Ðµ ÑģÑĤÐ²ÐµÐ½Ð½Ð¾
ĠÐ½Ðµ Ð¾Ð¿ÑĢÐµÐ´ÐµÐ»
ĠÐĴ Ð¾Ð»ÑĮ
r y
ĠÐ²Ð·ÑĢÐ¾Ñģ Ð»ÑĭÑħ
ĠÐ»Ð¸Ðº Ð²Ð¸Ð´Ð°
ĠÐķÐ²ÑĢÐ¾Ð¿ Ñĥ
ĠÐ²Ð¾Ð· Ð½Ð°Ð³
ĠÐ¿Ð¾Ð´Ð¾Ð± Ð½Ð¾Ð¹
ĠÐ¿Ð¾Ð¼Ð¾Ð³ Ð»Ð¸
ĠÐ¸Ð½ÑĤÐµÑĢÐµÑģ Ð°
ĠÐ´Ð¾Ð±ÑĢ Ð°Ð»ÑģÑı
ĠÐºÐ°Ð¿ ÑĥÑģÑĤ
ĠÐ²ÑĭÑĢÐ°Ð¶ ÐµÐ½Ð¸Ñı
ĠÑĤÐ¾Ð¿ Ð¾ÑĢ
ĠÐ´ Ð¸ÑģÑģ
ĠÑģÐ¾Ð²ÐµÑĤ ÑģÐºÐ¸Ð¹
ĠÐ¿Ð¾ÐºÐ°Ð· Ð°ÑĤÑĮÑģÑı
ĠÐļÐ¾ ÑĤÐ¾ÑĢ
ĠÐ±Ð°Ð³ Ð°Ð¶
ĠÐ±ÐµÐ¶ Ð°Ð»Ð¸
ĠÐĵ ÑĢÐ¾Ð¼
ĠÐ¿Ð¾Ð»Ð¸ÑĨÐµÐ¹ ÑģÐºÐ¸Ð¹
Ð¡Ðļ ÐĴÐĲ
ĠÑģÐ¿ÑĢ ÑĭÐ³
ĠÐ³ÑĥÐ±ÐµÑĢÐ½Ð° ÑĤÐ¾ÑĢ
Ñĥ ÑıÑģÑĮ
ĠÑģÑĤÑĢÐµÐ¼ Ð»ÐµÐ½Ð¸Ðµ
ĠÑĢÐ°ÑģÐ¿Ð¾ÑĢÑıÐ¶ ÐµÐ½Ð¸Ðµ
ĠÐ¼ ÑĥÐ½Ð´
ĠÐºÐ¾Ð» ÐµÐ½Ð¾
Ð³ Ð¾Ð¹
ĠÐºÐ¾Ð»Ð»ÐµÐ³ Ð¸
ĠÐ¿ÑĢÐµÐ¼ Ð¸Ð¸
ĠÐ·ÐµÐ»ÐµÐ½ ÑĭÐ¹
ĠÐ¾Ð³ÑĢÐ¾Ð¼ Ð½Ð¾Ð³Ð¾
ĠÐ¿Ð°ÑĢÑĤÐ¸Ð· Ð°Ð½
ĠÑįÐ¿Ð¾Ñħ Ñĥ
ĠÐºÐ¾Ð½ÐºÑĥ ÑĢÐµÐ½
ĠÐ¾Ð±Ñģ ÑĥÐ´Ð¸ÑĤÑĮ
ÐĿ Ð°Ð´Ð¾
ĠÐ¼ ÐµÑĤÐ°
Ð¾Ð· Ð°Ð²
Ð°Ð³ Ð°Ñİ
ĠÐĵ Ð°
ĠÐĿÐ°ÑģÑĤ Ñı
Ð¸ÑĢÑĥ Ñİ
ĠÐ²ÑħÐ¾Ð´ ÑıÑĤ
Ð½ Ð°Ð¹
Ð»Ð¸Ð² Ð¾Ð³Ð¾
ĠÐ±Ð¾ÐµÐ² Ð¸ÐºÐ¾Ð²
ĠÐł Ð¸Ð½
ĠÐºÐ¾Ð¼Ð°Ð½Ð´ Ð¾Ð¹
ĠÐ·Ð°ÑģÑĤÐ°Ð² Ð¸Ð»Ð¸
ÑĥÑģ Ð¸
Ð¾Ðº Ð¾ÑĢ
ĠÐ¿Ð¾ÐºÐ°Ð·ÑĭÐ² Ð°Ñı
ĠÐ¾ Ð¿ÑĢÐ¾Ñģ
ĠÐ§Ð°ÑĢ Ð»ÑĮ
ĠÑģÐºÑĢÑĭ Ð»ÑģÑı
ĠÐ»ÑĥÑĩ Ð¸
ĠÐķÐ² ÑĢÐ¾Ñģ
ĠÐŁ Ð»
ĠÐ±Ð¾Ð» ÐµÐ»ÑĮ
ĠÐ¾ÐºÐ°Ð· Ð°ÑĤÑĮ
ÐµÐ» Ð¾Ðº
ĠÐ·Ð°Ð¿ Ð¸ÑģÐºÑĥ
ĠÐŁÐµÑĢÐ² ÑĭÐ¼
ĠÐ¿Ð¾Ð» Ð¸
ĠÑĤÐ°Ð½ ÑĨ
ĠÑģÐ¾ÑģÐµÐ´ ÐµÐ¹
ĠÐ¿Ð¾ÑĨÐµÐ» Ñĥ
ĠÐºÐ»Ð°Ñģ ÑģÐµ
ĠÐ²Ð¸Ð´ Ð½Ñĭ
Ð´ÑĢ ÐµÐ¹
ĠÐŁÐ¾ÑģÐ»ÐµÐ´ Ð½Ð¸Ð¹
ĠÐ¼ÐµÑĢÑĤÐ² ÑĭÑħ
ĠÐµÑħ Ð°Ð»
ĠÐ»ÑİÐ± Ð¸ÑĪÑĮ
ÐµÐ»ÑĮ Ð½ÑĭÑħ
ÂłÐļ ÑĥÐ´Ð°
ĠÐ½Ðµ Ð¾ÑħÐ¾ÑĤ
ĠÐĳÐµÐ» Ð°ÑĢ
ÑĥÑĤ Ð¾Ð¼
ĠÐ¾Ð· Ð²ÑĥÑĩ
ĠÑĢÐ°Ð·Ð²ÐµÐ´ ÑĭÐ²
ĠÐ¿Ð¾Ð» ÑĥÑģ
ĠÐ½ÐµÐ¿ Ð¾Ð»
ĠÐµÑħ Ð°Ð»Ð¸
Ð¸ÑĪ Ñĥ
ĠÐĵ Ð¸ÑĤÐ»ÐµÑĢ
ĠÐ½Ð°Ð² Ð¸Ñģ
ĠÐ¸ ÑĥÐ´
ĠÐ» Ð¾Ð·
ÐºÐ° ÐµÑĤ
ĠÐ¼Ð°ÐºÑģÐ¸Ð¼ Ð°Ð»ÑĮÐ½Ð¾
ĠÐºÐ¾ ÐµÐ¼
ĠÐ´Ð¾Ð» Ð³Ð°
ĠÐ³Ð¾ÑģÑĥÐ´Ð°ÑĢ ÑģÑĤÐ²ÐµÐ½Ð½ÑĭÐ¹
ĠÐºÐ½Ñı Ð¶Ðµ
ĠÐ¾ÑĤÐ¿ÑĢÐ°Ð² Ð¸Ð»Ð¸
ĠÐ¼Ð¸Ð» Ð¾ÑģÑĤ
ĠÑĦÑĢÐ°Ð½ÑĨÑĥÐ· ÑģÐºÐ¾Ð³Ð¾
ĠÐ·Ð¾Ð»Ð¾ÑĤ ÑĭÑħ
ĠÐ¼ÐµÑĤÐ°Ð» Ð»Ð°
ĠÐ²Ñĭ ÑıÑģ
ĠÐ¡ Ð»ÑĥÑĪÐ°Ð¹
ĠÐ¿ÑĢÐ¾ÑĨ ÐµÐ½ÑĤÐ°
ĠÐĳÑĭ ÑĤÑĮ
ĠÐ²ÑĭÐ·Ð² Ð°Ð»Ð¾
ĠÑĤÑĥÑĢ Ð¸ÑģÑĤ
ÑĢÐ¸ Ð°Ð½
ĠÑĥÐ´Ð° ÑĩÐ½Ð¾
ĠÑĢÐ°ÑģÑĤÐµÑĢÑıÐ½ Ð½Ð¾
Ð´ Ð°ÑĤÑĮ
ĠÐ²Ð¿ÑĢÐ°Ð² Ð´Ñĥ
Ð¸ÑĦÐ¸ÐºÐ° ÑĨÐ¸Ð¸
ĠÐ¾Ð¿ Ð¾ÑĢ
ĠÐ»ÐµÐ¶ Ð°ÑĤÑĮ
ÑģÑĤÑĢ Ð¸ÑĤ
ĠÐ¿Ð¾Ð´Ð´ÐµÑĢÐ¶ ÐºÐµ
ĠÐ¾Ð±ÑĢÐ°Ñī ÐµÐ½Ð¸Ñı
ĠÐ°Ð½Ð³Ð»Ð¸Ð¹ ÑģÐºÐ¾Ð³Ð¾
ĠÑģÐ²ÑıÑīÐµÐ½ Ð½Ð¸Ðº
ĠÑģ Ð½Ð¾Ð¼
ĠÐ¿ÑĢÐ¸Ð¼ Ð¸ÑĤÐ¸Ð²
ĠÑģÐ¾Ð³Ð»Ð°Ñģ Ð¸ÑĤÑĮÑģÑı
ĠÑĢÐ°Ð·Ð± ÑĢÐ¾Ñģ
ĠÐĴ ÑĩÐµÑĢÐ°
ĠÐŁ Ð»Ð°Ð½
ĠÑĤÑĢ Ð¸Ð½
Ñģ ÐµÐ»
ĠÐ·Ð°ÐºÐ¾Ð½Ñĩ Ð¸Ð»Ð°ÑģÑĮ
ĠÑĢÐ¾ÑģÑĤ Ð¾Ð¼
Ġ17 9
ĠÐ¿ÑĢÐ¾Ñģ Ð¼Ð°ÑĤÑĢ
ĠÐ¿ÑĢÐµÐ´ÑĥÐ¿ÑĢÐµÐ´ Ð¸ÑĤÑĮ
Ð³ Ð»Ð°Ñģ
ĠÐĶ Ð²ÐµÑĢÑĮ
ĠÐºÐ¾ÑĢÐ¾Ð»ÐµÐ² Ñĭ
ĠÐ¿Ð¾ÑıÑģ Ð°
ĠÐ°Ð³ÑĢÐµÑģÑģ Ð¸Ð²
t e
ĠÑĥÐ³ Ð¾Ð»ÑĮ
Ð½ ÐµÐ»Ð¸
ĠÐŁÐµÑĤÐµÑĢÐ±ÑĥÑĢ Ð³Ð°
ĠÐ¿ÑıÑĤ Ð½Ð°
ĠÐ·Ð°Ð¾ÑĢ Ð°Ð»
Â µ
ĠÐ¶ Ð³
ĠÑģÐ¾Ð¿ÑĢÐ¾Ð²Ð¾Ð¶Ð´ ÐµÐ½Ð¸Ð¸
ĠÐ¡ ÐµÐ±
ĠÐ¾Ð¿ÑĢÐµÐ´ÐµÐ» ÐµÐ½Ð½ÑĭÐµ
ĠÑĢÐ°Ð´ Ñĭ
ĠÑģÑĤÑĢÐ°ÑĪ Ð½Ð¾Ðµ
ĠÐºÐ°Ð¼ ÐµÑĢÑĥ
ÑĭÑĩ Ð°Ð»
ĠÐºÐ¾ÑģÑĤ ÐµÐ¹
Ð¾Ð¿ ÑĢÐ°Ð²
ĠÐ¿ÑĢÐ¸ Ð¾ÑĢ
ĠÑĤÑĢ Ð¾Ð»
ĠÐ¾ÑģÐ¾Ð± ÑĭÐ¹
ĠÐ²ÑĭÐ± ÑĢÐ¾Ñģ
ĠÐ¾ÑĤÐºÑĢÑĭÑĤ Ð¾Ð¹
ĠÐĲÑĢÐ¼ Ð¸Ð¸
ĠÐĳ Ð¾Ð½
ĠÐ·ÐµÐ¼ Ð»ÑıÐ½
ĠÑģÐ¾Ð±ÑĢÐ°Ð½ Ð¸Ñı
Ð¿ Ð¸Ð½
ĠÑĤÑĢÑĥ Ð±Ñĭ
ĠÐĵÑĢÐ¸Ð³Ð¾ÑĢ Ð¸Ð¹
8 8
Ð¡ Ð¾
ÐĻÐ¾ÑĢ ÐºÐµ
ĠÐ´ÐµÐ² ÑıÐ½Ð¾ÑģÑĤ
ĠÑģÐ¿Ð¸ÑģÐº Ðµ
Ð°Ð² Ðµ
ĠÐĲÑĢ ÐºÐ°Ð´
ĠÐ¿Ð¾ÑĤ ÐµÐ¼
Ð¼Ð¸Ð½Ð¸ÑģÑĤ ÑĢÐ°
ĠÐ¿Ð¾Ð¶ ÐµÑĢÑĤÐ²
ĠÐºÑĢ Ð¾Ð¼
Ñĸ Ñı
ÐµÐ³ Ð¸
ĠÑĪ Ðµ
ĠÐķ ÑģÑĤÐµÑģÑĤÐ²ÐµÐ½Ð½Ð¾
ĠÐµÐ´Ð¸Ð½ Ð¾Ð¹
ĠÐ¿ÑĢÐ¾Ñħ Ð¾Ð¶
ĠÑģÑĭÐ½Ð¾Ð² ÐµÐ¹
ĠÑĤÐµÐ¼ Ð½ÑĭÑħ
ĠÐŁ Ð°Ð¿Ð°
ĠÐ´Ð¸ Ð°Ð¼ÐµÑĤ
ĠÐ¿Ð»Ð°ÑĤ Ð¾Ðº
ĠÐ·Ð°Ð½ÑıÑĤ Ñĭ
ĠÐĲÐºÐ°Ð´ÐµÐ¼ Ð¸Ð¸
ĠÐĲÐ½Ð°ÑĤÐ¾Ð» Ð¸Ð¹
ĠÐµ ÑĢÑĥÐ½
ĠÑģÑĩ ÑĳÑĤ
ĠÐ³Ð»ÑĥÐ± Ð¾ÐºÐ¾Ð¹
ĠÑĢÐ°Ð·Ð³Ð¾Ð²Ð¾ÑĢ Ðµ
ĠÐ¿Ð¾Ð·Ð´ Ð¾ÑĢÐ¾Ð²
ĠÐºÐ»ÑİÑĩ Ð¸
ĠÑĪÑĤ ÑĥÐºÐ°
Ðŀ ÑĢ
ĠÐ¼Ð¾Ð»Ð¸ÑĤ Ð²Ñĭ
ÂłÐ³ Ð³
ĠÐĿ Ð°Ð²ÐµÑĢ
Ġd es
ĠÑĤÐµÑĤ ÑĢÐ°Ð´
ĠÑģÐµÑĢÐµÐ´ Ð¸Ð½Ñĭ
Ð¸Ð¼ ÑĭÐ¼Ð¸
ÐµÑĤ ÑĤ
ÑĮÑı Ð½Ð°
Ġ7 5
ĠÑĢÐ°Ð· Ð³ÑĢ
ĠÐ¿ÑĢÐ¾Ñĩ Ð¸ÑĤÐ°Ð»
ĠÐ²ÐµÑĢ Ð°
ĠÐ¾Ðº ÑĥÑĤ
ÑĢÐ°Ð· Ð²ÐµÐ´
ĠÐ»ÐµÐ³ ÐºÐ¸Ñħ
ĠÐ¸Ð´ ÐµÐ¼
ĠÐ¾ÑĤÐºÐ°Ð· Ð°Ð»Ð¸ÑģÑĮ
ĠÐ¿ ÐµÐ»
ĠÐ¿Ð¾Ð» ÐºÐ¸
ĠÐ´ÑĢÐ°Ðº Ð¾Ð½Ð°
ĠÐ½Ð¸Ñĩ ÑĤÐ¾Ð¶
ĠÑĥÐ»Ð¸ ÑĨÐ°
ĠÐºÐ¾ÑģÑĤÑİ Ð¼Ðµ
ĠÑĥÐ´Ð¸Ð² Ð»ÐµÐ½Ð¸Ñı
ĠÐĵÐµÑĢÐ¼ Ð°Ð½Ð¸Ñı
ĠÑĥÐ± ÑĢÐ°ÑĤÑĮ
ĠÐ³Ð°Ð» ÑģÑĤ
ĠÐ½ÐµÐ¾Ð± ÑĬ
ĠÐĳÑĥÐ´ ÐµÑĤ
Ð¸Ð· Ð´
p h
ĠÐ» ÑĭÑģ
ĠÐ¶ Ð´Ñĥ
ĠÑģÐ´ÐµÐ» Ð°Ð²
ĠÐ¿Ð¾ ÐµÑħÐ°Ð»Ð¸
ĠÐ½ÐµÐ² Ð°Ð¶Ð½Ð¾
ĠÐ¿ÑĢÐµÐ´ÑģÑĤÐ°Ð² Ð¸ÑĤÐµÐ»Ñı
ĠÐŃÑĤ Ð¸Ð¼
ĠÐ¿Ð¾Ð² Ð¸Ð´
ĠÐ²Ð½ ÐµÐ´ÑĢ
Ð¾ÑģÑĤ Ð°
ĠÑıÐ·Ñĭ ÐºÐ¾Ð²
ĠÑģÑĢÐ¾Ðº Ð¸
ĠÐ¤ Ð»
ĠÐ¿ÑĢÐ¸ÑĨ ÐµÐ»
Ð³ÑĢ Ð°Ð´
ĠÐ¿ÑĢÐµÐ²ÑĢÐ°ÑĤ Ð¸Ð»Ð°ÑģÑĮ
ĠÑĨÐµÐ» ÑĭÐµ
ĠÐ¡Ð¿ ÑĥÑģÑĤÑı
ĠÐ¸ÑģÐº ÑĥÑĪ
Ġ4 6
ĠÑĤÑĥÑĢÐ½Ð¸ ÑĢÐ°
ĠÐĿÐ°Ñĩ Ð¸Ð½
Ġ al
ĠÑģÐ²Ð¸Ð´ÐµÑĤÐµÐ»ÑĮ ÑģÑĤÐ²ÑĥÐµÑĤ
ĠÐ¿ÑĢÐ¸Ð¿ Ð¾Ð¼Ð½
ĠÐ¿Ð¾Ð¹Ð¼ Ð°ÑĤÑĮ
Ð¸Ð»Ð¸ ÑīÐµ
ĠÐ¼Ñĭ ÑĪÐ¸
ĠÐ® Ð³Ð¾
ĠÐĹÐµÐ¼ Ð»Ñİ
ĠÑĤÑĢÐµÐ± ÑĥÑİÑĤ
ĠÐ²Ñĭ ÑĢÑĥÐ³
ĠÐ²ÐµÑĢÐ¾ÑıÑĤ Ð½Ð¾ÑģÑĤÑĮ
Ð°Ð» ÐºÐ¸
ĠÐ¾ÑģÐ» Ð¾Ð¶
ĠÐĴÐ¾ÑģÑĤ Ð¾ÐºÐµ
! Â»,
ĠÐ±ÐµÐ» Ð°Ñı
e ar
ĠÐļ Ð¾Ð»Ñı
ĠÑĩÑĥÐ¶ Ð¸Ñħ
ĠÑĤÐµÑħ Ð½Ð¸ÐºÑĥ
Ð°Ð± Ð¸Ð»
Ð½Ð¾ ÑģÑıÑĤ
ĠÐ´Ð¾Ð» Ñı
ĠÐ¨ ÑĥÐ¼
ĠÐ¾ÑĤÐ²ÐµÑĩ Ð°Ð»Ð°
ĠÐĶ Ðµ
0 9
Ð°Ñģ Ñĥ
ĠÐĴ Ð½ÐµÐ·Ð°Ð¿Ð½Ð¾
Ð½Ð° Ñī
ĠÐ¶Ð¸Ð² Ñĥ
ĠÐ¡ Ð°ÑĤ
ĠÑģÑĤÐ¾Ð» Ð¸ÑĨÑĥ
ĠÐ¾Ð± ÑĤ
ĠÐ£ Ðļ
ĠÑģÐ¾Ð± Ð¾ÑĢ
ĠÐ±ÑĢ Ð°Ð»
ĠÐ·Ð°Ð¼ÐµÐ½ Ð¸ÑĤÑĮ
ĠÐ¼ÐµÑģÑı ÑĨÑĭ
ĠÐ¼ ÐµÑĤÐµ
ĠÐ¿Ð¾ÑĢ Ñĥ
ĠÐ¦ ÐµÑĢÐºÐ¾Ð²
ĠÐ¾ Ð»Ð¸Ð¼Ð¿
ÐµÐ½ ÑĨÐ¸Ñı
ĠÐ±ÑĢ Ð°ÐºÐ°
ĠÐ¿ÑĢÐ¾ÑģÑĤ ÑĥÐ¿
ĠÐ¸ÑģÐ¿ÑĥÐ³ Ð°Ð»ÑģÑı
ĠÐ¸Ð½ÑĤ ÐµÐ³
ĠÐ¼ÐµÑĩÑĤ Ð°Ð»
ÑĤÑĥ ÑĢÐ°
ĠÐ½ÐµÐ±Ð¾Ð»ÑĮÑĪ Ð¾Ðµ
ĠÐ¦ Ð²ÐµÑĤ
ĠÐ¾Ð±ÑĥÑĩ ÐµÐ½Ð¸Ðµ
Ð¹ÑĤÐµ ÑģÑĮ
Ð¾Ð² Ð°Ð²
ĠÐ²ÑģÑĤ Ð°Ð»Ð¸
ĠÑĤÑĢÐµÐ¿ ÐµÑĤ
ĠÐ´ÐµÑĢÐ¶ Ð°Ð»Ð¸
ÑĨ ÑĮ
ĠÑģÐ¾ÑģÑĤÐ¾Ñı Ð»ÑģÑı
Ð¾Ð¼ Ð±
Ð»ÐµÑĤ Ð½ÐµÐ³Ð¾
Ð»ÐµÐ² Ð°ÑĤÑĮ
ĠÐ¾ÑĢÑĥÐ´ Ð¸Ñı
Ð¾Ð± ÑĢÐ°Ð½
ĠÐ³ ÐµÐ½Ð¸
ĠÐĵÑĢ Ð¾Ð·
ĠÐĲÐ½ ÑĤ
ĠÐ¿ÑĢÐµÐ¾Ð´Ð¾Ð» ÐµÑĤÑĮ
ĠÐ¿Ð¾Ñģ ÑĳÐ»
ĠÐ¾Ð¿ÑĥÑģÑĤ Ð¸Ð»Ð°ÑģÑĮ
ĠÐ¿ÑĢÐ¸Ð½ ÑıÐ²
ĠÐ·Ð°ÑĤ Ñı
ÑĥÑģÑĤ Ð¸Ð²
ĠÐ´ Ð¸ÑĤÑı
ĠÐĳ Ð¾Ð»ÑĮ
ĠÐŃ Ð»Ð¸Ð·
ĠÐ¿ÑĢÐ¸Ð´ ÑĳÑĤÑģÑı
Ð¾Ð½Ð´ Ð¾Ð½
ĠÐ»Ð¸Ð´ ÐµÑĢÐ¾Ð²
ĠÐ»ÐµÐ² ÑĥÑİ
ĠÑĤÐ²Ð°ÑĢ ÑĮ
ĠÐ¿Ð¾Ð´Ð´ÐµÑĢÐ¶ Ð°ÑĤÑĮ
ĠÑĢÐµÑģÑĥÑĢ ÑģÐ¾Ð²
ĠÐ¸Ð·Ð´Ð°Ð» ÐµÐºÐ°
Ð°ÑĤÐµÐ»ÑĮ ÑģÑĤÐ²Ðµ
ĠÐ´Ð¾ÑĢ Ð¾Ð¶Ðµ
ĠÐ·Ð´ Ð°Ð½Ð¸Ð¸
ĠÐ¸Ð¼Ðµ ÐµÑĪÑĮ
ĠÑħÐ¾ÑĢÐ¾ÑĪ ÐµÐ½ÑĮÐºÐ¾
ÑģÐ¾Ð² ÐµÑĤ
ĠÐ¿ÑĢÐµÐ´Ð»Ð¾Ð¶ Ð¸Ð»Ð¸
ĠÐ¿ÑĢÐ¸ÐºÐ°Ð· Ñĥ
ÑĢ Ð°Ð¿
ĠÑĢÐ°Ð· Ð»Ð¾Ð¶
ĠÑģÐ»Ð°Ð² Ñĥ
ĠÐ» ÑıÐ³
Ðľ Ð¾ÑĢ
ĠÑĢÐ°Ð· ÑĢÑıÐ´
ĠÐ¢ ÑıÐ¶
ĠÐ¼Ð¾Ð»Ð¾Ð´ Ð¾ÑģÑĤÐ¸
ĠÐ½Ðµ ÑģÑĤÐ¸
ĠÑħÐ°Ð» Ð°ÑĤ
Ð·Ð°Ñī Ð¸ÑĤ
ĠÐ¼ ÑįÑĢ
ĠÐļÐ¾Ð½ÑģÑĤ Ð¸ÑĤÑĥ
ĠÐ¾ ÑĨÐµÐ¿
ÐµÐ´ Ð¾Ð²
ĠÐ»Ð°Ð³ ÐµÑĢÐµ
ĠÐĴÑĭÑģ Ð¾Ðº
Ð½Ñĥ Ñī
Ð¸ÑĢÑĥ ÑİÑĤÑģÑı
ĠÐ¼ÑĭÑĪ ÑĨÑĭ
Ðł Âµ
ĠÐ¸ Ð½ÑĭÐ¼
ĠÑĥÐ²ÐµÑĢÐµÐ½ Ð½Ð¾ÑģÑĤÐ¸
ĠÐ»ÑĥÑĩ ÑĪÐµÐ¼
ĠÐ·Ð°Ð½ÑıÑĤ Ð¸Ð¹
Ð¾Ð½ Ð°Ð»
ĠÐ¿Ð¾Ð±ÐµÐ´ Ð¸ÑĤÑĮ
ĠÐ²Ð°ÑĢÐ¸ Ð°Ð½ÑĤÑĭ
Ð² Ð¸Ð»Ð¸
Ð°ÑĤ Ð°Ñı
Ðĵ Ð£
ÑıÑīÐ¸Ð¹ ÑģÑı
ĠÐ¿ÑĢÐ¾Ð²Ð¾ÑĢ ÑĩÐ°Ð»
ĠÑģ ÑĥÐº
ĠÐĺ Ð³Ð½
ĠÐ¸Ð·Ð¾Ð±ÑĢÐ°Ð¶ ÐµÐ½Ð¸Ñı
ÑĤÐ¾ Ð½Ð¾Ð²
Ð± ÑĥÐ½
Ġ198 0
âĢľ ,
ĠÐ¾Ð±ÑģÑĥÐ¶Ð´ Ð°ÑĤÑĮ
ĠÐ´Ð¾Ð±ÑĭÑĩ Ñĥ
ĠÐ½Ðµ Ð¸Ð·Ð¼
ĠÐ·Ð°Ð½ ÐµÑģ
Ġ193 0
ĠÐ¿ÑĢÐµ Ð¾Ð´
ĠÐ´ÐµÐ» ÐµÐ³
ĠÑģÐ¾Ð·Ð´ Ð°Ð½
ĠÑĨ Ð¸Ð½
ĠÐ²ÑĭÑģ ÑĪÐµÐ³Ð¾
ĠÑĨÐµÐ½ÑĤ ÑĢÐ¾Ð¼
ĠÑĢÐ°ÑģÐ¿Ð¾Ð»Ð¾Ð¶ ÐµÐ½
ĠÑĤÐ¾Ð» Ñī
Ð°Ð²ÑĪ ÑĥÑİÑģÑı
ĠÐ²ÑĢÐ°Ñĩ Ð¸
Âł Ð¾Ð±
ĠÐ¡ Ð°ÑĪ
ÑĨ ÐºÐ¾Ð³Ð¾
Ð¡ Ð¼
ĠÐ²Ð°Ð¶ Ð½ÑĭÐ¹
ĠÑģÐ¾Ð±ÑģÑĤÐ²ÐµÐ½ Ð½ÑĭÐ¼Ð¸
Ð°Ð½ ÐºÐµ
ÑĤÐ¾ Ð½Ðµ
ĠÐ¾ÑģÑĤÐ°Ð² Ð»ÑıÑĤÑĮ
ĠÐ¿Ð°ÑĢ Ð½ÐµÐ¹
ĠÐ¿Ð¾Ð³ Ð¾Ð´Ð°
ĠÐ²Ð°Ð¶ Ð½ÐµÐµ
ĠÐºÐ¾Ð½ ÑİÑĪ
ĠÐ¿Ð¾Ñģ Ð¾Ð±
Ð¾ÑĤ Ð°Ð»
ĠÑģÐº Ð°ÑĤ
ĠÐºÐ¸Ñģ Ð»Ð¾ÑĤ
ĠÐ½Ð°ÑĩÐ°Ð»ÑĮ Ð½Ð¸ÐºÐ¾Ð¼
Ð°Ð» Ð°Ð¼Ð¸
ĠÑģÐºÐ¾Ð½Ñĩ Ð°Ð»ÑģÑı
ĠÐĹ Ð°ÑħÐ°ÑĢ
ĠÑĨÐµÐ½ÑĤÑĢ Ð°Ð»ÑĮÐ½Ð¾Ð¹
ĠÑģÑĭÐ³ÑĢ Ð°Ð»
Ð´ Ð»Ñı
Ðķ ÑģÑĤÑĮ
Ð¸Ñĩ ÐµÐ¼
ĠÐ¿ÐµÑĢÐµÐ´ ÐµÐ»
ĠÐļÑĥÐ± ÐºÐ°
ĠÐ·ÑĢÐµÐ»Ð¸ ÑīÐµ
Ð¸Ð¼ ÐµÐ½ÑĤ
ĠÐ±ÑĭÑĤ Ð¸Ñı
Ðľ Ð¸Ð½
ĠÐºÐ¾Ð¼Ð¿ Ð¾Ð½
ĠÐ½Ð°Ð½ ÐµÑģÑĤÐ¸
ĠÑģÐµÐ¼ÐµÐ¹ ÑģÑĤÐ²Ð°
ĠÐºÐ°ÑĢ ÑĤÐµ
ĠÐ¿Ð¾ÐºÑĥÐ¿ Ð°ÑĤÑĮ
ĠÑģÐ¾ ÑĨ
Ðĵ Ð¾ÑģÐ¿Ð¾Ð´
ĠÐ²Ð¾Ñģ ÑħÐ¾Ð´
ÂłÐŁ Ð¾ÑĤÐ¾Ð¼Ñĥ
ĠÑģÑĬ ÐµÐ´
ĠÐ½Ð° Ð¸Ð±
ĠÐ¿ÑĢÐµÐ¸Ð¼ÑĥÑīÐµ ÑģÑĤÐ²Ð¾
ÐµÑģÑĤ ÐµÑĢ
ĠÑģÐ²ÑıÑĤ ÑĭÑħ
ĠÐ¡Ð» ÑĥÑĩ
ĠÐ¾ÑģÐ½Ð¾Ð² Ñĥ
ĠÐŁÐ¾Ð¿ ÑĢÐ¾Ð±
ĠÐ¿Ð¾Ð² ÑĢÐµÐ´
ĠÐ¿ÑĢÐ¾Ð¼ ÑĭÑĪ
ĠÐº Ð»Ð¸Ñĩ
ĠÐ³Ð»Ñı Ð´ÐµÐ»
20 14
ĠÐ´Ð¾Ð²ÐµÑĢ Ð¸Ðµ
ĠÐ´Ð»Ð¸Ð½ Ð½Ð¾Ð¹
ĠÑĢÐ°Ð½ÐµÐ½ ÑĭÑħ
ĠÐ² Ð°Ð½Ð½Ð¾Ð¹
ĠÐ¸Ð½ Ð²Ð°Ð»Ð¸
ĠÐĸ ÐµÐ½Ñı
Ð»ÐµÐ¼ Ð°
Ð°Ð¼ Ñĭ
ĠÑĢÐ°Ñģ ÑģÑĤÑĢÐµÐ»Ñı
ĠÐ¾Ð¿ÑĥÑģÑĤ Ð¸Ð»Ð°
ĠÐºÐ°ÑĢ Ð°Ð±
ĠÑĢÑĭÐ± Ñĥ
ĠÑĥÑģÐ¿Ð¾ÐºÐ¾ Ð¸ÑĤÑĮ
ĠÐ¿Ð¾ÑģÐ¾Ð²ÐµÑĤ Ð¾Ð²Ð°Ð»
ĠÑģÐ¾Ð² Ð¾ÐºÑĥÐ¿
ĠÐ²Ñĭ Ð²ÐµÑĢ
ĠÐ¿Ð¾ÑģÑĤ Ð°
ĠÑģÐ¿ÑĢÐ°Ð²ÐµÐ´Ð»Ð¸Ð² Ð¾ÑģÑĤÐ¸
ĠÐ¾ÑģÑĤÐ°Ð² Ð»ÑıÑı
ĠÐ¼Ð¾Ð¼ÐµÐ½ÑĤ Ñĥ
ĠÑĥÑģ ÑĭÐ¿
ĠÐ²ÑģÑĤÑĢÐµÑĩ Ð°ÑİÑĤÑģÑı
ĠÑĦ Ð¸ÐºÑģ
Ð¾ÑĪ Ð»Ð°
ĠÐ°Ð¿Ð¿Ð°ÑĢ Ð°ÑĤÐ°
Ð¾ÑĪ Ð¸
Ñħ Ð°ÑĢ
ĠÐĳ ÑĥÐº
ĠÐ¿ÑĢÐ¾ÑģÑĤ ÑĭÐ¼
ĠÐ¨Ð°ÑĢ Ð»Ð¾ÑĤ
ĠÐ¼ ÑĥÐ´
Ð² Ð¸Ð»
ĠÐ³Ð¾Ð»Ð¾Ð² Ð°Ð¼Ð¸
ĠÑģÐ²Ð¾Ð¹ ÑģÑĤÐ²Ð°
ĠÐ³ÐµÐ½ ÐµÑĤ
ÐµÐ½ ÑĭÐ¹
ÑĢÐ¾Ð² Ð°Ð²
Ð°Ð¹ Ð·
ĠÑĤÑĢ ÐµÑĥÐ³Ð¾Ð»ÑĮ
ĠÐ¼Ð°Ð»ÐµÐ½ÑĮ ÐºÐ¸Ð¼
ĠÐļÑĢÑĭÐ¼ Ñĥ
Âł ÑĢÐ°Ð·
ĠÑĥ ÑģÐºÐ¾Ð»ÑĮÐ·
ĠÐ²ÐºÐ»ÑİÑĩ Ð°ÐµÑĤ
ĠÑģÑĤÐ¾ ÑıÐ»Ð¾
ĠÐ¡Ð¼ Ð¸ÑĤ
ĠÐ¿Ð¾Ð»Ð¸ÑĨÐµÐ¹ ÑģÐºÐ¸Ðµ
Ð¾Ð· Ð½Ð°
________ ________
ĠÐ¿ÐµÑĢÐµÐ² ÐµÑģÑĤÐ¸
Ð¸Ñı Ð·
ĠÐ±ÐµÐ·Ð¾Ð¿Ð°Ñģ Ð½Ð¾ÑģÑĤÑĮ
ĠÑĢÐµ ÑĦ
ĠÑįÐºÐ· Ð°Ð¼ÐµÐ½
ÐŁ Ð¾Ð²
ĠÐ±Ð¾Ñı ÑģÑĮ
ĠÐ·Ð°Ð´Ð°Ñĩ ÐµÐ¹
Ð½ Ð¸Ð»Ð¸
ĠÑħ ÑĢÐµÐ±
ĠÐºÑĢÑĥÐ¿ Ð½ÑĭÐ¹
ĠÐ¾ÑĤÑĢ Ð°Ð±Ð¾ÑĤ
Ð¸ÑĢÐ¾Ð²Ð°Ð½ Ð½ÑĭÐ¼
ĠÑģÐ¾Ð±ÐµÑģÐµÐ´ Ð½Ð¸Ðº
ĠÐ¢ ÑĢÑĥ
ÐµÐ½ ÑģÐºÐ¾Ð¹
ĠÐ¿Ð°ÑĨÐ¸ ÐµÐ½ÑĤ
ĠÐļ Ð°ÑģÑĤ
ĠÐ´Ð°Ð² Ð°Ð»Ð°
ĠÐ»Ð°Ð¿ Ñĭ
ĠÑįÐ½ÑĤÑĥÐ·Ð¸ Ð°Ð·
ĠÐļ Ð¾ÑĢÐµ
Ð¸ÑĨ ÐºÐ¸Ð¹
ĠÐĵÑĢ Ð¸Ð½
ĠÑĤÐµÑĢÐ¿ ÐµÐ»Ð¸Ð²Ð¾
Ð»Ð°ÑĤ Ð¸ÑĤÑĮ
Ð¸Ñĩ Ð½Ð¾ÑģÑĤÑĮ
Ð°Ð³ Ð°Ð»
ĠÐ¿Ð¾ÑĤ Ð¸ÑħÐ¾Ð½ÑĮÐºÑĥ
ĠÐ½Ð°Ñģ ÑĭÑī
ĠÐ¿ÑĢÐ¾ÑģÑĤ ÑĭÑħ
ĠÐ¼ÐµÑģÑĤ Ð°Ð¼Ð¸
ĠÑģÐ¿Ð°Ñģ ÐµÐ½Ð¸Ðµ
ĠÐºÐ¾Ð¶ ÐµÐ¹
Ð¾Ð² ÑģÐºÐ¾Ð¹
ĠÐ¿ÑĢÐ¾ ÐµÐºÑĤÐ¾Ð²
ĠG oogle
ĠÐ½Ðµ ÑĥÑģÑĤ
ĠÐºÐ¾Ð½ Ð²ÐµÑĢÑĤ
Ð¾Ð·Ð½ Ð°Ð½Ð¸Ðµ
ĠÑĨÐµÐ½ Ðµ
ĠÐ² Ð²ÐµÑģÑĤÐ¸
ĠÐ³ÑĥÐ¼Ð°Ð½ Ð¸ÑĤÐ°ÑĢ
ĠÐ¼ÐµÐ´ Ð°Ð»ÑĮ
ĠÐ¡Ð¿ ÐµÑĨÐ¸
ĠÑĢÐ°Ð² Ð½
Ð´ Ð¾Ð¹
ĠÑģÑĤÐ¾Ð» Ð¾Ð²Ð¾Ð¹
ĠÑĩÑĥÐ´ Ð¾Ð¼
ĠÐ³Ð°Ð» ÐµÑĢÐµ
ĠÑĢÐ°Ð·Ð³Ð¾Ð²Ð°ÑĢ Ð¸Ð²Ð°Ð»
ĠÐ¿ÑĢÐ¸Ð½ÑĨ ÐµÑģÑģÐ°
ĠÐ²ÐµÑĢ Ð±
ĠÐ¿Ð¾Ð¼ÐµÑī ÐµÐ½Ð¸Ð¸
ĠÐ¼Ð½Ð¾Ð¶Ðµ ÑģÑĤÐ²Ð°
ĠÐ¼ÐµÑĤ ÑĢÐ°Ñħ
ĠÐ·Ð°Ð³ Ð»ÑĥÑĪ
ĠÐ¿Ð»Ð¾ ÑģÐº
ĠÂ« âĢ¦
ĠÑģÐ¸Ð³Ð°ÑĢ ÐµÑĤ
ĠÐ¿Ð¾Ð² ÑģÐµÐ´Ð½ÐµÐ²
ĠÐ´Ð² Ð¸Ð½ÑĥÐ»Ð¸ÑģÑĮ
ĠÑĥÑĩÐµÐ½ ÑĭÐ¹
Ð°Ð½Ð´ ÑĢÐ°
ĠÐ²ÑĭÐ¿ Ð¸Ñģ
ĠÐ¸ÑģÑĤÐ¾Ñĩ Ð½Ð¸ÐºÐ°
Ð¾ÑĩÐµ ÑģÑĤÐ²Ð¾
ĠÐ·Ð°Ð± ÑĢÐ¾ÑĪ
ĠÐ¿ÑĢÐ¸ÑħÐ¾Ð´ Ð¸Ð»Ð¸
ĠA m
ĠÐ·Ð²ÐµÑĢ Ñı
ĠÐ·Ð°Ð¿Ð»Ð°ÑĤ Ð¸ÑĤÑĮ
ĠÐ°Ð´Ð¼Ð¸Ð½Ð¸ÑģÑĤ ÑĢÐ°
ĠÐĴ ÑıÑĩ
ĠÑģÐ°Ð¼Ð¾Ð» ÐµÑĤÑĭ
Ð°ÑģÑĤ ÑĭÑĢ
ĠÐ·Ð°Ð» ÐµÐ·
ĠÑĤÐ°Ð± Ð»Ð¸
ĠÑĩÐµÑĢ Ð½ÑĭÐ¼
ĠÐ½ÐµÐ¿ÑĢ Ð¾ÑģÑĤ
ĠÐ¿Ð¾Ð¿ ÑĢÐ¾Ñī
ĠÐºÐ¾Ð½ Ð´
Ðł Ð¤
ĠÐĿÐ¾Ð² Ð¾Ñģ
ĠÐ´Ð¾Ð¶Ð¸Ð´Ð° ÑıÑģÑĮ
ĠÐ£Ðº Ð°Ð·
ĠÐ¼ÐµÐ¶Ð´ÑĥÐ½Ð°ÑĢÐ¾Ð´ Ð½Ð¾Ð³Ð¾
Ġ1 20
ÑĩÐ¸Ðº Ðµ
ĠÐł Ð¾Ð³
ĠÐ¿Ð¾Ð´ Ð½ÑıÐ»Ð¸
Ð½Ðµ ÑĨÐ¾Ð²
ĠÐ¿ÑĢÐµÐ´ÑģÑĤÐ°Ð²Ð»Ñı ÐµÑĤÑģÑı
ĠÐ¡Ð¾Ð± ÑģÑĤÐ²ÐµÐ½Ð½Ð¾
ĠÑĢÐ¾Ð´ Ð¸Ð»Ð°ÑģÑĮ
ĠÐºÑĢÐ°ÑģÐ¸Ð² ÑĭÐµ
Ð°Ð² Ð¸ÑĤÑĮ
ĠÑĢÐ°Ð·Ð± ÐµÑĢ
ĠÐķ Ð²Ð°Ð½Ð³ÐµÐ»
ĠÐ²ÑĭÑĢÐ°Ð· Ð¸ÑĤÑĮ
ĠÐºÐ¾Ð¼ ÐµÐ´
ĠÐ¿Ð¾Ð· Ð²Ð¾
ĠÐ·Ð°Ð¹ ÑĤÐ¸
ĠÑĩ ÐµÑģ
ĠÐľ Ð¾Ð´
ÑĮÑı Ñħ
ĠÑĥÐ¿Ð¾Ð¼ ÑıÐ½ÑĥÑĤ
ĠÐ°ÑĢ ÑĤÐµÑĦ
ĠÐ²ÑģÑĤÑĢÐµÑĩ Ð°ÑĤÑĮÑģÑı
Ð± Ð°Ñħ
ĠÐ±ÐµÐ» ÑĭÐ¼Ð¸
ĠÐ¼Ð¾Ð· Ð³Ð¸
ĠÐĵ Ð°Ð¼
Ð¾Ð¿ Ð¾Ð´Ð¾Ð±
ĠÐ¢ Ð¾Ð±
ÐĴ Ðĺ
ĠÑģÑĭ Ð¿
ĠÐľ Ð¾Ð³Ñĥ
Ñį Ð³
ĠÐ¿ÑĢÐ¸Ð·Ð½ Ð°ÐºÐ¾Ð²
a u
ĠÐ·Ð°Ð½ÑıÑĤ Ð¸Ðµ
ĠÐ²Ð´ Ð²Ð¾Ðµ
ĠÑģÑĥÐ´ Ð¾ÑĢÐ¾Ð¶Ð½Ð¾
ĠÐ·Ð°Ð¿Ð°Ð´ Ð½ÑĭÑħ
ĠÑĩÑĢÐµÐ·Ð²ÑĭÑĩ Ð°Ð¹
ĠÐ²ÑģÑĤÑĢÐµÑĩ Ð°ÐµÑĤÑģÑı
p r
ĠÐĽ Ð¸Ð·Ð°
ĠÐ¾Ð³ÑĢÐ¾Ð¼ Ð½ÑĭÑħ
h er
i o
ĠÐ´ÐµÐ» Ð¸ÐºÐ°ÑĤ
ĠÑĢ ÑİÐ¼
ÑĢÐµÑĤ Ð¸Ð¹
ĠÑĢÐ°Ð·ÑĢ Ð°Ð±Ð°ÑĤ
Ð¸ÑģÑĤ ÑĭÑħ
ĠÐ°Ð²ÑĤÐ¾Ð¼Ð°ÑĤ Ð¸ÑĩÐµÑģÐºÐ¸
ĠÑģÐ¾ÑĤÑĢÑĥÐ´ Ð½Ð¸Ðº
ÐºÐ¾Ð½ ÑĦ
Âł ÑĩÑĤÐ¾
Ð¾ÑĦ ÑĦ
ĠÐľ ÐµÑĩ
ĠÑĨÐ¸ÑĦ ÑĢÑĭ
ĠÑģÑĤÐ¾Ð»ÐµÑĤ Ð¸Ñı
ĠÐ¾ÐºÐ¾Ð½Ñĩ Ð¸Ð»
Ð» Ð¾Ð³
ĠÐ¿ ÑĥÐ»Ñı
ĠÐ½ Ð¸ÑĤ
ĠÑĥ ÑıÐ·Ð²
ĠÐ´ÐµÑĢÐ¶ Ð°Ð»Ð°
ĠÐĶ ÐµÑģÑı
Ð¸ÑĤ Ð°Ñı
ĠÐ±ÐµÑģÐµÐ´ Ñĥ
ĠÐ³ ÐµÐ¹
ĠÐłÐ°Ñģ Ð¿
ĠÐĴÐµÑĤ ÐµÑĢ
Ð°Ñħ ÑĤ
ĠÑģÐ¼ ÑıÑĤ
ĠÐ¸Ð· Ð¾Ð±
ĠÐ½Ð° ÑĥÐºÐ°
ĠÐ²ÑĭÑĪ ÐµÐ´
ĠÐ¥ Ð¾
ĠÐ¿ÑĢÐ¾Ð´Ð¾Ð»Ð¶ Ð¸Ð»Ð°
ĠÐ¿ÑĢÐ¸Ñħ Ð¾Ð¶
ĠÐ½Ð¾ÑĢÐ¼ Ñĭ
ĠÐ¶ÑĥÑĢÐ½Ð°Ð»Ð¸ÑģÑĤ Ð¾Ð²
ĠÐ¾ÑģÐ¾Ð± Ð¾Ðµ
ĠÐ¥ Ð°Ð±
ĠÐ²ÑĭÑĤ Ñı
ĠÐļ Ð°Ð»Ð¸Ð½
ÑĨÐ¸Ð¾Ð½ Ð½ÑĥÑİ
ĠÐ¿Ð° ÑĨ
ĠÑģÐ¿Ð¾ÐºÐ¾Ð¹ ÑģÑĤÐ²Ð¸Ðµ
ĠÐ½ÐµÑĦ ÑĤÑı
ĠÐ¾ÑĪÐ¸Ð± ÑģÑı
ĠÑģ Ð°Ñħ
ĠÑģÑĢÐ°Ð¶ Ð°ÑĤÑĮÑģÑı
Ð¾Ñĩ ÐºÐ°Ñħ
ĠÐ²Ð¾ÑģÐ¿Ð¾Ð¼Ð¸Ð½ Ð°Ð½Ð¸Ð¹
ÑĢÑı Ð½
ĠÐ¿Ð¾Ð´Ð³Ð¾ÑĤÐ¾Ð² ÐºÐµ
ĠÐ»Ð¸Ð½ Ð¸Ñı
ĠÐ¿ Ð¸Ð»Ð¸
ĠÐµ Ð·
ĠÑĢÐ¾Ð´ Ðµ
ĠÐ¾Ð±Ñī Ð¸Ñħ
ĠÐµÐ´Ð¸Ð½ Ð¸ÑĨ
ĠÐ¼Ð°Ñģ Ð»Ð¾Ð¼
ĠÐ±ÐµÐ·ÑĢÐ°Ð· Ð»Ð¸Ñĩ
ĠÐ¿Ð¾ÑģÑĤÑĥÐ¿ Ð°ÑĤÑĮ
ĠÑĪÐµÑģÑĤÑĮ Ð´ÐµÑģÑıÑĤ
Ð°Ð·ÑĭÐ² Ð°ÑĤÑĮ
ĠÑģÑĤÐµÐ½ Ð°Ð¼Ð¸
ÐµÐº ÑģÑĥ
ĠÐ¿ÑĢÐ¸Ð·Ð½ Ð°Ð½Ð¸Ðµ
ÑįÐ½ Ð´Ð¸
ĠÐ»Ð¸Ð½ ÐµÐ¹
ĠÐ¿Ð¾ÑģÐµÑĤ Ð¸ÑĤÐµÐ»ÐµÐ¹
ĠÐ½Ð¾Ð²Ð¾ÑģÑĤ ÑıÐ¼Ð¸
ÐºÐ¾Ð² ÑĭÐ¼
ÐĶ Ðł
ĠÐ»Ð¸Ð´ ÐµÑĢÐ°
ĠÐ°ÑĢÑĤ Ð¸ÑģÑĤ
ĠÐ£ ÑĩÐ°ÑģÑĤ
Ð¸Ð· Ð¼Ðµ
Ð°ÑĤÐµÐ»ÑĮ Ð½ÑĭÐ¼Ð¸
ĠÐºÐ¾Ð» Ð¾Ð½Ð¸Ð¸
ÑĢÐ¾Ð¿ Ð¾Ð»Ð¸ÑĤ
ĠÐ¿Ð¾Ð¼Ð½ Ð¸ÑĤÐµ
ĠÐºÐ¾Ð½ÑĤÑĢÐ¾Ð» Ð¸ÑĢÐ¾Ð²Ð°ÑĤÑĮ
ĠÐ¾Ð´Ð¸Ð½Ð¾Ñĩ ÐºÑĥ
ĠÐĵ ÑĥÐ´
ĠÐ²ÑĭÐ¸Ð³ ÑĢÐ°Ð»
ÐĶ Ð¾Ð½
ÐŃ ÑĤÐ¸
Ð¼ ÐµÐ½Ñı
ĠÑģÐ» ÑĥÐ³Ð¸
ĠÐ¾ÑĤÐ½Ð¾Ñģ Ð¸ÑĤÑĮÑģÑı
ĠÑİ ÑĢÐ¸ÑģÑĤ
ĠÐ¾ÑģÐ¾Ð± ÐµÐ½Ð½Ð¾Ð³Ð¾
ĠÐ³Ð¾ÑĢÐ¾Ð´ ÑģÐºÐ¸Ñħ
ĠÑĦÑĢÐ°Ð· Ñĭ
ĠÐŁ ÑĢÐµÐ¼
ĠÐŀÐº Ñģ
ĠÑģ Ð³Ð¾
ĠÐºÐ¾Ð¼Ð¿ ÐµÐ½ÑģÐ°
ĠÐ½ÐµÑģ Ð¿ÑĢÐ°Ð²ÐµÐ´Ð»Ð¸Ð²
ĠÐ½ÐµÐ¼ÐµÑĨ ÐºÐ¾Ð³Ð¾
ĠÐ¿ÑĢÐ¾Ð´Ð¾Ð»Ð¶ Ð°ÐµÑĤÑģÑı
ĠÐ¾ÑīÑĥÑī Ð°Ð»
ĠÐŁÐµÑĢÐ² ÑĭÐµ
ĠÐĴ Ð¸
ĠÑħ ÑĢÐ¾Ð¼
Ð°Ð´ Ð¸Ð»
ĠÐ¿ÑĢÐ¾Ð´Ð¾Ð»Ð¶ Ð°ÑİÑĤ
ĠÑĩÑĢÐµÐ· Ð¼ÐµÑĢ
ĠÐ¿ÐµÑĢÐµÑĪ Ð»Ð¸
ĠD e
ĠÐ²ÐµÑĢ ÑģÑĤ
ĠÐ³ÑĢÑĥ Ð½
en ce
ĠÐ¾ Ð»
ĠÐ¿Ð¾ÑĢ Ñĭ
ĠÐ½Ð°ÑĢÐ¾Ð´ Ð½Ð¾Ð¹
Ðº Ð¾Ñģ
ĠÐŀ Ð»Ð¸
ĠÑĤ Ð¾Ðº
Ð½Ð¾Ð¼ Ð¾ÑĢ
ĠÐ½Ð°Ð¹Ð´ ÐµÑĤÑģÑı
Ð¸ÑģÑĤ ÑĭÐ¼
ĠÐ²ÐµÑĢÑĪ Ð¸Ð½Ðµ
ĠÐ¾Ð´ Ð½Ð¾Ð·Ð½Ð°Ñĩ
ĠÐĴ Ð¸Ð·
ĠÐ¸ÑģÐº Ð°Ð»Ð¸
ĠÐ»Ð¾Ð¶ ÐºÐ¸
ĠÐºÑĢÐ¸Ñĩ Ð°ÑĤÑĮ
Ð°ÑİÑīÐ°Ñı ÑģÑı
ÐµÑģ Ð¸
ĠÐ²Ð¾Ð´ ÐºÐ¸
ÐµÐ½ ÑĨÑĭ
ĠÑĥÑģÑĤÐ°Ð² Ð¸Ð»Ð°ÑģÑĮ
ĠÐ·Ð°Ð¼ÐµÑĢ Ð»Ð°
Ð¸Ð² Ð¾Ð¹
ÐĿ Ð¸
ĠÐ¿Ð¾Ð· Ð¸ÑĨÐ¸Ð¹
Ñģ ÑĥÑĢ
Ð¾ÑĤ Ð¸
Ġfor m
ĠÐ¿ÐµÑĢ ÐµÑģÐº
ĠÐ¿ÑĢÐ¸Ð±Ð»Ð¸Ð· Ð¸ÑĤÐµÐ»ÑĮÐ½Ð¾
ĠÑĪ ÐµÐ´
ĠÑģÑĤÐ°ÑĢ ÑĭÐ¼
ĠÑĢÑı Ð´Ñĥ
ÐĶ Ð¾ÑĢ
ĠÐ¿ÑĢÐ¾ÑģÑĤ ÑĭÐµ
ĠÑģÐµÑĢÐ´ ÑĨÑĥ
ĠÑģÐ»ÐµÐ´ÑĥÑİÑī ÑĥÑİ
ĠÐ³Ð»Ð¾ÑĤ Ð¾Ðº
ĠÐĿ Ðķ
ĠÑĤÐ¾Ð²Ð°ÑĢ Ñĭ
ĠÐ¿Ð¾Ð³Ð¾Ð²Ð¾ÑĢ Ð¸Ð¼
ÑĩÐ¸Ðº Ñĥ
ar e
ĠÐ²ÑĭÐ³Ð»ÑıÐ´ ÐµÐ»Ð¸
ĠÐ¸Ð¼Ðµ ÐµÑĤÐµ
Ð² Ð°Ð½Ð¸Ðµ
Ð¾Ð¶ Ð¸
Ð´Ð¸ Ð¾Ð·
ĠÐ¾Ñģ Ð²ÐµÑĤ
Ð°Ñĩ ÐµÐ²
ĠÐ°Ð² Ð°ÑĢÐ¸Ð¸
ÐµÐ·Ð´ Ð¾Ð¼
ĠÐ²Ð·Ð´ÑĢÐ¾Ð³ Ð½ÑĥÐ»Ð°
Ð¾Ð² Ð¾Ð¼Ñĥ
ÐŁ Ð¾Ð¼
ĠÑĪÑĤ Ð°ÑĤÐ°
ĠÐ½Ð°ÑģÑĤÑĢÐ¾ ÐµÐ½Ð¸Ñı
ĠÐ¾Ð±ÑĢÐ°Ð´ Ð¾Ð²Ð°Ð»ÑģÑı
ĠÐ¿Ð¸Ñģ ÐµÐ¼
ĠÐ²ÑģÑĤÑĢÐµÑĤ Ð¸Ð»ÑģÑı
ĠÑĤÑĢ Ð°Ð¼
ĠÑĦÑĢÐ°Ð· Ð°
ĠÐĳÐµÐ»Ð¾ÑĢÑĥÑģ ÑģÐ¸Ð¸
ĠÑĢÐ°Ñģ ÑģÐ¿ÑĢÐ°ÑĪ
ĠÐ£Ð²Ð¸Ð´ ÐµÐ²
ĠÐĶ ÐµÑĢÐµÐ²
ÑĢÐ¸ Ð¶
ĠÐ¿Ð¾ÑĤ ÑĢÐ°ÑĤ
Ñĩ ÑĥÐº
ĠÐ¿Ð»Ð¾Ñħ Ð¾Ð³Ð¾
ĠÐ¶ Ð°Ð´Ð½Ð¾
ĠÑĥÐ¼ Ð¾Ð»Ñı
ĠÐĶ ÐµÐ½
ĠÑıÐ·Ñĭ ÐºÐ¸
ĠÐ´Ð¾ÑģÑĤ Ð°Ð»Ð°
ĠÑģÐ¾ÑģÑĤÐ¾Ñı Ð»Ð°ÑģÑĮ
ÑıÑī Ð¸ÑħÑģÑı
ĠÐ·Ð½ Ð°ÐºÐ¸
ĠÐ½ÐµÑģ Ð¾Ð²ÐµÑĢÑĪ
ĠÐ¾ÑĤÐ² Ð°Ð¶
ĠÐ¾ÑĤÐº Ð»Ð°Ð´
ĠÑĥÐ¹ Ð´ÐµÑĤ
Ð¸Ð¹ ÑģÐºÐ¸Ð¼
Ð¸ÑĢ Ð¸
ĠÐ´Ð¾ÑĩÐµÑĢ ÑĮÑİ
ĠÑĤÑıÐ¶ÐµÐ» ÑĭÑħ
ĠÑģÐ¾ÑĤÑĢÑĥÐ´Ð½Ð¸ÑĩÐµ ÑģÑĤÐ²Ð°
ĠÐ± ÑĢÐ°Ð½
ĠÑĥÐ² Ð¾Ð»ÑĮ
Ð¿ÐµÑĢ ÐµÐ´
Ð» Ð°ÑĢ
ĠÐ¼Ð¸Ð» Ð¾ÑģÐµÑĢÐ´
ĠÑĥÐ¼ ÐµÑİ
[...]
